<unk>	0
<s>	0
</s>	0
▁t	-0
he	-1
▁a	-2
in	-3
er	-4
▁the	-5
▁o	-6
▁s	-7
re	-8
▁w	-9
en	-10
on	-11
at	-12
an	-13
is	-14
it	-15
or	-16
ed	-17
es	-18
▁c	-19
▁b	-20
nd	-21
ou	-22
▁of	-23
ar	-24
▁f	-25
▁m	-26
▁d	-27
▁h	-28
▁p	-29
al	-30
▁and	-31
as	-32
▁in	-33
ing	-34
le	-35
▁to	-36
ic	-37
om	-38
▁l	-39
▁th	-40
▁n	-41
ion	-42
el	-43
▁|	-44
il	-45
ent	-46
▁T	-47
▁C	-48
st	-49
▁S	-50
ad	-51
▁e	-52
▁I	-53
▁he	-54
ot	-55
▁g	-56
▁A	-57
ro	-58
ut	-59
▁re	-60
et	-61
ac	-62
ig	-63
im	-64
ol	-65
id	-66
am	-67
ur	-68
▁be	-69
▁M	-70
ir	-71
ve	-72
ly	-73
ver	-74
ow	-75
▁u	-76
▁was	-77
▁on	-78
se	-79
ay	-80
▁B	-81
▁1	-82
▁wh	-83
▁for	-84
ch	-85
ter	-86
▁H	-87
▁that	-88
ith	-89
ce	-90
▁as	-91
▁st	-92
▁de	-93
▁P	-94
▁(	-95
ct	-96
▁The	-97
▁is	-98
▁y	-99
▁it	-100
▁with	-101
▁al	-102
and	-103
ation	-104
▁"	-105
ul	-106
qu	-107
ht	-108
▁v	-109
ri	-110
us	-111
▁his	-112
▁L	-113
▁F	-114
her	-115
▁R	-116
ld	-117
▁an	-118
▁W	-119
ra	-120
▁D	-121
th	-122
▁G	-123
est	-124
em	-125
▁at	-126
▁*	-127
ate	-128
NN	-129
ill	-130
ag	-131
un	-132
▁E	-133
od	-134
▁con	-135
--	-136
▁se	-137
ain	-138
ist	-139
um	-140
if	-141
os	-142
▁N	-143
▁k	-144
▁by	-145
▁2	-146
▁you	-147
rom	-148
ich	-149
ab	-150
▁not	-151
ers	-152
ess	-153
res	-154
ant	-155
▁r	-156
ak	-157
op	-158
▁had	-159
ore	-160
ie	-161
▁su	-162
ight	-163
▁ha	-164
▁com	-165
▁J	-166
all	-167
pp	-168
ard	-169
▁or	-170
▁le	-171
00	-172
▁O	-173
▁from	-174
ell	-175
iv	-176
▁sh	-177
art	-178
ould	-179
our	-180
ere	-181
▁her	-182
end	-183
nt	-184
AA	-185
TT	-186
ort	-187
▁which	-188
▁ne	-189
▁ex	-190
▁qu	-191
▁=	-192
ous	-193
ap	-194
ory	-195
▁19	-196
▁ch	-197
ity	-198
ast	-199
ust	-200
oc	-201
ge	-202
ies	-203
▁j	-204
▁me	-205
oug	-206
▁are	-207
▁pro	-208
▁him	-209
▁have	-210
▁were	-211
ong	-212
▁all	-213
ok	-214
▁sa	-215
ound	-216
pe	-217
▁but	-218
ure	-219
ame	-220
ber	-221
▁pl	-222
ive	-223
ia	-224
ne	-225
▁so	-226
ud	-227
▁K	-228
te	-229
ian	-230
ord	-231
hen	-232
ment	-233
▁en	-234
ine	-235
NNNN	-236
ome	-237
▁this	-238
ign	-239
▁||	-240
▁we	-241
ack	-242
ost	-243
ff	-244
ire	-245
out	-246
are	-247
▁man	-248
▁who	-249
▁she	-250
ip	-251
▁In	-252
ish	-253
▁up	-254
▁un	-255
▁they	-256
av	-257
ass	-258
▁U	-259
ik	-260
▁_	-261
ind	-262
ran	-263
▁la	-264
▁St	-265
ry	-266
ear	-267
▁their	-268
▁one	-269
ep	-270
▁V	-271
▁do	-272
▁ar	-273
▁my	-274
▁ab	-275
▁|-	-276
▁no	-277
to	-278
ary	-279
▁go	-280
▁He	-281
TG	-282
ateg	-283
ace	-284
ue	-285
ategory	-286
▁Ch	-287
AG	-288
▁Category	-289
."	-290
19	-291
ther	-292
="	-293
ough	-294
ated	-295
CC	-296
▁them	-297
age	-298
cc	-299
au	-300
og	-301
ial	-302
ence	-303
ile	-304
very	-305
ond	-306
ions	-307
one	-308
ide	-309
per	-310
hed	-311
pl	-312
▁been	-313
ice	-314
ount	-315
bl	-316
itt	-317
mer	-318
▁cl	-319
able	-320
ng	-321
ite	-322
▁would	-323
▁Th	-324
▁out	-325
▁ro	-326
pt	-327
ime	-328
sel	-329
▁pr	-330
reat	-331
own	-332
ll	-333
▁lo	-334
▁sp	-335
wn	-336
ens	-337
▁It	-338
)|	-339
▁there	-340
▁ad	-341
ew	-342
ru	-343
▁wor	-344
▁des	-345
sp	-346
ect	-347
▁said	-348
..	-349
▁im	-350
ang	-351
▁ag	-352
cl	-353
ks	-354
ose	-355
ib	-356
▁“	-357
▁per	-358
ft	-359
▁has	-360
ade	-361
ake	-362
▁us	-363
ical	-364
▁3	-365
▁dis	-366
ance	-367
01	-368
ans	-369
▁other	-370
▁will	-371
act	-372
▁Y	-373
▁when	-374
old	-375
▁und	-376
▁tw	-377
ress	-378
ach	-379
ven	-380
iz	-381
fter	-382
,"	-383
▁can	-384
▁kn	-385
▁part	-386
ree	-387
ely	-388
▁more	-389
▁tr	-390
fer	-391
▁gr	-392
▁cont	-393
▁comp	-394
▁app	-395
here	-396
▁into	-397
land	-398
uc	-399
▁am	-400
ood	-401
way	-402
iss	-403
▁its	-404
oy	-405
ath	-406
irst	-407
▁pre	-408
so	-409
▁sc	-410
we	-411
▁some	-412
ick	-413
man	-414
urn	-415
▁et	-416
erv	-417
ult	-418
ark	-419
rit	-420
▁over	-421
ied	-422
ings	-423
ces	-424
int	-425
ons	-426
▁pe	-427
TC	-428
▁br	-429
ild	-430
▁18	-431
ug	-432
ph	-433
ict	-434
ction	-435
self	-436
▁any	-437
ious	-438
ally	-439
oll	-440
▁Un	-441
orn	-442
▁time	-443
AC	-444
NNNNNNNN	-445
ater	-446
ait	-447
ations	-448
▁than	-449
▁te	-450
ition	-451
▁if	-452
▁bl	-453
ates	-454
▁200	-455
ward	-456
ont	-457
vers	-458
ike	-459
fore	-460
other	-461
▁first	-462
),	-463
▁Re	-464
▁after	-465
ov	-466
▁could	-467
▁4	-468
▁comm	-469
▁two	-470
▁!	-471
▁fl	-472
ors	-473
ited	-474
▁po	-475
enter	-476
red	-477
tern	-478
orm	-479
▁And	-480
ful	-481
▁res	-482
▁off	-483
ife	-484
▁only	-485
▁year	-486
gr	-487
▁also	-488
row	-489
▁about	-490
les	-491
▁bec	-492
tt	-493
tain	-494
▁what	-495
▁again	-496
uch	-497
yle	-498
ier	-499
xt	-500
amp	-501
ren	-502
▁fe	-503
▁que	-504
▁then	-505
ought	-506
▁under	-507
hing	-508
▁your	-509
ise	-510
▁very	-511
▁great	-512
▁day	-513
ink	-514
▁z	-515
▁co	-516
▁rec	-517
▁rem	-518
ase	-519
ail	-520
▁our	-521
ather	-522
▁now	-523
▁'	-524
che	-525
▁ind	-526
▁made	-527
ke	-528
igh	-529
▁did	-530
oss	-531
▁bet	-532
▁att	-533
▁ra	-534
ents	-535
ittle	-536
▁5	-537
ouse	-538
"|	-539
▁may	-540
▁But	-541
▁such	-542
io	-543
ub	-544
▁spe	-545
▁Mr	-546
ican	-547
▁upon	-548
▁thr	-549
▁know	-550
▁imp	-551
ener	-552
oot	-553
ubl	-554
▁-	-555
ss	-556
▁cons	-557
▁hand	-558
▁acc	-559
AT	-560
▁Ar	-561
||	-562
GG	-563
▁[	-564
▁Le	-565
02	-566
▁where	-567
air	-568
ty	-569
vel	-570
▁before	-571
▁should	-572
▁like	-573
ople	-574
▁Al	-575
▁see	-576
▁long	-577
▁est	-578
up	-579
ij	-580
ient	-581
ational	-582
▁little	-583
▁most	-584
ec	-585
ove	-586
oh	-587
▁men	-588
▁col	-589
me	-590
sh	-591
ah	-592
iet	-593
▁Mar	-594
▁pres	-595
▁–	-596
▁rep	-597
▁bo	-598
ily	-599
align	-600
▁say	-601
ock	-602
und	-603
ob	-604
ool	-605
lect	-606
▁201	-607
▁these	-608
The	-609
ness	-610
att	-611
ished	-612
der	-613
▁6	-614
8/	-615
ins	-616
ave	-617
▁inter	-618
▁sub	-619
▁ob	-620
ale	-621
▁par	-622
iel	-623
▁sm	-624
rib	-625
▁à	-626
?"	-627
▁how	-628
▁Wh	-629
▁look	-630
▁through	-631
▁She	-632
▁0	-633
als	-634
▁own	-635
ett	-636
ps	-637
▁down	-638
▁well	-639
).	-640
▁op	-641
▁De	-642
▁sur	-643
ix	-644
▁work	-645
▁good	-646
▁New	-647
▁ear	-648
oth	-649
▁el	-650
▁new	-651
ww	-652
▁pass	-653
▁old	-654
▁style	-655
▁back	-656
▁dist	-657
▁much	-658
ull	-659
▁reg	-660
▁must	-661
▁em	-662
▁rel	-663
▁ma	-664
▁Com	-665
200	-666
ower	-667
----	-668
▁ac	-669
▁play	-670
▁car	-671
ters	-672
▁sec	-673
▁every	-674
ATT	-675
▁sl	-676
ics	-677
▁found	-678
▁call	-679
ject	-680
▁gl	-681
▁being	-682
ton	-683
ved	-684
ince	-685
▁199	-686
än	-687
▁people	-688
ms	-689
▁ret	-690
az	-691
ien	-692
▁Amer	-693
▁act	-694
▁int	-695
▁This	-696
▁beg	-697
umb	-698
▁way	-699
▁years	-700
uring	-701
▁bel	-702
▁les	-703
form	-704
▁even	-705
ual	-706
aw	-707
▁Eng	-708
ner	-709
outh	-710
led	-711
▁many	-712
vent	-713
▁life	-714
ried	-715
ause	-716
ck	-717
de	-718
▁ser	-719
pr	-720
▁count	-721
▁Se	-722
ady	-723
18	-724
▁ass	-725
▁end	-726
▁(19	-727
▁As	-728
▁mar	-729
du	-730
ollow	-731
▁char	-732
ible	-733
//	-734
▁ter	-735
ason	-736
ular	-737
://	-738
ced	-739
▁An	-740
ott	-741
▁tra	-742
▁those	-743
▁7	-744
vern	-745
_,	-746
▁never	-747
ung	-748
pect	-749
▁came	-750
▁min	-751
ank	-752
▁supp	-753
▁inst	-754
orth	-755
ann	-756
ision	-757
▁serv	-758
ts	-759
ident	-760
center	-761
ared	-762
ered	-763
col	-764
ury	-765
▁--	-766
▁Sh	-767
ote	-768
chool	-769
ern	-770
co	-771
▁es	-772
▁war	-773
▁On	-774
▁form	-775
ature	-776
▁exp	-777
ble	-778
▁come	-779
com	-780
ween	-781
the	-782
▁same	-783
▁just	-784
▁sy	-785
▁ent	-786
que	-787
clud	-788
its	-789
ased	-790
▁é	-791
▁Ind	-792
▁pers	-793
▁We	-794
ork	-795
oun	-796
▁United	-797
ures	-798
ohn	-799
▁dif	-800
▁8	-801
▁States	-802
▁while	-803
▁follow	-804
!"	-805
▁make	-806
▁himself	-807
den	-808
iam	-809
▁They	-810
cy	-811
ever	-812
.”	-813
NNNNNNNNNNNNNNNN	-814
alk	-815
oman	-816
▁vo	-817
ities	-818
▁last	-819
aut	-820
▁mon	-821
ative	-822
▁Z	-823
ral	-824
▁There	-825
▁che	-826
ope	-827
ais	-828
▁might	-829
ted	-830
ivers	-831
▁three	-832
ves	-833
▁between	-834
ER	-835
ving	-836
ened	-837
}}	-838
uss	-839
ets	-840
ined	-841
ley	-842
ines	-843
▁head	-844
▁Q	-845
enn	-846
▁ey	-847
ames	-848
omet	-849
▁seem	-850
aking	-851
▁right	-852
right	-853
▁pol	-854
rist	-855
▁word	-856
▁cap	-857
cess	-858
▁let	-859
▁thought	-860
cept	-861
uth	-862
▁think	-863
une	-864
ember	-865
▁del	-866
ene	-867
▁here	-868
▁For	-869
▁gener	-870
lish	-871
ilm	-872
▁bu	-873
ating	-874
▁&	-875
▁cour	-876
▁met	-877
ific	-878
▁inc	-879
▁lar	-880
▁er	-881
▁wr	-882
▁place	-883
▁i	-884
ux	-885
▁Sp	-886
ret	-887
▁without	-888
riend	-889
▁child	-890
▁gu	-891
imes	-892
▁Fran	-893
span	-894
▁9	-895
get	-896
inn	-897
ground	-898
▁too	-899
▁die	-900
ATG	-901
ublic	-902
▁fam	-903
olog	-904
▁Cl	-905
ield	-906
atter	-907
▁shall	-908
0,	-909
▁il	-910
ars	-911
ten	-912
ash	-913
▁house	-914
inal	-915
ism	-916
▁son	-917
▁against	-918
ants	-919
▁still	-920
▁At	-921
▁ext	-922
▁der	-923
urch	-924
less	-925
ution	-926
any	-927
ement	-928
ina	-929
▁unt	-930
▁17	-931
ys	-932
duc	-933
▁av	-934
cial	-935
ged	-936
▁Pr	-937
ives	-938
▁turn	-939
back	-940
ball	-941
▁Col	-942
▁Sc	-943
▁Is	-944
org	-945
▁ed	-946
▁went	-947
ired	-948
▁du	-949
▁far	-950
ross	-951
▁198	-952
▁occ	-953
▁ver	-954
ments	-955
ived	-956
0.	-957
▁art	-958
▁includ	-959
▁ri	-960
▁<	-961
▁dep	-962
▁don	-963
▁add	-964
▁Pro	-965
fl	-966
▁ph	-967
▁John	-968
ai	-969
▁American	-970
▁near	-971
ille	-972
ger	-973
▁File	-974
arl	-975
rew	-976
▁pop	-977
▁tran	-978
▁rest	-979
ric	-980
▁world	-981
▁dire	-982
▁away	-983
▁ke	-984
ook	-985
▁used	-986
▁take	-987
▁Be	-988
▁Gr	-989
▁cent	-990
._	-991
hes	-992
sc	-993
be	-994
▁poss	-995
▁friend	-996
iver	-997
▁left	-998
▁eff	-999
GC	-1000
son	-1001
osed	-1002
hip	-1003
▁cer	-1004
▁name	-1005
ex	-1006
▁young	-1007
▁den	-1008
12	-1009
▁dem	-1010
▁ev	-1011
▁Count	-1012
ody	-1013
▁Con	-1014
my	-1015
,”	-1016
...	-1017
not	-1018
ists	-1019
hat	-1020
▁His	-1021
inc	-1022
▁ask	-1023
let	-1024
▁def	-1025
urs	-1026
ute	-1027
iew	-1028
▁point	-1029
▁called	-1030
▁both	-1031
▁show	-1032
ised	-1033
▁Br	-1034
▁another	-1035
</	-1036
umber	-1037
15	-1038
ences	-1039
▁15	-1040
men	-1041
eter	-1042
ept	-1043
▁high	-1044
▁God	-1045
ief	-1046
raph	-1047
wards	-1048
▁Ex	-1049
▁death	-1050
ta	-1051
aug	-1052
1.	-1053
▁each	-1054
arch	-1055
nb	-1056
▁land	-1057
ird	-1058
▁16	-1059
▁You	-1060
min	-1061
.,	-1062
jp	-1063
▁mod	-1064
▁cr	-1065
▁ce	-1066
text	-1067
▁somet	-1068
▁during	-1069
▁return	-1070
▁aff	-1071
alf	-1072
mp	-1073
ister	-1074
20	-1075
oup	-1076
els	-1077
med	-1078
▁inv	-1079
ulation	-1080
;"|	-1081
ways	-1082
▁put	-1083
▁present	-1084
nbsp	-1085
▁.	-1086
17	-1087
rown	-1088
omen	-1089
▁qui	-1090
▁fr	-1091
▁ele	-1092
▁Ph	-1093
ages	-1094
TAA	-1095
▁sw	-1096
▁str	-1097
8/8/	-1098
ison	-1099
▁Ge	-1100
gg	-1101
▁197	-1102
1,	-1103
jpg	-1104
background	-1105
iness	-1106
▁though	-1107
▁Ger	-1108
▁eyes	-1109
▁sing	-1110
ither	-1111
▁took	-1112
▁const	-1113
▁King	-1114
of	-1115
201	-1116
irl	-1117
▁}}	-1118
ians	-1119
▁find	-1120
▁water	-1121
iving	-1122
▁202	-1123
arn	-1124
10	-1125
▁lead	-1126
▁dec	-1127
▁Christ	-1128
▁get	-1129
▁four	-1130
ience	-1131
ui	-1132
usic	-1133
▁care	-1134
▁sent	-1135
▁light	-1136
▁night	-1137
eb	-1138
▁conf	-1139
▁home	-1140
▁Bl	-1141
II	-1142
▁loc	-1143
16	-1144
▁ever	-1145
▁heart	-1146
▁small	-1147
ek	-1148
▁until	-1149
▁align	-1150
app	-1151
sw	-1152
▁use	-1153
eng	-1154
▁var	-1155
▁known	-1156
▁country	-1157
▁few	-1158
osition	-1159
▁sign	-1160
left	-1161
▁once	-1162
▁All	-1163
▁sim	-1164
▁tell	-1165
▁class	-1166
▁When	-1167
▁contin	-1168
▁cur	-1169
▁person	-1170
by	-1171
▁father	-1172
4,	-1173
ober	-1174
▁stud	-1175
ron	-1176
uro	-1177
▁Or	-1178
▁prov	-1179
irc	-1180
▁because	-1181
▁second	-1182
mber	-1183
ats	-1184
▁ple	-1185
aken	-1186
aps	-1187
▁yet	-1188
▁stre	-1189
ster	-1190
ural	-1191
és	-1192
use	-1193
▁Her	-1194
aj	-1195
▁read	-1196
ange	-1197
▁12	-1198
▁bre	-1199
▁face	-1200
atch	-1201
▁dra	-1202
▁sk	-1203
ched	-1204
3.	-1205
ours	-1206
ually	-1207
▁To	-1208
aster	-1209
▁sever	-1210
▁want	-1211
▁mind	-1212
▁power	-1213
▁je	-1214
▁tre	-1215
iversity	-1216
ues	-1217
elt	-1218
▁rece	-1219
▁mil	-1220
www	-1221
ax	-1222
▁side	-1223
li	-1224
vernment	-1225
▁Ad	-1226
oon	-1227
▁X	-1228
▁saw	-1229
ze	-1230
ches	-1231
▁hum	-1232
most	-1233
▁fin	-1234
ains	-1235
▁consid	-1236
AR	-1237
4.	-1238
ony	-1239
▁stand	-1240
▁ref	-1241
3,	-1242
▁une	-1243
ple	-1244
▁mom	-1245
▁pri	-1246
▁cor	-1247
▁adv	-1248
angu	-1249
▁desc	-1250
▁ja	-1251
aint	-1252
▁set	-1253
▁offic	-1254
ling	-1255
▁foot	-1256
▁mer	-1257
▁Pl	-1258
▁among	-1259
▁best	-1260
▁differ	-1261
ized	-1262
▁prop	-1263
orts	-1264
▁bro	-1265
▁au	-1266
rict	-1267
▁htt	-1268
ently	-1269
▁#	-1270
▁No	-1271
ended	-1272
ained	-1273
ane	-1274
▁order	-1275
stem	-1276
▁tem	-1277
br	-1278
oul	-1279
thumb	-1280
elle	-1281
iven	-1282
ert	-1283
ACC	-1284
TCC	-1285
▁town	-1286
ograph	-1287
HE	-1288
▁si	-1289
▁196	-1290
▁give	-1291
▁nothing	-1292
ense	-1293
:#	-1294
ma	-1295
new	-1296
▁kind	-1297
▁hist	-1298
▁mem	-1299
▁fact	-1300
▁bus	-1301
▁val	-1302
▁van	-1303
▁hel	-1304
▁Can	-1305
▁law	-1306
aces	-1307
▁ins	-1308
▁became	-1309
bs	-1310
▁med	-1311
▁Brit	-1312
▁di	-1313
ately	-1314
ode	-1315
▁dou	-1316
▁later	-1317
▁If	-1318
ica	-1319
uk	-1320
▁run	-1321
rop	-1322
▁things	-1323
IN	-1324
AAAA	-1325
▁charac	-1326
▁English	-1327
▁certain	-1328
ctor	-1329
thing	-1330
▁vis	-1331
ued	-1332
▁County	-1333
▁happ	-1334
ON	-1335
▁pour	-1336
eth	-1337
▁sil	-1338
▁prom	-1339
orld	-1340
ided	-1341
▁main	-1342
2.	-1343
▁number	-1344
ility	-1345
▁always	-1346
rench	-1347
▁sat	-1348
▁book	-1349
50	-1350
na	-1351
▁city	-1352
▁Comm	-1353
▁Car	-1354
aim	-1355
000	-1356
▁How	-1357
▁school	-1358
▁York	-1359
▁half	-1360
aus	-1361
▁having	-1362
▁10	-1363
▁dans	-1364
alt	-1365
▁since	-1366
ium	-1367
14	-1368
▁days	-1369
▁trans	-1370
gen	-1371
▁War	-1372
5,	-1373
▁fell	-1374
▁ste	-1375
13	-1376
▁large	-1377
ipp	-1378
▁appear	-1379
▁love	-1380
oint	-1381
▁cle	-1382
▁vol	-1383
▁seen	-1384
ccess	-1385
▁began	-1386
anc	-1387
day	-1388
▁moment	-1389
yl	-1390
▁fore	-1391
▁Will	-1392
ague	-1393
amed	-1394
akes	-1395
unt	-1396
ission	-1397
urg	-1398
velop	-1399
▁fa	-1400
ada	-1401
ef	-1402
ole	-1403
FF	-1404
ides	-1405
▁estab	-1406
▁opp	-1407
▁film	-1408
resent	-1409
ices	-1410
▁open	-1411
AGG	-1412
2,	-1413
ee	-1414
▁Then	-1415
▁less	-1416
dom	-1417
▁along	-1418
▁state	-1419
.]	-1420
▁series	-1421
aced	-1422
▁belie	-1423
ize	-1424
▁Par	-1425
▁**	-1426
yn	-1427
aan	-1428
....	-1429
uck	-1430
val	-1431
ée	-1432
ows	-1433
▁disc	-1434
▁soon	-1435
5.	-1436
gether	-1437
▁May	-1438
par	-1439
selves	-1440
▁mother	-1441
▁orig	-1442
▁hands	-1443
▁pas	-1444
▁German	-1445
▁season	-1446
▁whole	-1447
ured	-1448
ude	-1449
▁public	-1450
lev	-1451
cent	-1452
▁hard	-1453
▁prof	-1454
ention	-1455
_.	-1456
▁beh	-1457
▁Ed	-1458
ital	-1459
▁leg	-1460
▁answ	-1461
AN	-1462
▁quest	-1463
▁eng	-1464
▁however	-1465
ery	-1466
▁interest	-1467
▁da	-1468
▁feel	-1469
▁polit	-1470
▁whom	-1471
ration	-1472
▁going	-1473
▁enter	-1474
▁boy	-1475
oe	-1476
reen	-1477
ius	-1478
▁wind	-1479
▁room	-1480
gy	-1481
ferences	-1482
ATC	-1483
con	-1484
▁thing	-1485
▁door	-1486
▁suff	-1487
▁Man	-1488
▁port	-1489
AGC	-1490
oud	-1491
▁dev	-1492
▁got	-1493
ably	-1494
▁ann	-1495
TTC	-1496
▁Mrs	-1497
▁writ	-1498
▁start	-1499
▁done	-1500
▁woman	-1501
▁El	-1502
▁dr	-1503
mb	-1504
▁given	-1505
rent	-1506
▁hon	-1507
iety	-1508
ior	-1509
ham	-1510
bum	-1511
htt	-1512
▁several	-1513
▁20	-1514
▁does	-1515
ards	-1516
6,	-1517
▁better	-1518
▁Aust	-1519
▁That	-1520
ract	-1521
▁children	-1522
ering	-1523
ask	-1524
iber	-1525
ois	-1526
▁La	-1527
▁air	-1528
▁real	-1529
ring	-1530
▁asked	-1531
ternal	-1532
▁need	-1533
▁looked	-1534
ney	-1535
6.	-1536
▁194	-1537
gan	-1538
▁University	-1539
▁pat	-1540
isc	-1541
ales	-1542
▁South	-1543
bers	-1544
atic	-1545
▁div	-1546
▁girl	-1547
▁course	-1548
▁Fl	-1549
▁seemed	-1550
Ch	-1551
You	-1552
▁Miss	-1553
▁cre	-1554
▁told	-1555
▁After	-1556
▁ve	-1557
▁family	-1558
px	-1559
ES	-1560
▁often	-1561
▁hor	-1562
▁success	-1563
;"	-1564
ional	-1565
7,	-1566
▁area	-1567
▁World	-1568
ship	-1569
▁sol	-1570
ilt	-1571
▁Euro	-1572
▁langu	-1573
iter	-1574
7.	-1575
▁Te	-1576
▁ge	-1577
▁England	-1578
cted	-1579
duced	-1580
▁bar	-1581
8.	-1582
8,	-1583
▁Har	-1584
▁whe	-1585
style	-1586
▁full	-1587
▁row	-1588
▁next	-1589
ata	-1590
▁heard	-1591
ances	-1592
▁French	-1593
▁ty	-1594
▁elect	-1595
▁Go	-1596
oci	-1597
▁enough	-1598
▁oper	-1599
ette	-1600
▁record	-1601
▁taken	-1602
▁gave	-1603
▁fre	-1604
hern	-1605
▁almost	-1606
▁—	-1607
▁Lord	-1608
for	-1609
stand	-1610
▁short	-1611
▁Part	-1612
▁system	-1613
30	-1614
▁team	-1615
color	-1616
199	-1617
▁By	-1618
▁THE	-1619
ald	-1620
▁line	-1621
,--	-1622
▁So	-1623
▁partic	-1624
▁general	-1625
af	-1626
hy	-1627
▁repl	-1628
uthor	-1629
▁rev	-1630
▁North	-1631
▁Bar	-1632
attle	-1633
▁within	-1634
▁round	-1635
inks	-1636
ator	-1637
▁early	-1638
▁others	-1639
St	-1640
▁knew	-1641
▁keep	-1642
9.	-1643
▁heav	-1644
▁Rep	-1645
irth	-1646
oney	-1647
ceed	-1648
alth	-1649
ken	-1650
▁References	-1651
▁stru	-1652
▁held	-1653
▁fall	-1654
ges	-1655
▁14	-1656
▁mean	-1657
▁equ	-1658
▁help	-1659
",	-1660
go	-1661
▁words	-1662
▁ide	-1663
▁character	-1664
▁pur	-1665
itle	-1666
▁Gu	-1667
▁something	-1668
ology	-1669
▁produ	-1670
▁requ	-1671
▁tri	-1672
itions	-1673
EN	-1674
OR	-1675
▁expl	-1676
ament	-1677
▁dé	-1678
ached	-1679
icht	-1680
▁age	-1681
▁white	-1682
▁result	-1683
▁sit	-1684
▁together	-1685
ondon	-1686
▁brought	-1687
▁With	-1688
It	-1689
ox	-1690
oke	-1691
▁British	-1692
oi	-1693
▁exc	-1694
▁population	-1695
▁ten	-1696
▁vi	-1697
▁former	-1698
▁cond	-1699
▁National	-1700
arm	-1701
fic	-1702
▁effect	-1703
▁One	-1704
aul	-1705
▁Per	-1706
elf	-1707
▁soc	-1708
▁Cal	-1709
AAG	-1710
9,	-1711
▁whose	-1712
ically	-1713
por	-1714
▁develop	-1715
illed	-1716
▁music	-1717
▁nat	-1718
ones	-1719
▁plus	-1720
▁School	-1721
▁mov	-1722
▁Tr	-1723
▁fire	-1724
fect	-1725
orning	-1726
idge	-1727
idd	-1728
▁build	-1729
▁spec	-1730
▁around	-1731
▁non	-1732
▁Ju	-1733
▁Aug	-1734
▁mag	-1735
?”	-1736
.--	-1737
▁sch	-1738
▁En	-1739
▁Ab	-1740
".	-1741
▁Me	-1742
▁beaut	-1743
▁till	-1744
▁Europe	-1745
ape	-1746
ips	-1747
ressed	-1748
▁king	-1749
▁women	-1750
TTTT	-1751
▁Qu	-1752
▁hold	-1753
▁rather	-1754
▁ill	-1755
▁import	-1756
ule	-1757
▁following	-1758
iment	-1759
▁Am	-1760
ère	-1761
▁case	-1762
▁What	-1763
▁circ	-1764
▁spir	-1765
▁Sch	-1766
▁{	-1767
amb	-1768
▁quite	-1769
▁West	-1770
▁Jan	-1771
▁13	-1772
eed	-1773
haps	-1774
--------	-1775
▁common	-1776
▁strong	-1777
25	-1778
TGC	-1779
▁grand	-1780
▁themselves	-1781
ha	-1782
▁City	-1783
empt	-1784
ording	-1785
unic	-1786
▁list	-1787
▁different	-1788
▁author	-1789
▁appro	-1790
▁government	-1791
ford	-1792
▁sum	-1793
orge	-1794
▁turned	-1795
bt	-1796
ality	-1797
ourn	-1798
▁six	-1799
▁adm	-1800
ush	-1801
▁song	-1802
▁fur	-1803
▁prot	-1804
▁det	-1805
▁mark	-1806
ler	-1807
itten	-1808
▁vers	-1809
▁sold	-1810
▁conc	-1811
TGG	-1812
eder	-1813
▁London	-1814
▁wife	-1815
▁tou	-1816
ying	-1817
▁body	-1818
▁times	-1819
▁My	-1820
▁Ste	-1821
▁II	-1822
▁post	-1823
though	-1824
▁Pol	-1825
vered	-1826
▁dri	-1827
▁Co	-1828
▁Not	-1829
fully	-1830
read	-1831
▁State	-1832
▁above	-1833
ét	-1834
▁command	-1835
▁camp	-1836
itable	-1837
▁195	-1838
ively	-1839
ining	-1840
▁rele	-1841
▁appe	-1842
va	-1843
undred	-1844
▁See	-1845
▁dest	-1846
▁five	-1847
▁morning	-1848
▁eas	-1849
ries	-1850
▁ét	-1851
▁ground	-1852
oor	-1853
ases	-1854
▁gra	-1855
augh	-1856
ils	-1857
iod	-1858
▁exper	-1859
▁Phil	-1860
AAC	-1861
▁sun	-1862
▁$	-1863
.)	-1864
▁voice	-1865
▁Ne	-1866
ays	-1867
band	-1868
eneral	-1869
▁William	-1870
now	-1871
wh	-1872
▁subject	-1873
itary	-1874
▁design	-1875
▁ein	-1876
ka	-1877
▁aut	-1878
▁hän	-1879
ternational	-1880
ript	-1881
lished	-1882
▁dark	-1883
ified	-1884
▁Je	-1885
▁human	-1886
▁felt	-1887
uary	-1888
▁comple	-1889
▁won	-1890
▁black	-1891
aring	-1892
▁mot	-1893
▁poor	-1894
▁talk	-1895
▁become	-1896
▁het	-1897
▁\	-1898
▁meet	-1899
▁fort	-1900
iers	-1901
▁rowspan	-1902
▁necess	-1903
▁matter	-1904
▁France	-1905
▁Su	-1906
▁sett	-1907
ning	-1908
__	-1909
▁jo	-1910
▁obs	-1911
reg	-1912
▁arri	-1913
24	-1914
▁cannot	-1915
▁birth	-1916
ored	-1917
ination	-1918
▁lay	-1919
▁ir	-1920
.'	-1921
▁business	-1922
ella	-1923
▁(200	-1924
▁Char	-1925
▁trou	-1926
▁station	-1927
ris	-1928
▁language	-1929
cer	-1930
off	-1931
▁album	-1932
▁abs	-1933
▁ut	-1934
▁Hist	-1935
▁including	-1936
▁enc	-1937
side	-1938
▁lab	-1939
▁hab	-1940
▁received	-1941
▁proper	-1942
▁infl	-1943
▁August	-1944
ado	-1945
▁view	-1946
▁hundred	-1947
ama	-1948
▁move	-1949
▁vill	-1950
▁nor	-1951
ese	-1952
▁thus	-1953
onder	-1954
fr	-1955
▁red	-1956
lege	-1957
incip	-1958
▁:	-1959
ped	-1960
ots	-1961
idence	-1962
60	-1963
In	-1964
80	-1965
▁Pe	-1966
23	-1967
11	-1968
▁House	-1969
▁feet	-1970
arent	-1971
▁nature	-1972
ara	-1973
▁passed	-1974
▁true	-1975
ams	-1976
IS	-1977
ino	-1978
▁sound	-1979
ument	-1980
ivision	-1981
▁mat	-1982
▁organ	-1983
ää	-1984
emy	-1985
▁‘	-1986
▁means	-1987
itted	-1988
▁gent	-1989
TTG	-1990
▁brother	-1991
▁game	-1992
▁Oct	-1993
▁month	-1994
cil	-1995
▁bes	-1996
▁stood	-1997
iously	-1998
owed	-1999
▁τ	-2000
▁sure	-2001
▁maj	-2002
▁reason	-2003
▁links	-2004
iqu	-2005
▁deep	-2006
ana	-2007
▁sort	-2008
omm	-2009
▁Min	-2010
fort	-2011
▁object	-2012
▁least	-2013
▁pap	-2014
Un	-2015
▁service	-2016
▁Sir	-2017
ocr	-2018
▁national	-2019
▁March	-2020
osp	-2021
▁money	-2022
▁speak	-2023
▁pu	-2024
▁stat	-2025
27	-2026
asure	-2027
▁mill	-2028
40	-2029
▁century	-2030
▁history	-2031
web	-2032
ampions	-2033
stit	-2034
enty	-2035
▁itself	-2036
▁publ	-2037
▁vous	-2038
eptember	-2039
–19	-2040
▁lui	-2041
▁Austral	-2042
acy	-2043
▁Party	-2044
leg	-2045
ste	-2046
▁respect	-2047
▁Comp	-2048
▁says	-2049
▁either	-2050
▁question	-2051
▁mis	-2052
▁road	-2053
▁regard	-2054
ready	-2055
▁cal	-2056
▁grow	-2057
▁decl	-2058
▁Sw	-2059
▁Gl	-2060
but	-2061
▁ant	-2062
Th	-2063
rol	-2064
▁relig	-2065
▁walk	-2066
▁gen	-2067
▁Cap	-2068
▁period	-2069
▁sle	-2070
▁ave	-2071
uit	-2072
202	-2073
▁arm	-2074
ops	-2075
▁aw	-2076
aves	-2077
http	-2078
▁support	-2079
▁party	-2080
▁bed	-2081
inter	-2082
▁past	-2083
aff	-2084
▁lost	-2085
pril	-2086
ivil	-2087
▁ep	-2088
▁alone	-2089
▁pract	-2090
unity	-2091
▁low	-2092
▁External	-2093
bo	-2094
port	-2095
▁incre	-2096
▁mount	-2097
35	-2098
29	-2099
lands	-2100
▁Cor	-2101
ising	-2102
apan	-2103
▁June	-2104
▁wid	-2105
▁1.	-2106
TAG	-2107
▁These	-2108
▁consider	-2109
▁anim	-2110
26	-2111
▁Russ	-2112
▁perform	-2113
fe	-2114
▁fig	-2115
▁direct	-2116
▁laug	-2117
ploy	-2118
▁super	-2119
▁learn	-2120
ories	-2121
ny	-2122
▁led	-2123
▁myself	-2124
ression	-2125
▁lik	-2126
hr	-2127
▁stran	-2128
▁represent	-2129
▁Mc	-2130
▁hy	-2131
▁fav	-2132
ique	-2133
utes	-2134
▁account	-2135
reet	-2136
▁anything	-2137
▁sea	-2138
▁possible	-2139
▁High	-2140
amm	-2141
▁ord	-2142
ending	-2143
inning	-2144
▁established	-2145
ume	-2146
rem	-2147
pecial	-2148
AP	-2149
▁chang	-2150
▁story	-2151
▁inf	-2152
▁League	-2153
▁Ang	-2154
▁een	-2155
oura	-2156
70	-2157
▁wait	-2158
olution	-2159
▁making	-2160
▁Il	-2161
hel	-2162
▁herself	-2163
▁company	-2164
▁Dav	-2165
▁members	-2166
▁fem	-2167
▁July	-2168
hold	-2169
iful	-2170
▁Church	-2171
▁Sy	-2172
ength	-2173
▁disp	-2174
▁Que	-2175
▁Pres	-2176
28	-2177
▁position	-2178
oir	-2179
▁field	-2180
▁exist	-2181
▁believe	-2182
AL	-2183
▁already	-2184
cle	-2185
van	-2186
▁ap	-2187
lic	-2188
▁princip	-2189
ivid	-2190
▁Dr	-2191
▁Ital	-2192
39	-2193
uff	-2194
ousand	-2195
omb	-2196
▁returned	-2197
rest	-2198
▁sus	-2199
▁band	-2200
▁gold	-2201
za	-2202
ensus	-2203
▁jud	-2204
▁spirit	-2205
epend	-2206
▁diffic	-2207
sequ	-2208
head	-2209
gin	-2210
▁fear	-2211
▁tot	-2212
▁Soc	-2213
ki	-2214
No	-2215
▁Air	-2216
▁CH	-2217
▁September	-2218
▁football	-2219
▁October	-2220
55	-2221
▁cut	-2222
tre	-2223
▁esc	-2224
And	-2225
ville	-2226
▁offer	-2227
▁late	-2228
▁front	-2229
▁bur	-2230
airs	-2231
▁top	-2232
cember	-2233
TAC	-2234
▁wood	-2235
▁dead	-2236
▁stra	-2237
ency	-2238
▁Em	-2239
iled	-2240
);	-2241
▁sud	-2242
oo	-2243
estern	-2244
▁Reg	-2245
ci	-2246
▁particular	-2247
▁tro	-2248
road	-2249
ovember	-2250
▁https	-2251
▁resp	-2252
="2	-2253
▁Hen	-2254
▁hear	-2255
aid	-2256
▁behind	-2257
▁January	-2258
ogn	-2259
What	-2260
▁letter	-2261
▁expect	-2262
pped	-2263
▁Ser	-2264
▁Do	-2265
ift	-2266
▁April	-2267
burg	-2268
itude	-2269
▁clear	-2270
▁prev	-2271
▁earth	-2272
▁bra	-2273
36	-2274
ference	-2275
rie	-2276
▁free	-2277
▁pain	-2278
▁George	-2279
▁lim	-2280
▁mit	-2281
US	-2282
rying	-2283
▁zu	-2284
▁difficult	-2285
▁bring	-2286
ae	-2287
▁single	-2288
▁due	-2289
▁disco	-2290
ades	-2291
▁fut	-2292
▁Hol	-2293
==	-2294
ization	-2295
▁thousand	-2296
37	-2297
asion	-2298
ante	-2299
▁except	-2300
▁live	-2301
▁From	-2302
▁stri	-2303
▁thou	-2304
▁sudden	-2305
▁http	-2306
ico	-2307
▁north	-2308
well	-2309
Amer	-2310
used	-2311
▁River	-2312
▁close	-2313
ager	-2314
▁Mad	-2315
TER	-2316
▁ang	-2317
34	-2318
▁Ro	-2319
arr	-2320
bor	-2321
▁dro	-2322
▁across	-2323
▁doubt	-2324
▁inform	-2325
omin	-2326
▁cast	-2327
▁por	-2328
▁prob	-2329
▁Nor	-2330
▁Now	-2331
▁Park	-2332
nder	-2333
uted	-2334
▁stop	-2335
▁friends	-2336
▁group	-2337
▁perhaps	-2338
▁died	-2339
cher	-2340
▁hope	-2341
▁Sec	-2342
aughter	-2343
▁attack	-2344
▁dear	-2345
born	-2346
lection	-2347
▁soul	-2348
▁influ	-2349
ander	-2350
99	-2351
▁Med	-2352
▁1,	-2353
▁force	-2354
▁able	-2355
▁leave	-2356
▁possess	-2357
38	-2358
▁ré	-2359
▁followed	-2360
▁gone	-2361
!”	-2362
ato	-2363
reek	-2364
▁Lou	-2365
fact	-2366
▁2.	-2367
▁whether	-2368
▁pal	-2369
▁Indian	-2370
▁gentle	-2371
▁purp	-2372
▁therefore	-2373
▁major	-2374
▁acqu	-2375
▁attempt	-2376
▁Mon	-2377
gcolor	-2378
ili	-2379
▁US	-2380
▁pay	-2381
He	-2382
lo	-2383
irt	-2384
▁living	-2385
▁priv	-2386
▁thy	-2387
▁General	-2388
▁Ber	-2389
▁cross	-2390
ios	-2391
▁zij	-2392
tained	-2393
▁ni	-2394
aving	-2395
levision	-2396
ros	-2397
▁understand	-2398
▁caus	-2399
ès	-2400
ita	-2401
cul	-2402
Oh	-2403
erson	-2404
▁continued	-2405
▁hig	-2406
▁los	-2407
ruction	-2408
▁fail	-2409
AS	-2410
chn	-2411
▁observ	-2412
▁December	-2413
▁November	-2414
medi	-2415
▁hour	-2416
ouncil	-2417
irm	-2418
▁sal	-2419
urb	-2420
▁Ant	-2421
▁chief	-2422
,'	-2423
▁tu	-2424
▁appeared	-2425
▁Was	-2426
▁further	-2427
▁fair	-2428
▁Roman	-2429
ills	-2430
ender	-2431
▁occup	-2432
ebru	-2433
▁describ	-2434
▁Of	-2435
▁wall	-2436
▁named	-2437
▁tout	-2438
iddle	-2439
name	-2440
▁trad	-2441
▁river	-2442
anger	-2443
raft	-2444
ston	-2445
▁das	-2446
aged	-2447
ään	-2448
ilar	-2449
ampionship	-2450
▁fac	-2451
▁towards	-2452
▁Im	-2453
American	-2454
aught	-2455
▁swe	-2456
▁fun	-2457
owers	-2458
▁indeed	-2459
▁length	-2460
▁0.	-2461
21	-2462
▁Ass	-2463
▁born	-2464
CCC	-2465
ctions	-2466
▁Sm	-2467
▁church	-2468
▁25	-2469
▁Cent	-2470
▁Japan	-2471
90	-2472
ky	-2473
75	-2474
▁educ	-2475
▁San	-2476
lex	-2477
▁district	-2478
uel	-2479
hem	-2480
▁(18	-2481
▁von	-2482
ested	-2483
▁Mary	-2484
▁quick	-2485
ray	-2486
▁avec	-2487
▁built	-2488
▁south	-2489
iction	-2490
▁hus	-2491
▁cause	-2492
▁cried	-2493
▁perfect	-2494
wo	-2495
▁visit	-2496
ebruary	-2497
ography	-2498
▁written	-2499
▁ye	-2500
▁sie	-2501
▁af	-2502
pan	-2503
orrow	-2504
▁bene	-2505
▁opened	-2506
▁OF	-2507
ears	-2508
iding	-2509
▁comb	-2510
▁Dist	-2511
Yes	-2512
▁ship	-2513
▁James	-2514
▁profess	-2515
iforn	-2516
rag	-2517
line	-2518
▁remain	-2519
yr	-2520
▁lie	-2521
▁List	-2522
▁|}	-2523
45	-2524
▁pie	-2525
over	-2526
▁11	-2527
ival	-2528
:19	-2529
ão	-2530
▁eight	-2531
aa	-2532
ords	-2533
▁mur	-2534
▁manner	-2535
roy	-2536
lected	-2537
▁coming	-2538
▁Don	-2539
cture	-2540
▁fil	-2541
lin	-2542
▁played	-2543
sem	-2544
▁Jer	-2545
work	-2546
▁election	-2547
ump	-2548
▁squ	-2549
▁entire	-2550
▁truth	-2551
▁Jack	-2552
▁Christian	-2553
▁Some	-2554
▁rail	-2555
field	-2556
iament	-2557
▁anc	-2558
▁table	-2559
▁Paris	-2560
▁sometimes	-2561
ror	-2562
▁constit	-2563
▁sin	-2564
▁mo	-2565
▁employ	-2566
▁conne	-2567
▁original	-2568
▁Paul	-2569
▁kept	-2570
▁Cup	-2571
▁Er	-2572
ua	-2573
ari	-2574
rary	-2575
▁Port	-2576
▁blood	-2577
ifornia	-2578
oral	-2579
key	-2580
bb	-2581
▁{|	-2582
▁ran	-2583
▁various	-2584
▁hur	-2585
▁nous	-2586
Al	-2587
kin	-2588
▁Dem	-2589
that	-2590
▁scope	-2591
66	-2592
cis	-2593
▁cult	-2594
yt	-2595
▁crit	-2596
But	-2597
▁,	-2598
▁arms	-2599
acht	-2600
▁Thom	-2601
▁remember	-2602
place	-2603
▁self	-2604
▁replied	-2605
rel	-2606
mon	-2607
bert	-2608
aar	-2609
▁draw	-2610
▁progr	-2611
ream	-2612
ounded	-2613
lement	-2614
gar	-2615
▁Rich	-2616
Ar	-2617
▁intro	-2618
85	-2619
▁answered	-2620
▁bad	-2621
ura	-2622
vin	-2623
▁America	-2624
▁looking	-2625
▁arch	-2626
riage	-2627
▁hat	-2628
▁wish	-2629
▁fight	-2630
2)	-2631
▁Great	-2632
conom	-2633
▁wild	-2634
▁else	-2635
antly	-2636
▁third	-2637
▁Des	-2638
▁Rober	-2639
▁claim	-2640
▁reached	-2641
▁ih	-2642
▁sugg	-2643
▁accom	-2644
▁horse	-2645
zen	-2646
ught	-2647
▁report	-2648
ection	-2649
IC	-2650
▁court	-2651
▁change	-2652
pre	-2653
inct	-2654
▁East	-2655
ii	-2656
ledge	-2657
umn	-2658
▁bit	-2659
én	-2660
▁24	-2661
▁However	-2662
wik	-2663
ead	-2664
▁Oh	-2665
▁why	-2666
▁quar	-2667
rey	-2668
▁«	-2669
ourt	-2670
ige	-2671
1)	-2672
▁individ	-2673
0000	-2674
onn	-2675
▁demand	-2676
▁really	-2677
▁big	-2678
▁natural	-2679
▁iss	-2680
▁dut	-2681
ests	-2682
▁husband	-2683
body	-2684
▁February	-2685
▁Res	-2686
▁sac	-2687
▁although	-2688
▁Tom	-2689
ially	-2690
itting	-2691
inary	-2692
▁plan	-2693
het	-2694
▁added	-2695
86	-2696
▁carried	-2697
▁important	-2698
▁compan	-2699
ey	-2700
hood	-2701
▁office	-2702
la	-2703
▁mid	-2704
chen	-2705
ires	-2706
▁condu	-2707
▁process	-2708
▁deg	-2709
▁fif	-2710
ano	-2711
wood	-2712
ida	-2713
century	-2714
▁twenty	-2715
▁College	-2716
▁Val	-2717
▁break	-2718
▁beautiful	-2719
▁California	-2720
oute	-2721
▁special	-2722
usion	-2723
▁ses	-2724
22	-2725
IT	-2726
▁released	-2727
▁Mich	-2728
uin	-2729
▁Charles	-2730
bour	-2731
▁origin	-2732
▁deter	-2733
89	-2734
▁excl	-2735
▁local	-2736
bled	-2737
ample	-2738
ora	-2739
▁idea	-2740
▁Ver	-2741
▁Du	-2742
pro	-2743
oph	-2744
▁30	-2745
▁History	-2746
▁host	-2747
TATT	-2748
▁longer	-2749
ging	-2750
erve	-2751
htm	-2752
▁sight	-2753
▁step	-2754
▁daughter	-2755
▁Roy	-2756
imate	-2757
77	-2758
▁Mil	-2759
apt	-2760
▁published	-2761
▁soft	-2762
ät	-2763
▁political	-2764
gu	-2765
▁sem	-2766
▁lady	-2767
▁Pal	-2768
▁fine	-2769
EL	-2770
▁dit	-2771
/8/8/	-2772
▁desp	-2773
▁phys	-2774
artment	-2775
▁prim	-2776
lem	-2777
▁neg	-2778
▁works	-2779
str	-2780
▁gun	-2781
▁dat	-2782
▁wrote	-2783
44	-2784
▁thee	-2785
▁term	-2786
▁recogn	-2787
|19	-2788
▁rad	-2789
night	-2790
▁mater	-2791
▁oli	-2792
▁club	-2793
▁necessary	-2794
We	-2795
▁immedi	-2796
▁event	-2797
bles	-2798
tered	-2799
▁vict	-2800
▁sens	-2801
▁har	-2802
▁Canada	-2803
▁wonder	-2804
▁village	-2805
▁seems	-2806
iff	-2807
▁sir	-2808
▁cold	-2809
cast	-2810
▁liter	-2811
▁mais	-2812
▁taking	-2813
▁accept	-2814
▁sense	-2815
▁poet	-2816
ustom	-2817
ously	-2818
TAT	-2819
▁peace	-2820
uation	-2821
room	-2822
▁om	-2823
order	-2824
▁ou	-2825
ando	-2826
ena	-2827
▁viol	-2828
▁wat	-2829
▁elle	-2830
▁Kingdom	-2831
▁moved	-2832
ociation	-2833
pecially	-2834
▁cost	-2835
▁master	-2836
▁hours	-2837
▁secret	-2838
TGGG	-2839
▁evening	-2840
sec	-2841
olic	-2842
umer	-2843
ixed	-2844
▁Rec	-2845
▁broad	-2846
▁faith	-2847
ishing	-2848
▁miles	-2849
pper	-2850
76	-2851
▁International	-2852
▁pict	-2853
33	-2854
▁Act	-2855
aries	-2856
orthern	-2857
elled	-2858
Well	-2859
ria	-2860
▁treat	-2861
▁bien	-2862
▁Vir	-2863
ification	-2864
gress	-2865
play	-2866
where	-2867
wikitable	-2868
▁histor	-2869
foot	-2870
▁Maj	-2871
▁imag	-2872
▁prison	-2873
▁Street	-2874
▁players	-2875
▁Henry	-2876
lt	-2877
▁mist	-2878
aching	-2879
unk	-2880
IL	-2881
▁rock	-2882
▁hot	-2883
95	-2884
▁Mal	-2885
ounced	-2886
ér	-2887
▁sen	-2888
▁popular	-2889
yond	-2890
84	-2891
ites	-2892
▁nearly	-2893
ening	-2894
▁pen	-2895
itation	-2896
▁worth	-2897
▁according	-2898
rupt	-2899
oses	-2900
hod	-2901
llust	-2902
▁deal	-2903
▁building	-2904
▁fellow	-2905
hington	-2906
▁ready	-2907
▁based	-2908
▁lad	-2909
▁similar	-2910
▁civil	-2911
▁Championship	-2912
▁army	-2913
▁Ma	-2914
▁Louis	-2915
▁mus	-2916
mi	-2917
▁considered	-2918
view	-2919
arc	-2920
icle	-2921
▁week	-2922
▁comme	-2923
▁Pri	-2924
▁satis	-2925
▁Bo	-2926
▁mass	-2927
ores	-2928
▁served	-2929
▁separ	-2930
▁neigh	-2931
▁Mart	-2932
ago	-2933
▁»	-2934
ani	-2935
rap	-2936
▁Art	-2937
▁text	-2938
vi	-2939
▁produced	-2940
ician	-2941
▁remained	-2942
outhern	-2943
isl	-2944
▁sleep	-2945
ael	-2946
si	-2947
icient	-2948
unn	-2949
isted	-2950
enc	-2951
▁nicht	-2952
▁streng	-2953
87	-2954
RE	-2955
▁hom	-2956
▁Ac	-2957
ho	-2958
▁cop	-2959
▁forward	-2960
▁During	-2961
aval	-2962
▁military	-2963
▁+	-2964
▁100	-2965
like	-2966
▁opin	-2967
▁slow	-2968
▁Sen	-2969
jo	-2970
▁title	-2971
▁member	-2972
/8/	-2973
▁started	-2974
▁sn	-2975
▁CHAP	-2976
▁Island	-2977
▁Sam	-2978
▁compl	-2979
▁Hall	-2980
▁remark	-2981
▁action	-2982
▁parts	-2983
▁placed	-2984
▁corn	-2985
▁Mont	-2986
ür	-2987
▁months	-2988
▁answer	-2989
▁modern	-2990
▁Ag	-2991
▁Red	-2992
ja	-2993
▁hast	-2994
▁Mer	-2995
AM	-2996
TV	-2997
ety	-2998
65	-2999
olved	-3000
▁trib	-3001
▁pet	-3002
itz	-3003
era	-3004
add	-3005
▁danger	-3006
▁colspan	-3007
ises	-3008
lymp	-3009
▁addition	-3010
3)	-3011
inner	-3012
▁concern	-3013
▁India	-3014
ids	-3015
▁latter	-3016
sey	-3017
▁Mag	-3018
▁mut	-3019
▁District	-3020
rang	-3021
▁refer	-3022
.</	-3023
sy	-3024
sport	-3025
▁eye	-3026
▁bas	-3027
▁creat	-3028
itor	-3029
▁quiet	-3030
▁Bel	-3031
▁Off	-3032
▁cette	-3033
itch	-3034
▁David	-3035
▁bgcolor	-3036
ingu	-3037
▁forg	-3038
▁stay	-3039
vo	-3040
vert	-3041
▁especially	-3042
anish	-3043
▁Grand	-3044
▁engine	-3045
mar	-3046
light	-3047
▁surpr	-3048
ias	-3049
är	-3050
▁formed	-3051
▁Acc	-3052
reed	-3053
64	-3054
mit	-3055
cious	-3056
aient	-3057
elling	-3058
▁appoint	-3059
inen	-3060
type	-3061
notes	-3062
▁avait	-3063
ends	-3064
ota	-3065
archive	-3066
▁Ze	-3067
▁press	-3068
▁hop	-3069
▁mal	-3070
▁pray	-3071
ón	-3072
▁plain	-3073
▁race	-3074
=2	-3075
▁watch	-3076
▁ol	-3077
▁occasion	-3078
▁Pat	-3079
▁purpose	-3080
ellow	-3081
88	-3082
▁married	-3083
▁fast	-3084
▁saying	-3085
▁battle	-3086
atives	-3087
▁rose	-3088
ingly	-3089
▁gard	-3090
▁mention	-3091
▁example	-3092
face	-3093
▁color	-3094
▁President	-3095
anced	-3096
ía	-3097
berg	-3098
▁hu	-3099
km	-3100
▁govern	-3101
▁career	-3102
▁sich	-3103
▁exam	-3104
▁current	-3105
acher	-3106
▁hous	-3107
▁dog	-3108
▁liber	-3109
with	-3110
▁Union	-3111
▁becom	-3112
▁wel	-3113
▁books	-3114
▁social	-3115
ND	-3116
igen	-3117
oted	-3118
▁places	-3119
▁Af	-3120
what	-3121
itive	-3122
rief	-3123
ete	-3124
▁final	-3125
asc	-3126
▁food	-3127
▁frequ	-3128
▁bound	-3129
▁capt	-3130
▁mult	-3131
▁CHAPTER	-3132
▁minutes	-3133
uten	-3134
▁below	-3135
ου	-3136
LE	-3137
istic	-3138
▁novel	-3139
def	-3140
74	-3141
▁Award	-3142
An	-3143
aine	-3144
arp	-3145
nown	-3146
teen	-3147
hib	-3148
ela	-3149
▁mu	-3150
--"	-3151
ables	-3152
▁knowledge	-3153
je	-3154
illa	-3155
▁Ter	-3156
▁Peter	-3157
iden	-3158
▁emb	-3159
▁ess	-3160
▁3.	-3161
▁beyond	-3162
pond	-3163
▁Germany	-3164
▁toward	-3165
▁hair	-3166
▁entered	-3167
unicip	-3168
ancy	-3169
iant	-3170
useum	-3171
▁miss	-3172
▁ven	-3173
ör	-3174
▁million	-3175
iles	-3176
▁First	-3177
▁Let	-3178
ité	-3179
▁inn	-3180
aux	-3181
eg	-3182
▁x	-3183
rab	-3184
▁Ear	-3185
▁games	-3186
ators	-3187
▁none	-3188
|200	-3189
acing	-3190
▁material	-3191
▁comes	-3192
▁Men	-3193
pid	-3194
itte	-3195
bre	-3196
▁test	-3197
▁fle	-3198
▁aver	-3199
▁jour	-3200
▁Here	-3201
▁Robert	-3202
▁Thomas	-3203
▁European	-3204
▁total	-3205
▁instead	-3206
▁Dep	-3207
▁indust	-3208
▁Mac	-3209
sv	-3210
▁Cong	-3211
▁larg	-3212
adian	-3213
▁forth	-3214
▁Tran	-3215
▁als	-3216
zz	-3217
▁sweet	-3218
▁Town	-3219
tty	-3220
▁lived	-3221
▁fol	-3222
▁didn	-3223
▁26	-3224
note	-3225
▁sour	-3226
▁Army	-3227
94	-3228
ême	-3229
▁spoke	-3230
▁phil	-3231
▁κ	-3232
▁establish	-3233
That	-3234
▁star	-3235
▁á	-3236
▁exec	-3237
ava	-3238
eks	-3239
hab	-3240
arliament	-3241
▁Fr	-3242
bsite	-3243
▁feat	-3244
▁distance	-3245
▁Virgin	-3246
▁lower	-3247
▁Cath	-3248
▁Ir	-3249
▁generally	-3250
▁pot	-3251
▁Court	-3252
aded	-3253
minist	-3254
▁Black	-3255
▁clos	-3256
▁obl	-3257
▁While	-3258
▁everything	-3259
▁mad	-3260
▁Company	-3261
▁belong	-3262
resh	-3263
ocratic	-3264
▁conv	-3265
▁rul	-3266
▁male	-3267
▁uns	-3268
▁Vol	-3269
rian	-3270
▁probably	-3271
iling	-3272
▁190	-3273
▁Mor	-3274
▁occur	-3275
▁leader	-3276
▁id	-3277
:「	-3278
▁Washington	-3279
▁Australia	-3280
▁epis	-3281
▁circum	-3282
AGAA	-3283
▁repe	-3284
▁Sim	-3285
▁project	-3286
▁coll	-3287
no	-3288
New	-3289
▁heavy	-3290
▁cru	-3291
▁Die	-3292
▁bird	-3293
▁proceed	-3294
ista	-3295
▁était	-3296
▁attention	-3297
▁board	-3298
▁species	-3299
ideo	-3300
▁wanted	-3301
98	-3302
▁level	-3303
uis	-3304
▁qual	-3305
▁Bra	-3306
▁impro	-3307
96	-3308
▁Lady	-3309
▁beginning	-3310
▁makes	-3311
▁ho	-3312
▁Olymp	-3313
97	-3314
▁auf	-3315
United	-3316
▁Captain	-3317
ero	-3318
▁...	-3319
▁(_	-3320
roll	-3321
▁Law	-3322
▁paper	-3323
▁ought	-3324
▁Jew	-3325
▁west	-3326
house	-3327
▁|19	-3328
▁located	-3329
etting	-3330
▁2,	-3331
▁Sal	-3332
ula	-3333
utt	-3334
▁fat	-3335
ech	-3336
▁television	-3337
▁official	-3338
▁enemy	-3339
ishop	-3340
▁blue	-3341
esse	-3342
hest	-3343
▁III	-3344
▁/	-3345
▁household	-3346
han	-3347
▁future	-3348
pen	-3349
RO	-3350
▁control	-3351
eds	-3352
▁Cr	-3353
gl	-3354
▁glad	-3355
▁Government	-3356
▁pos	-3357
date	-3358
▁hol	-3359
▁breat	-3360
▁Frank	-3361
▁Council	-3362
Illust	-3363
äm	-3364
▁laid	-3365
▁!!	-3366
aker	-3367
▁allow	-3368
▁plant	-3369
▁Lat	-3370
ym	-3371
▁vast	-3372
▁pun	-3373
▁suddenly	-3374
joy	-3375
▁ε	-3376
▁186	-3377
▁relations	-3378
▁disapp	-3379
▁White	-3380
aled	-3381
rance	-3382
do	-3383
▁note	-3384
32	-3385
▁method	-3386
ndash	-3387
tr	-3388
▁included	-3389
▁greater	-3390
▁influence	-3391
ST	-3392
▁cab	-3393
Mar	-3394
ounds	-3395
▁cover	-3396
aik	-3397
▁Tur	-3398
▁feeling	-3399
▁Wil	-3400
▁TV	-3401
▁include	-3402
ming	-3403
yal	-3404
▁god	-3405
▁track	-3406
▁Royal	-3407
▁ful	-3408
king	-3409
oved	-3410
▁Sum	-3411
udd	-3412
▁ball	-3413
svg	-3414
▁green	-3415
ING	-3416
▁doing	-3417
▁slight	-3418
▁spl	-3419
▁space	-3420
▁development	-3421
▁tried	-3422
▁arg	-3423
▁sister	-3424
Illustration	-3425
▁Che	-3426
▁Just	-3427
Sh	-3428
ona	-3429
▁21	-3430
ini	-3431
▁youth	-3432
▁las	-3433
▁Cam	-3434
▁Parliament	-3435
▁trees	-3436
▁usually	-3437
▁©	-3438
▁activ	-3439
▁imm	-3440
▁22	-3441
atre	-3442
▁Mount	-3443
▁Arch	-3444
▁condition	-3445
▁coun	-3446
▁dam	-3447
oured	-3448
▁Rail	-3449
▁27	-3450
▁lines	-3451
▁health	-3452
▁crow	-3453
▁strange	-3454
▁happy	-3455
▁appearance	-3456
▁killed	-3457
▁outside	-3458
▁mir	-3459
▁bear	-3460
tä	-3461
ological	-3462
▁joy	-3463
▁cit	-3464
avy	-3465
▁mort	-3466
▁inj	-3467
▁mouth	-3468
title	-3469
▁chap	-3470
inger	-3471
aimed	-3472
▁ist	-3473
UR	-3474
ranch	-3475
▁Alex	-3476
▁prep	-3477
division	-3478
▁23	-3479
▁Cast	-3480
ushed	-3481
▁study	-3482
ples	-3483
▁grad	-3484
▁strength	-3485
▁president	-3486
ques	-3487
▁econom	-3488
▁seven	-3489
EE	-3490
▁pleas	-3491
▁Other	-3492
atory	-3493
▁boys	-3494
ées	-3495
▁cat	-3496
ider	-3497
ben	-3498
▁east	-3499
▁2000	-3500
▁Foot	-3501
BC	-3502
isk	-3503
year	-3504
ga	-3505
▁gro	-3506
ellig	-3507
ola	-3508
▁assist	-3509
▁Republic	-3510
▁bright	-3511
▁Richard	-3512
ensive	-3513
▁convers	-3514
▁region	-3515
uous	-3516
▁quel	-3517
irty	-3518
▁ago	-3519
▁figure	-3520
utions	-3521
▁suppose	-3522
▁Tra	-3523
▁suc	-3524
part	-3525
▁ancient	-3526
▁Old	-3527
▁ze	-3528
aren	-3529
antic	-3530
▁player	-3531
▁cho	-3532
olf	-3533
▁(201	-3534
olit	-3535
▁pi	-3536
▁mi	-3537
▁dom	-3538
▁described	-3539
▁island	-3540
▁Emp	-3541
▁bank	-3542
▁pretty	-3543
reland	-3544
▁Dan	-3545
▁Rev	-3546
▁private	-3547
ournal	-3548
itar	-3549
──	-3550
AGGG	-3551
agn	-3552
▁ich	-3553
▁ident	-3554
isi	-3555
▁Saint	-3556
▁independ	-3557
▁using	-3558
asket	-3559
▁value	-3560
iance	-3561
ederal	-3562
OL	-3563
osa	-3564
▁mine	-3565
▁Smith	-3566
▁boat	-3567
odes	-3568
edy	-3569
ictor	-3570
▁inqu	-3571
▁education	-3572
▁produc	-3573
____	-3574
▁wit	-3575
▁enjoy	-3576
known	-3577
▁chair	-3578
▁una	-3579
onel	-3580
ells	-3581
▁Cont	-3582
och	-3583
oups	-3584
▁Les	-3585
▁aux	-3586
▁burn	-3587
▁temper	-3588
mes	-3589
AGGC	-3590
▁rend	-3591
elles	-3592
cts	-3593
ibrary	-3594
▁Prince	-3595
31	-3596
▁reb	-3597
▁allowed	-3598
icles	-3599
▁points	-3600
▁determ	-3601
▁Scott	-3602
alle	-3603
▁Scot	-3604
▁version	-3605
▁immediately	-3606
▁philos	-3607
47	-3608
ability	-3609
uer	-3610
▁tal	-3611
vey	-3612
▁Jose	-3613
▁trust	-3614
arrow	-3615
enth	-3616
ails	-3617
46	-3618
▁san	-3619
▁neither	-3620
mark	-3621
▁28	-3622
▁bott	-3623
▁succeed	-3624
▁Bur	-3625
icket	-3626
ential	-3627
otal	-3628
▁vot	-3629
▁size	-3630
▁pit	-3631
▁events	-3632
▁window	-3633
raw	-3634
arily	-3635
▁extra	-3636
▁Mark	-3637
▁simple	-3638
▁prevent	-3639
–0	-3640
azine	-3641
="2"	-3642
peror	-3643
▁fit	-3644
▁Division	-3645
▁indic	-3646
under	-3647
▁circumst	-3648
▁wide	-3649
▁information	-3650
▁states	-3651
▁Bay	-3652
▁Mex	-3653
▁Sl	-3654
▁changed	-3655
▁direction	-3656
▁tree	-3657
▁delight	-3658
▁opinion	-3659
https	-3660
ko	-3661
▁films	-3662
▁Cons	-3663
▁Gold	-3664
▁ren	-3665
▁earn	-3666
ription	-3667
AGCC	-3668
ental	-3669
▁env	-3670
▁185	-3671
illing	-3672
▁raised	-3673
ca	-3674
▁created	-3675
▁regular	-3676
▁cases	-3677
▁compet	-3678
time	-3679
▁cry	-3680
▁names	-3681
icy	-3682
orough	-3683
▁loss	-3684
iar	-3685
▁announced	-3686
▁Penn	-3687
▁mess	-3688
mo	-3689
you	-3690
rad	-3691
▁Ke	-3692
De	-3693
▁rich	-3694
lying	-3695
100	-3696
▁base	-3697
▁closed	-3698
ön	-3699
▁letters	-3700
▁parent	-3701
iced	-3702
TTTC	-3703
▁duty	-3704
rank	-3705
être	-3706
bed	-3707
▁arrived	-3708
▁π	-3709
set	-3710
rica	-3711
orses	-3712
▁dress	-3713
shire	-3714
▁defe	-3715
▁techn	-3716
αι	-3717
▁consequ	-3718
▁summer	-3719
sk	-3720
▁Land	-3721
▁Del	-3722
▁movement	-3723
▁crowd	-3724
isions	-3725
▁save	-3726
ende	-3727
▁type	-3728
▁presence	-3729
ergy	-3730
▁persons	-3731
▁Club	-3732
1-	-3733
▁Jes	-3734
▁try	-3735
▁log	-3736
▁Carol	-3737
▁susp	-3738
▁rapid	-3739
▁working	-3740
dd	-3741
olly	-3742
html	-3743
▁destroy	-3744
icked	-3745
otion	-3746
▁depart	-3747
▁purs	-3748
asp	-3749
▁coast	-3750
▁meant	-3751
rowspan	-3752
▁exact	-3753
▁Queen	-3754
▁na	-3755
▁decided	-3756
▁surr	-3757
▁wrong	-3758
▁guard	-3759
frican	-3760
inese	-3761
uv	-3762
▁cand	-3763
aven	-3764
▁Road	-3765
▁anx	-3766
▁conce	-3767
EF	-3768
ossible	-3769
bar	-3770
lor	-3771
exas	-3772
▁production	-3773
▁affect	-3774
eld	-3775
bling	-3776
▁express	-3777
▁capital	-3778
▁Green	-3779
▁touch	-3780
▁Rome	-3781
▁mach	-3782
▁Why	-3783
Foot	-3784
▁2006	-3785
▁feature	-3786
▁aud	-3787
▁average	-3788
uments	-3789
anta	-3790
▁net	-3791
aign	-3792
▁trouble	-3793
lied	-3794
▁wis	-3795
▁image	-3796
ION	-3797
▁reading	-3798
▁Francis	-3799
▁zijn	-3800
▁Jud	-3801
▁Spanish	-3802
▁typ	-3803
▁Met	-3804
48	-3805
Le	-3806
ibility	-3807
▁standing	-3808
▁tour	-3809
▁society	-3810
orks	-3811
duction	-3812
▁3,	-3813
▁Two	-3814
aped	-3815
ouv	-3816
▁Leg	-3817
ED	-3818
▁spring	-3819
rif	-3820
wid	-3821
▁dim	-3822
▁officers	-3823
ker	-3824
▁Census	-3825
▁sufficient	-3826
ibly	-3827
▁ces	-3828
▁pleasure	-3829
▁stone	-3830
iner	-3831
wer	-3832
▁forces	-3833
▁sans	-3834
rait	-3835
▁personal	-3836
▁news	-3837
rid	-3838
▁pra	-3839
▁certainly	-3840
▁amb	-3841
lich	-3842
ruit	-3843
▁experience	-3844
▁Ham	-3845
oes	-3846
▁Serv	-3847
ting	-3848
▁hall	-3849
/200	-3850
ights	-3851
▁magn	-3852
▁cred	-3853
▁hij	-3854
atever	-3855
▁community	-3856
ram	-3857
▁Bill	-3858
▁According	-3859
▁desire	-3860
▁chance	-3861
▁fait	-3862
▁shot	-3863
49	-3864
▁dies	-3865
▁custom	-3866
▁Book	-3867
▁officer	-3868
ATAA	-3869
▁Day	-3870
▁quickly	-3871
▁tradition	-3872
ID	-3873
erc	-3874
astern	-3875
▁niet	-3876
ilies	-3877
▁stage	-3878
▁website	-3879
▁street	-3880
▁perm	-3881
ensity	-3882
▁transl	-3883
▁forest	-3884
ati	-3885
▁amount	-3886
▁prec	-3887
67	-3888
cht	-3889
▁path	-3890
▁etc	-3891
▁Mass	-3892
▁forms	-3893
ares	-3894
If	-3895
▁writer	-3896
▁silence	-3897
▁giving	-3898
po	-3899
ras	-3900
▁covered	-3901
ala	-3902
abor	-3903
▁fer	-3904
▁religious	-3905
▁Pre	-3906
▁App	-3907
▁29	-3908
▁happened	-3909
▁services	-3910
OM	-3911
▁init	-3912
Is	-3913
gypt	-3914
rd	-3915
▁clot	-3916
ements	-3917
width	-3918
▁Ireland	-3919
▁Western	-3920
▁foreign	-3921
▁roll	-3922
▁para	-3923
▁warm	-3924
▁vess	-3925
ya	-3926
▁rate	-3927
▁higher	-3928
▁center	-3929
rible	-3930
▁China	-3931
asons	-3932
▁broken	-3933
▁send	-3934
▁fresh	-3935
▁width	-3936
III	-3937
▁ban	-3938
ify	-3939
▁ru	-3940
ception	-3941
▁adop	-3942
▁Fin	-3943
▁leaving	-3944
IV	-3945
▁rank	-3946
▁invest	-3947
▁ik	-3948
▁187	-3949
▁discuss	-3950
▁grew	-3951
▁religion	-3952
▁virt	-3953
▁sou	-3954
▁Hel	-3955
board	-3956
▁Acad	-3957
▁ign	-3958
▁Ben	-3959
come	-3960
▁Ol	-3961
▁admir	-3962
▁Catholic	-3963
▁property	-3964
▁Sing	-3965
▁filled	-3966
▁Angel	-3967
▁Their	-3968
▁charge	-3969
oom	-3970
fess	-3971
▁middle	-3972
nes	-3973
inf	-3974
ido	-3975
▁Lake	-3976
▁comfort	-3977
▁yes	-3978
▁Fort	-3979
▁Virginia	-3980
xim	-3981
DF	-3982
▁sel	-3983
▁Congress	-3984
ply	-3985
▁carry	-3986
ylvan	-3987
▁era	-3988
▁leur	-3989
My	-3990
▁α	-3991
▁individual	-3992
▁associ	-3993
hi	-3994
▁box	-3995
▁weak	-3996
aud	-3997
▁joined	-3998
▁worked	-3999
▁beauty	-4000
utch	-4001
▁train	-4002
rael	-4003
▁attract	-4004
igned	-4005
EC	-4006
▁cas	-4007
hw	-4008
▁laugh	-4009
▁nation	-4010
▁gentleman	-4011
ez	-4012
▁program	-4013
▁wer	-4014
▁troops	-4015
▁Inter	-4016
▁Music	-4017
▁leading	-4018
▁Association	-4019
▁terms	-4020
▁numer	-4021
▁Hill	-4022
ito	-4023
äh	-4024
met	-4025
Why	-4026
▁trade	-4027
▁Wal	-4028
ilities	-4029
▁degree	-4030
aten	-4031
TGTG	-4032
0,000	-4033
▁4.	-4034
John	-4035
hens	-4036
.|	-4037
▁coup	-4038
ulated	-4039
▁proble	-4040
▁appointed	-4041
ashion	-4042
▁Jul	-4043
bon	-4044
uls	-4045
mond	-4046
▁seat	-4047
▁horses	-4048
▁Pet	-4049
▁signific	-4050
ás	-4051
▁;	-4052
▁role	-4053
▁Central	-4054
----------------	-4055
▁writing	-4056
68	-4057
ols	-4058
agement	-4059
▁science	-4060
rated	-4061
▁Jim	-4062
▁travel	-4063
TCTC	-4064
aining	-4065
▁Luc	-4066
film	-4067
▁Rob	-4068
▁straight	-4069
TTGG	-4070
▁protect	-4071
Ind	-4072
▁drew	-4073
▁sav	-4074
oper	-4075
▁Duke	-4076
▁houses	-4077
▁favor	-4078
▁impossible	-4079
ban	-4080
aper	-4081
▁trem	-4082
▁Society	-4083
▁laws	-4084
▁avail	-4085
▁lives	-4086
▁soldiers	-4087
There	-4088
cont	-4089
▁believed	-4090
▁glass	-4091
▁Thus	-4092
▁running	-4093
▁marriage	-4094
sylvan	-4095
▁ta	-4096
▁required	-4097
▁commer	-4098
AAGG	-4099
ospital	-4100
icks	-4101
▁attend	-4102
▁Def	-4103
▁complete	-4104
umed	-4105
▁surface	-4106
▁noble	-4107
esty	-4108
ario	-4109
AD	-4110
▁bill	-4111
▁caught	-4112
▁scene	-4113
▁Texas	-4114
▁expected	-4115
án	-4116
▁Bro	-4117
▁throughout	-4118
abel	-4119
▁paid	-4120
sch	-4121
▁developed	-4122
▁harm	-4123
alled	-4124
====	-4125
▁site	-4126
unch	-4127
▁expression	-4128
ourage	-4129
▁opport	-4130
4)	-4131
▁Greek	-4132
▁girls	-4133
▁Italian	-4134
▁respons	-4135
.[	-4136
▁groups	-4137
▁2010	-4138
ittee	-4139
▁Fer	-4140
▁oblig	-4141
▁showed	-4142
▁offered	-4143
▁Best	-4144
aste	-4145
▁struck	-4146
▁shown	-4147
▁likely	-4148
▁vent	-4149
▁189	-4150
▁firm	-4151
Sc	-4152
1–	-4153
iller	-4154
▁Ann	-4155
west	-4156
TCCC	-4157
▁thick	-4158
▁piece	-4159
iger	-4160
▁Stud	-4161
▁advant	-4162
▁captain	-4163
ATTC	-4164
▁caused	-4165
▁strugg	-4166
▁Life	-4167
éd	-4168
▁Super	-4169
oid	-4170
▁cro	-4171
▁lips	-4172
sylvania	-4173
▁win	-4174
ione	-4175
▁Brown	-4176
▁Camp	-4177
57	-4178
iron	-4179
▁Empire	-4180
........	-4181
chie	-4182
▁appears	-4183
isters	-4184
▁contrib	-4185
▁että	-4186
▁instr	-4187
▁2005	-4188
▁alle	-4189
▁slowly	-4190
▁discovered	-4191
▁territ	-4192
vention	-4193
▁date	-4194
▁meeting	-4195
▁Den	-4196
nce	-4197
▁heaven	-4198
▁Russian	-4199
eless	-4200
▁dig	-4201
▁getting	-4202
▁AND	-4203
▁write	-4204
▁spread	-4205
▁Spain	-4206
reme	-4207
▁Italy	-4208
bury	-4209
▁rights	-4210
▁authority	-4211
▁Michael	-4212
▁ei	-4213
▁drink	-4214
▁declared	-4215
**	-4216
colspan	-4217
="2"|	-4218
▁fund	-4219
▁census	-4220
▁bi	-4221
▁Prov	-4222
▁honor	-4223
▁easy	-4224
▁complet	-4225
▁entirely	-4226
▁Ev	-4227
▁bow	-4228
iring	-4229
▁yourself	-4230
raid	-4231
▁introduced	-4232
▁hero	-4233
▁meaning	-4234
▁hung	-4235
▁murder	-4236
aches	-4237
▁um	-4238
▁snow	-4239
▁evidence	-4240
isher	-4241
▁elev	-4242
ACAC	-4243
▁rule	-4244
▁cou	-4245
▁ships	-4246
▁Net	-4247
ension	-4248
book	-4249
▁floor	-4250
▁Fred	-4251
▁thinking	-4252
aily	-4253
ufact	-4254
56	-4255
illy	-4256
semb	-4257
rug	-4258
▁diss	-4259
▁sharp	-4260
éc	-4261
▁easily	-4262
▁distingu	-4263
da	-4264
▁Victor	-4265
▁Australian	-4266
TH	-4267
rim	-4268
Eng	-4269
▁50	-4270
▁range	-4271
▁Georg	-4272
▁40	-4273
sembly	-4274
▁contract	-4275
▁gall	-4276
▁Joseph	-4277
▁fool	-4278
How	-4279
isen	-4280
▁furn	-4281
▁apparent	-4282
▁mor	-4283
▁learned	-4284
▁schools	-4285
▁doll	-4286
▁Good	-4287
comp	-4288
▁instit	-4289
▁winter	-4290
▁births	-4291
▁Africa	-4292
▁pure	-4293
▁iron	-4294
▁Year	-4295
lebr	-4296
ijk	-4297
▁bless	-4298
respond	-4299
pop	-4300
Pe	-4301
erved	-4302
annel	-4303
▁Records	-4304
▁Ep	-4305
▁shows	-4306
▁threat	-4307
▁female	-4308
▁hardly	-4309
▁reach	-4310
▁market	-4311
▁afterwards	-4312
▁Rad	-4313
▁countries	-4314
▁vain	-4315
▁exclaimed	-4316
▁Every	-4317
▁Chinese	-4318
▁observed	-4319
▁conditions	-4320
▁habit	-4321
▁Are	-4322
▁grant	-4323
orial	-4324
stant	-4325
▁Who	-4326
▁Egypt	-4327
▁doctor	-4328
▁Where	-4329
Col	-4330
Footnote	-4331
▁print	-4332
▁oppos	-4333
▁Mel	-4334
▁mes	-4335
▁aan	-4336
▁content	-4337
▁Bi	-4338
umbers	-4339
▁doc	-4340
▁Edward	-4341
▁Canadian	-4342
rain	-4343
▁theory	-4344
uter	-4345
ima	-4346
TATG	-4347
▁fal	-4348
urity	-4349
▁Et	-4350
▁characters	-4351
▁Bu	-4352
las	-4353
▁data	-4354
▁highest	-4355
▁features	-4356
FFF	-4357
▁μ	-4358
▁stopped	-4359
▁Mo	-4360
▁faire	-4361
-1	-4362
ems	-4363
iana	-4364
aur	-4365
▁pull	-4366
▁anal	-4367
mas	-4368
▁trav	-4369
▁Mur	-4370
▁More	-4371
▁Es	-4372
▁greatest	-4373
otten	-4374
ba	-4375
▁spent	-4376
venue	-4377
ublican	-4378
▁silver	-4379
▁railway	-4380
icago	-4381
▁smile	-4382
▁finished	-4383
▁Irish	-4384
▁knows	-4385
idents	-4386
▁somewhat	-4387
Not	-4388
▁provided	-4389
▁Sat	-4390
▁2004	-4391
ira	-4392
Re	-4393
▁pros	-4394
ivat	-4395
iny	-4396
▁quant	-4397
||0	-4398
▁Yet	-4399
▁IN	-4400
▁illust	-4401
hered	-4402
▁sand	-4403
Don	-4404
▁absol	-4405
69	-4406
cks	-4407
adow	-4408
▁Up	-4409
▁native	-4410
▁founded	-4411
▁Tor	-4412
▁walked	-4413
▁même	-4414
▁Summer	-4415
▁188	-4416
enced	-4417
▁merely	-4418
IR	-4419
▁gives	-4420
78	-4421
ôt	-4422
TTTG	-4423
▁African	-4424
▁goes	-4425
▁whis	-4426
nen	-4427
rig	-4428
▁blank	-4429
asing	-4430
▁Football	-4431
▁archite	-4432
▁2007	-4433
▁Awards	-4434
▁communic	-4435
▁speech	-4436
▁mel	-4437
amber	-4438
onde	-4439
▁simply	-4440
onne	-4441
!!	-4442
▁nu	-4443
yd	-4444
water	-4445
▁weeks	-4446
▁où	-4447
ners	-4448
aland	-4449
▁leaves	-4450
▁Mem	-4451
▁speed	-4452
▁Museum	-4453
79	-4454
Cl	-4455
▁pred	-4456
ader	-4457
▁Many	-4458
▁alt	-4459
iments	-4460
59	-4461
▁afraid	-4462
▁ku	-4463
▁Bet	-4464
▁Mus	-4465
▁aus	-4466
▁Time	-4467
uf	-4468
▁sick	-4469
▁evident	-4470
▁tax	-4471
▁evil	-4472
▁Carl	-4473
▁broke	-4474
▁Spe	-4475
wise	-4476
stitution	-4477
iin	-4478
▁deux	-4479
▁usual	-4480
1_	-4481
▁phot	-4482
chan	-4483
▁Rom	-4484
istry	-4485
TTCC	-4486
。」	-4487
top	-4488
▁4,	-4489
▁gaz	-4490
▁passion	-4491
▁sex	-4492
ye	-4493
▁administ	-4494
▁subdivision	-4495
▁Rock	-4496
▁Japanese	-4497
▁students	-4498
▁takes	-4499
▁Squ	-4500
win	-4501
▁loved	-4502
elve	-4503
▁Hon	-4504
ocked	-4505
▁intellig	-4506
ente	-4507
▁conduct	-4508
▁tru	-4509
Can	-4510
▁Our	-4511
andon	-4512
▁inhab	-4513
noon	-4514
▁labor	-4515
ici	-4516
▁gar	-4517
▁vie	-4518
▁2019	-4519
▁journey	-4520
▁thoughts	-4521
▁results	-4522
▁ordered	-4523
▁dinner	-4524
▁dream	-4525
AGAG	-4526
oken	-4527
▁tor	-4528
▁situation	-4529
footnotes	-4530
lier	-4531
▁rese	-4532
▁match	-4533
▁mountain	-4534
▁Israel	-4535
▁lu	-4536
ég	-4537
▁|1	-4538
ache	-4539
▁access	-4540
▁Film	-4541
▁Ell	-4542
▁Fore	-4543
▁playing	-4544
▁Sil	-4545
▁critic	-4546
▁purch	-4547
▁forced	-4548
▁Pennsylvania	-4549
▁cloud	-4550
▁voc	-4551
▁progress	-4552
TA	-4553
ih	-4554
▁campaign	-4555
oms	-4556
ockey	-4557
cean	-4558
▁deliver	-4559
yer	-4560
▁va	-4561
▁philosop	-4562
▁equal	-4563
▁km	-4564
▁remains	-4565
▁distinct	-4566
▁circumstances	-4567
▁hang	-4568
▁insp	-4569
▁rid	-4570
stitute	-4571
▁Well	-4572
▁193	-4573
▁Int	-4574
▁picture	-4575
▁Jac	-4576
fin	-4577
alla	-4578
▁citiz	-4579
▁Long	-4580
▁existence	-4581
ading	-4582
All	-4583
urt	-4584
range	-4585
▁Even	-4586
▁Olympics	-4587
▁storm	-4588
▁practice	-4589
▁Wood	-4590
▁throw	-4591
▁narrow	-4592
gment	-4593
▁excell	-4594
▁aim	-4595
▁2008	-4596
iting	-4597
▁Series	-4598
58	-4599
▁older	-4600
iences	-4601
▁saf	-4602
utive	-4603
vol	-4604
As	-4605
zt	-4606
>,	-4607
▁Cat	-4608
▁spot	-4609
▁finally	-4610
ordin	-4611
area	-4612
ocks	-4613
▁rom	-4614
▁receive	-4615
▁Major	-4616
▁opening	-4617
ington	-4618
hor	-4619
ipped	-4620
▁hill	-4621
char	-4622
▁whatever	-4623
▁Der	-4624
▁tit	-4625
OU	-4626
ον	-4627
▁key	-4628
54	-4629
▁seeing	-4630
aks	-4631
▁tone	-4632
▁conqu	-4633
▁voy	-4634
▁5.	-4635
▁international	-4636
Bl	-4637
▁Martin	-4638
▁sont	-4639
asketball	-4640
▁Minister	-4641
▁fro	-4642
▁height	-4643
▁Jesus	-4644
▁Govern	-4645
▁symp	-4646
.’	-4647
hand	-4648
▁escape	-4649
▁suggest	-4650
▁mentioned	-4651
▁rare	-4652
▁Airport	-4653
▁Ap	-4654
▁sad	-4655
▁centre	-4656
▁myster	-4657
▁XX	-4658
▁brief	-4659
esc	-4660
▁tend	-4661
isp	-4662
▁particularly	-4663
▁determined	-4664
igan	-4665
▁Academy	-4666
▁Sur	-4667
OS	-4668
change	-4669
rant	-4670
▁lack	-4671
▁directed	-4672
–200	-4673
eness	-4674
▁mission	-4675
▁contem	-4676
▁recorded	-4677
▁distrib	-4678
▁Press	-4679
▁mere	-4680
ferred	-4681
▁lif	-4682
acific	-4683
▁batt	-4684
IG	-4685
▁Love	-4686
how	-4687
▁weight	-4688
1>	-4689
▁passage	-4690
▁previous	-4691
▁increased	-4692
▁Bob	-4693
▁Ah	-4694
Do	-4695
bridge	-4696
▁dise	-4697
itä	-4698
class	-4699
▁Dick	-4700
▁intended	-4701
▁walls	-4702
acc	-4703
▁memory	-4704
▁compos	-4705
▁numerous	-4706
▁Second	-4707
png	-4708
▁Prot	-4709
▁correspond	-4710
abeth	-4711
vis	-4712
▁Liber	-4713
▁animal	-4714
▁celebr	-4715
eur	-4716
utta	-4717
äl	-4718
ello	-4719
▁Most	-4720
CH	-4721
▁li	-4722
▁supposed	-4723
▁sor	-4724
▁presented	-4725
▁reported	-4726
▁voor	-4727
▁orders	-4728
oston	-4729
▁model	-4730
▁imper	-4731
▁waiting	-4732
▁satisf	-4733
▁address	-4734
ircraft	-4735
stone	-4736
She	-4737
cho	-4738
▁ju	-4739
-19	-4740
can	-4741
▁IV	-4742
rial	-4743
iation	-4744
▁Under	-4745
▁corner	-4746
▁laughed	-4747
▁Out	-4748
▁Jo	-4749
rier	-4750
▁doct	-4751
▁serve	-4752
▁royal	-4753
▁ens	-4754
▁areas	-4755
42	-4756
aret	-4757
▁drawn	-4758
▁appre	-4759
▁shore	-4760
▁manufact	-4761
bec	-4762
war	-4763
▁hath	-4764
▁Inc	-4765
▁measure	-4766
▁elected	-4767
▁larger	-4768
astic	-4769
▁os	-4770
▁prem	-4771
▁Boy	-4772
asi	-4773
▁utter	-4774
izing	-4775
Pro	-4776
code	-4777
▁ones	-4778
▁Order	-4779
osen	-4780
uman	-4781
lam	-4782
▁passing	-4783
▁kne	-4784
TGCC	-4785
5)	-4786
▁jok	-4787
gn	-4788
adium	-4789
irk	-4790
▁map	-4791
▁unto	-4792
▁garden	-4793
was	-4794
▁Its	-4795
▁tim	-4796
aire	-4797
AAAC	-4798
▁ast	-4799
▁repeated	-4800
▁quarter	-4801
▁flag	-4802
icial	-4803
edd	-4804
icans	-4805
ieur	-4806
▁hun	-4807
▁corre	-4808
▁Public	-4809
▁afternoon	-4810
▁completed	-4811
él	-4812
▁Nap	-4813
▁rise	-4814
▁Jean	-4815
acity	-4816
▁search	-4817
▁dry	-4818
▁construction	-4819
▁esp	-4820
inent	-4821
Wh	-4822
oit	-4823
▁bal	-4824
ogy	-4825
UK	-4826
▁fixed	-4827
umph	-4828
▁Sub	-4829
▁fashion	-4830
▁Britain	-4831
agon	-4832
▁deb	-4833
▁minute	-4834
utenant	-4835
était	-4836
▁Est	-4837
▁grace	-4838
▁advance	-4839
arcely	-4840
▁lord	-4841
ishment	-4842
ned	-4843
▁fish	-4844
▁Fe	-4845
▁notice	-4846
▁Tre	-4847
uated	-4848
uses	-4849
▁Gra	-4850
43	-4851
▁Elect	-4852
odd	-4853
To	-4854
una	-4855
▁reve	-4856
allen	-4857
▁Center	-4858
FL	-4859
ATGG	-4860
aked	-4861
▁Line	-4862
▁sail	-4863
▁leaders	-4864
▁Jersey	-4865
▁begin	-4866
,000	-4867
|201	-4868
▁tender	-4869
▁trying	-4870
wing	-4871
▁tears	-4872
▁effort	-4873
▁famous	-4874
▁Although	-4875
▁sitting	-4876
gers	-4877
▁ice	-4878
arts	-4879
▁fra	-4880
▁thirty	-4881
▁silent	-4882
▁consist	-4883
▁families	-4884
▁commun	-4885
▁county	-4886
▁Mat	-4887
▁portion	-4888
▁heat	-4889
▁largest	-4890
ière	-4891
▁Carolina	-4892
▁breath	-4893
▁confess	-4894
▁speaking	-4895
▁incl	-4896
▁lot	-4897
▁Sund	-4898
▁bod	-4899
▁prepar	-4900
▁Group	-4901
▁Him	-4902
owing	-4903
▁exhib	-4904
uts	-4905
▁pack	-4906
▁collect	-4907
lim	-4908
▁fond	-4909
▁justice	-4910
iano	-4911
kins	-4912
▁grave	-4913
uries	-4914
▁songs	-4915
▁Play	-4916
▁plat	-4917
▁beside	-4918
▁Sol	-4919
▁Zealand	-4920
pet	-4921
07	-4922
ENT	-4923
▁moral	-4924
May	-4925
▁Spr	-4926
▁animals	-4927
▁Tem	-4928
ansas	-4929
vere	-4930
▁successful	-4931
uns	-4932
▁Father	-4933
:--	-4934
thur	-4935
stood	-4936
▁coach	-4937
▁parl	-4938
ancing	-4939
▁colon	-4940
▁applic	-4941
▁parties	-4942
▁mas	-4943
gent	-4944
▁stream	-4945
▁numbers	-4946
▁prepared	-4947
page	-4948
▁favour	-4949
▁daß	-4950
▁Indians	-4951
▁double	-4952
▁march	-4953
▁serious	-4954
▁performed	-4955
▁RD	-4956
Se	-4957
▁artist	-4958
▁Flor	-4959
▁scient	-4960
▁freed	-4961
fit	-4962
▁ring	-4963
▁minister	-4964
▁safe	-4965
▁bul	-4966
▁Nat	-4967
antry	-4968
05	-4969
▁cities	-4970
▁sides	-4971
▁hem	-4972
scope	-4973
▁available	-4974
▁2003	-4975
cel	-4976
▁Mod	-4977
▁wealth	-4978
▁ere	-4979
?'	-4980
zy	-4981
▁Wales	-4982
▁Department	-4983
porary	-4984
|199	-4985
▁unless	-4986
inces	-4987
▁Ill	-4988
▁stated	-4989
▁farm	-4990
▁nur	-4991
▁Battle	-4992
size	-4993
iro	-4994
▁compar	-4995
anz	-4996
▁award	-4997
agen	-4998
look	-4999
▁Ven	-5000
êt	-5001
▁fully	-5002
▁subsequ	-5003
▁video	-5004
▁ü	-5005
estival	-5006
▁Lie	-5007
FC	-5008
▁proved	-5009
▁stations	-5010
This	-5011
▁emp	-5012
▁Such	-5013
▁constitu	-5014
▁surv	-5015
▁police	-5016
▁eat	-5017
▁Po	-5018
▁Haw	-5019
uals	-5020
▁motion	-5021
▁share	-5022
▁Van	-5023
▁paint	-5024
▁tous	-5025
▁Columb	-5026
▁performance	-5027
score	-5028
▁Arab	-5029
▁instant	-5030
urd	-5031
adel	-5032
▁accompl	-5033
AGTG	-5034
▁Los	-5035
▁Secret	-5036
▁active	-5037
▁shout	-5038
olk	-5039
▁Atl	-5040
▁eager	-5041
▁crown	-5042
▁Rel	-5043
▁192	-5044
▁Since	-5045
▁directly	-5046
▁failed	-5047
PG	-5048
▁niin	-5049
▁Chicago	-5050
oviet	-5051
▁meas	-5052
▁1990	-5053
ware	-5054
istan	-5055
uz	-5056
estic	-5057
72	-5058
▁flowers	-5059
onsieur	-5060
▁deaths	-5061
▁Profess	-5062
▁Lin	-5063
▁Cross	-5064
▁powers	-5065
▁dism	-5066
▁yellow	-5067
▁literature	-5068
▁Swed	-5069
▁Democratic	-5070
83	-5071
▁resist	-5072
▁pecul	-5073
aft	-5074
▁nine	-5075
–18	-5076
▁considerable	-5077
▁entre	-5078
Pr	-5079
▁Histor	-5080
ador	-5081
▁obtained	-5082
▁sky	-5083
worth	-5084
▁honour	-5085
▁2020	-5086
▁Eliz	-5087
▁conversation	-5088
OT	-5089
▁source	-5090
writ	-5091
ulture	-5092
▁valley	-5093
thlet	-5094
▁kiss	-5095
▁grass	-5096
82	-5097
RI	-5098
▁scarcely	-5099
ruct	-5100
azz	-5101
▁peculiar	-5102
HL	-5103
▁Russia	-5104
oma	-5105
een	-5106
aba	-5107
▁ways	-5108
formation	-5109
▁dre	-5110
acle	-5111
▁Mexico	-5112
▁advantage	-5113
▁politician	-5114
▁importance	-5115
illes	-5116
endo	-5117
ET	-5118
enes	-5119
ACCC	-5120
▁fifty	-5121
▁opportunity	-5122
bit	-5123
▁newsp	-5124
06	-5125
ads	-5126
▁Sie	-5127
ipl	-5128
▁frequently	-5129
net	-5130
▁8/8/	-5131
Ph	-5132
:20	-5133
▁tar	-5134
▁stock	-5135
action	-5136
▁Emperor	-5137
more	-5138
▁turning	-5139
▁Open	-5140
▁Sand	-5141
▁division	-5142
▁Sk	-5143
▁moon	-5144
▁clean	-5145
▁Scotland	-5146
hist	-5147
▁Hor	-5148
▁kun	-5149
AGAC	-5150
File	-5151
▁pan	-5152
▁People	-5153
▁peu	-5154
▁square	-5155
▁wond	-5156
▁writers	-5157
▁legisl	-5158
▁rain	-5159
idden	-5160
rick	-5161
▁becomes	-5162
ources	-5163
▁Trans	-5164
mann	-5165
▁opposite	-5166
unicipal	-5167
▁()	-5168
▁2009	-5169
▁Philipp	-5170
▁Fur	-5171
▁2002	-5172
incess	-5173
▁removed	-5174
▁Little	-5175
▁transport	-5176
▁nä	-5177
▁clim	-5178
▁delic	-5179
▁dread	-5180
=2|	-5181
▁univers	-5182
▁encore	-5183
▁UK	-5184
▁upper	-5185
▁central	-5186
▁cu	-5187
umm	-5188
▁Tour	-5189
▁earlier	-5190
oles	-5191
▁marked	-5192
▁display	-5193
ucky	-5194
▁tall	-5195
opp	-5196
▁pil	-5197
▁policy	-5198
▁hänen	-5199
▁route	-5200
▁release	-5201
▁witness	-5202
Ge	-5203
cons	-5204
▁neck	-5205
▁hit	-5206
ption	-5207
▁standard	-5208
see	-5209
aby	-5210
▁agreed	-5211
73	-5212
▁instance	-5213
▁achie	-5214
▁stret	-5215
▁steps	-5216
law	-5217
▁Bre	-5218
rine	-5219
gov	-5220
▁500	-5221
▁terrible	-5222
▁ended	-5223
▁twelve	-5224
▁wished	-5225
quar	-5226
▁gew	-5227
▁commission	-5228
▁Image	-5229
να	-5230
▁Your	-5231
=#	-5232
▁Portug	-5233
▁kä	-5234
hew	-5235
▁parents	-5236
sen	-5237
▁page	-5238
▁ur	-5239
▁produce	-5240
▁proposed	-5241
fast	-5242
▁wie	-5243
standing	-5244
▁31	-5245
▁bridge	-5246
▁buildings	-5247
▁Far	-5248
etts	-5249
aling	-5250
▁whisper	-5251
▁difficulty	-5252
▁cup	-5253
▁surprise	-5254
▁az	-5255
▁Chap	-5256
▁energy	-5257
icted	-5258
ré	-5259
▁Dis	-5260
▁radio	-5261
▁schol	-5262
▁Earl	-5263
▁income	-5264
chant	-5265
▁End	-5266
▁industry	-5267
▁structure	-5268
▁originally	-5269
▁Navy	-5270
For	-5271
Will	-5272
▁extrem	-5273
▁increase	-5274
ATCC	-5275
icated	-5276
▁Northern	-5277
vely	-5278
▁1999	-5279
▁principal	-5280
Be	-5281
kes	-5282
▁spoken	-5283
ATTG	-5284
▁aid	-5285
▁Women	-5286
▁changes	-5287
▁bread	-5288
ailed	-5289
▁eine	-5290
▁culture	-5291
▁Gall	-5292
▁cell	-5293
▁possession	-5294
▁sought	-5295
▁dont	-5296
emic	-5297
▁spect	-5298
▁beneath	-5299
rand	-5300
umes	-5301
▁Fre	-5302
▁engaged	-5303
▁ideas	-5304
▁forget	-5305
▁pieces	-5306
▁Tw	-5307
eller	-5308
▁Young	-5309
▁Ox	-5310
▁exerc	-5311
▁Early	-5312
▁director	-5313
Ship	-5314
▁Mais	-5315
▁repro	-5316
▁judge	-5317
ube	-5318
rence	-5319
achus	-5320
▁Charl	-5321
▁advent	-5322
▁och	-5323
iliar	-5324
▁episode	-5325
▁settled	-5326
agg	-5327
▁Star	-5328
▁Force	-5329
▁courage	-5330
▁matters	-5331
▁nom	-5332
▁Kent	-5333
▁dropped	-5334
rate	-5335
▁Latin	-5336
▁birds	-5337
▁abandon	-5338
▁Sea	-5339
▁weap	-5340
▁ont	-5341
▁affairs	-5342
▁succeeded	-5343
▁rough	-5344
▁difference	-5345
▁Represent	-5346
oly	-5347
just	-5348
▁Gree	-5349
▁contr	-5350
▁brown	-5351
▁college	-5352
don	-5353
▁Valley	-5354
▁invol	-5355
▁particip	-5356
!--	-5357
vement	-5358
quis	-5359
▁σ	-5360
▁Over	-5361
▁lies	-5362
amer	-5363
▁mountains	-5364
rees	-5365
state	-5366
▁|200	-5367
▁questions	-5368
sq	-5369
▁pale	-5370
uks	-5371
▁holding	-5372
▁professional	-5373
▁require	-5374
▁Sun	-5375
▁bottom	-5376
▁Class	-5377
▁Southern	-5378
-2	-5379
41	-5380
▁("	-5381
▁satisfact	-5382
▁heads	-5383
▁section	-5384
▁Commission	-5385
▁park	-5386
▁understood	-5387
▁companies	-5388
▁review	-5389
▁majority	-5390
▁fier	-5391
▁ST	-5392
rough	-5393
▁greatly	-5394
63	-5395
▁Cle	-5396
ussi	-5397
▁victory	-5398
▁weather	-5399
Com	-5400
▁Post	-5401
oin	-5402
▁Before	-5403
▁Gi	-5404
clock	-5405
▁Boston	-5406
▁suggested	-5407
eck	-5408
5%	-5409
mont	-5410
▁1980	-5411
▁Colonel	-5412
▁shoot	-5413
▁inside	-5414
inder	-5415
▁exped	-5416
inet	-5417
▁Ohio	-5418
▁northern	-5419
organ	-5420
▁pleasant	-5421
ila	-5422
▁2001	-5423
▁please	-5424
▁Joe	-5425
▁Master	-5426
▁6.	-5427
rat	-5428
ATGC	-5429
anda	-5430
▁training	-5431
▁wine	-5432
▁Tim	-5433
▁Another	-5434
which	-5435
▁emer	-5436
▁ignor	-5437
▁drawing	-5438
▁represented	-5439
ls	-5440
info	-5441
▁growing	-5442
People	-5443
ieu	-5444
▁Sar	-5445
▁signed	-5446
▁Johnson	-5447
ocket	-5448
esh	-5449
BA	-5450
rs	-5451
anto	-5452
,’	-5453
esp	-5454
▁Di	-5455
assa	-5456
pping	-5457
ût	-5458
▁Rog	-5459
▁Nov	-5460
▁needed	-5461
▁recon	-5462
▁Si	-5463
▁enem	-5464
▁occupied	-5465
▁Jones	-5466
ev	-5467
▁aircraft	-5468
▁Governor	-5469
ourse	-5470
▁code	-5471
inem	-5472
Ah	-5473
▁calm	-5474
▁Ty	-5475
▁Angeles	-5476
Pl	-5477
▁fortune	-5478
Sp	-5479
▁efforts	-5480
▁comment	-5481
▁complex	-5482
▁gas	-5483
▁reply	-5484
▁prince	-5485
▁Social	-5486
▁Dire	-5487
rose	-5488
▁domin	-5489
▁refused	-5490
▁defin	-5491
▁fourth	-5492
ented	-5493
esch	-5494
▁becoming	-5495
pected	-5496
iform	-5497
▁fruit	-5498
▁Corn	-5499
▁Service	-5500
istics	-5501
hus	-5502
English	-5503
▁Jos	-5504
_)	-5505
ingham	-5506
▁Hug	-5507
▁Gal	-5508
▁ii	-5509
▁kuin	-5510
nam	-5511
comm	-5512
▁talking	-5513
▁solid	-5514
▁employed	-5515
▁sympath	-5516
▁Cur	-5517
▁sports	-5518
▁commercial	-5519
▁perce	-5520
usc	-5521
▁cool	-5522
▁ded	-5523
▁concl	-5524
▁Son	-5525
▁function	-5526
imp	-5527
▁conclud	-5528
▁1998	-5529
▁agree	-5530
04	-5531
▁designed	-5532
▁guess	-5533
ATAC	-5534
/2	-5535
orter	-5536
▁crew	-5537
uct	-5538
▁Dutch	-5539
▁edition	-5540
ortion	-5541
.»	-5542
while	-5543
▁teacher	-5544
▁regarded	-5545
Ex	-5546
iques	-5547
▁Educ	-5548
▁confl	-5549
62	-5550
▁actually	-5551
▁thank	-5552
▁related	-5553
▁conscious	-5554
she	-5555
▁kingdom	-5556
▁operations	-5557
alls	-5558
▁ble	-5559
▁Madame	-5560
sych	-5561
amente	-5562
▁hal	-5563
erk	-5564
▁pron	-5565
▁border	-5566
▁daily	-5567
▁southern	-5568
▁background	-5569
▁interesting	-5570
lar	-5571
▁sevent	-5572
▁suffered	-5573
▁powerful	-5574
uan	-5575
morrow	-5576
ellect	-5577
▁Elizabeth	-5578
igne	-5579
▁tong	-5580
▁runs	-5581
▁pret	-5582
▁Hot	-5583
▁growth	-5584
Con	-5585
▁replaced	-5586
▁physical	-5587
atively	-5588
▁Lu	-5589
▁separate	-5590
ounding	-5591
▁looks	-5592
▁Ce	-5593
▁Loc	-5594
▁lat	-5595
53	-5596
▁ordinary	-5597
arian	-5598
▁guns	-5599
▁obtain	-5600
olt	-5601
▁inhabit	-5602
▁Americans	-5603
▁wear	-5604
93	-5605
▁perfectly	-5606
mir	-5607
roat	-5608
▁som	-5609
inois	-5610
▁guitar	-5611
TGAA	-5612
▁uncle	-5613
▁como	-5614
▁Institute	-5615
zil	-5616
isse	-5617
ironment	-5618
▁stories	-5619
="#	-5620
▁wouldn	-5621
▁Lee	-5622
▁ladies	-5623
urally	-5624
▁catch	-5625
▁blind	-5626
▁AC	-5627
▁rob	-5628
▁notes	-5629
▁cy	-5630
▁shut	-5631
Go	-5632
▁ben	-5633
TTAA	-5634
achusetts	-5635
▁suffer	-5636
▁card	-5637
▁continue	-5638
▁independent	-5639
ooth	-5640
▁follows	-5641
▁multip	-5642
▁Florida	-5643
▁Dor	-5644
▁neighbor	-5645
burgh	-5646
▁2012	-5647
▁Harry	-5648
03	-5649
▁Jun	-5650
df	-5651
▁research	-5652
▁ourselves	-5653
▁fright	-5654
▁investig	-5655
▁δ	-5656
▁cook	-5657
▁Ly	-5658
▁bon	-5659
▁moi	-5660
▁accepted	-5661
▁unknown	-5662
▁Eastern	-5663
▁edge	-5664
unes	-5665
▁legal	-5666
▁gate	-5667
▁SEE	-5668
▁occurred	-5669
rich	-5670
host	-5671
anned	-5672
▁Max	-5673
rend	-5674
mat	-5675
▁prove	-5676
▁uit	-5677
Jan	-5678
iser	-5679
▁65	-5680
TGGC	-5681
ni	-5682
orne	-5683
▁issue	-5684
sten	-5685
ructed	-5686
▁towns	-5687
uge	-5688
▁figures	-5689
▁System	-5690
▁(17	-5691
ographics	-5692
▁Gard	-5693
▁crim	-5694
aming	-5695
bro	-5696
TCAC	-5697
▁Senate	-5698
ault	-5699
Ger	-5700
hal	-5701
They	-5702
▁highly	-5703
▁vig	-5704
vä	-5705
▁2011	-5706
▁includes	-5707
verse	-5708
▁Holy	-5709
▁divided	-5710
▁Pan	-5711
▁column	-5712
IA	-5713
▁withd	-5714
orpor	-5715
utation	-5716
▁fallen	-5717
6)	-5718
Brit	-5719
▁7.	-5720
▁cheer	-5721
▁demon	-5722
▁apart	-5723
▁variety	-5724
ori	-5725
ingers	-5726
▁splend	-5727
▁stars	-5728
▁oil	-5729
▁collection	-5730
▁Water	-5731
▁Pacific	-5732
abb	-5733
>(	-5734
▁5,	-5735
▁altern	-5736
▁promise	-5737
▁involved	-5738
Now	-5739
52	-5740
▁Wind	-5741
▁branch	-5742
▁twice	-5743
oration	-5744
aly	-5745
▁union	-5746
▁TO	-5747
know	-5748
stra	-5749
EM	-5750
▁elections	-5751
1%	-5752
▁été	-5753
▁consc	-5754
▁|2	-5755
chester	-5756
▁moving	-5757
▁Baron	-5758
▁drive	-5759
RA	-5760
▁resem	-5761
▁article	-5762
▁otherwise	-5763
▁dign	-5764
||||	-5765
▁Assembly	-5766
▁instrument	-5767
▁Notes	-5768
▁colour	-5769
▁approach	-5770
▁advanced	-5771
!'	-5772
ums	-5773
issa	-5774
09	-5775
ça	-5776
Aust	-5777
▁Yes	-5778
▁sons	-5779
▁Broad	-5780
▁price	-5781
▁breast	-5782
▁spite	-5783
▁mechan	-5784
▁citizens	-5785
▁Arthur	-5786
▁volume	-5787
▁impl	-5788
awa	-5789
▁systems	-5790
▁familiar	-5791
▁store	-5792
▁Pers	-5793
▁composed	-5794
isation	-5795
ogue	-5796
▁pp	-5797
▁Sunday	-5798
▁expressed	-5799
▁kill	-5800
▁threw	-5801
unicipality	-5802
/201	-5803
▁lying	-5804
▁sword	-5805
inity	-5806
▁symb	-5807
▁pleased	-5808
▁excellent	-5809
▁league	-5810
▁cous	-5811
▁bitter	-5812
bra	-5813
arks	-5814
Then	-5815
otte	-5816
▁lib	-5817
▁minor	-5818
▁referred	-5819
mans	-5820
▁manif	-5821
▁Three	-5822
itter	-5823
▁Bern	-5824
▁provide	-5825
▁cher	-5826
▁accompan	-5827
▁network	-5828
▁shel	-5829
▁Soviet	-5830
▁Mah	-5831
▁chose	-5832
population	-5833
▁stir	-5834
▁arrest	-5835
▁vel	-5836
▁Mic	-5837
lie	-5838
ns	-5839
▁nerv	-5840
ervative	-5841
▁spr	-5842
7)	-5843
wart	-5844
▁nos	-5845
▁false	-5846
▁belief	-5847
▁fighting	-5848
▁yield	-5849
▁cerem	-5850
▁Bas	-5851
▁proud	-5852
▁mij	-5853
▁Gen	-5854
eping	-5855
iti	-5856
▁shape	-5857
▁Four	-5858
1]	-5859
▁worse	-5860
stä	-5861
rison	-5862
▁darkness	-5863
At	-5864
nel	-5865
erted	-5866
▁roof	-5867
zer	-5868
▁exactly	-5869
▁gained	-5870
La	-5871
attered	-5872
▁happiness	-5873
hire	-5874
▁Marg	-5875
▁via	-5876
▁applied	-5877
▁soldier	-5878
_;	-5879
▁thorough	-5880
▁connected	-5881
▁plans	-5882
▁Pop	-5883
▁taught	-5884
▁termin	-5885
vest	-5886
▁Mas	-5887
▁completely	-5888
▁ears	-5889
osc	-5890
ulations	-5891
▁nations	-5892
▁crime	-5893
▁Alexander	-5894
ulf	-5895
▁wonderful	-5896
▁empt	-5897
tainment	-5898
IF	-5899
▁Islands	-5900
▁sche	-5901
▁asc	-5902
▁journal	-5903
oring	-5904
▁couldn	-5905
▁Bus	-5906
Ad	-5907
▁ihm	-5908
aseball	-5909
▁candid	-5910
▁superior	-5911
arest	-5912
▁freedom	-5913
▁Kore	-5914
onse	-5915
▁contains	-5916
oli	-5917
▁forty	-5918
ties	-5919
▁Further	-5920
▁pair	-5921
▁attended	-5922
▁musical	-5923
Qu	-5924
–201	-5925
▁affection	-5926
kl	-5927
▁pens	-5928
▁Route	-5929
▁clothes	-5930
wa	-5931
▁Massachusetts	-5932
osing	-5933
▁intellect	-5934
asy	-5935
▁limited	-5936
▁Stand	-5937
ennis	-5938
▁western	-5939
pin	-5940
▁units	-5941
▁destroyed	-5942
oa	-5943
iga	-5944
JPG	-5945
atus	-5946
▁vor	-5947
Man	-5948
▁vu	-5949
▁staff	-5950
▁flight	-5951
▁carefully	-5952
▁fields	-5953
▁platform	-5954
aved	-5955
iest	-5956
▁sorrow	-5957
total	-5958
ntario	-5959
▁pictures	-5960
▁vote	-5961
▁wise	-5962
▁interview	-5963
▁rang	-5964
▁task	-5965
ishes	-5966
ctic	-5967
▁lean	-5968
ede	-5969
▁1970	-5970
▁supply	-5971
▁previously	-5972
▁"'	-5973
pa	-5974
ischen	-5975
▁Rose	-5976
▁sake	-5977
▁streets	-5978
8)	-5979
▁cruel	-5980
▁extent	-5981
▁alto	-5982
▁grat	-5983
▁arrang	-5984
▁servant	-5985
▁Oper	-5986
▁ende	-5987
▁thrown	-5988
▁Gar	-5989
▁province	-5990
gs	-5991
▁ult	-5992
▁rising	-5993
rane	-5994
▁constitution	-5995
|[	-5996
▁artists	-5997
▁Matt	-5998
TAAG	-5999
▁cam	-6000
▁recomm	-6001
▁egg	-6002
▁brand	-6003
▁Hy	-6004
▁auch	-6005
92	-6006
▁Fam	-6007
kk	-6008
onic	-6009
▁beat	-6010
▁thin	-6011
▁eventually	-6012
▁accident	-6013
ulous	-6014
▁trop	-6015
▁honest	-6016
▁machine	-6017
▁waters	-6018
▁quality	-6019
TTGC	-6020
etic	-6021
▁aber	-6022
ancial	-6023
ormal	-6024
ients	-6025
▁preced	-6026
▁discover	-6027
▁lä	-6028
umni	-6029
▁Railway	-6030
▁lose	-6031
▁effects	-6032
▁Tri	-6033
▁Station	-6034
enny	-6035
▁Sus	-6036
unting	-6037
▁plants	-6038
▁wounded	-6039
▁join	-6040
▁earnest	-6041
▁languages	-6042
▁Philip	-6043
▁----	-6044
▁priest	-6045
0%	-6046
▁brill	-6047
▁elevation	-6048
▁Middle	-6049
▁fault	-6050
IM	-6051
ims	-6052
▁wa	-6053
▁Pen	-6054
GGG	-6055
▁adopted	-6056
▁episodes	-6057
▁elements	-6058
▁dyn	-6059
har	-6060
cles	-6061
ali	-6062
=3	-6063
▁lic	-6064
▁location	-6065
▁promised	-6066
="3	-6067
phen	-6068
▁fate	-6069
▁maintain	-6070
▁hills	-6071
anning	-6072
▁council	-6073
▁watched	-6074
onia	-6075
urer	-6076
▁Dar	-6077
▁Ros	-6078
math	-6079
▁stro	-6080
▁helped	-6081
▁distant	-6082
cs	-6083
▁Card	-6084
▁Aut	-6085
▁pa	-6086
ête	-6087
rows	-6088
ilton	-6089
asse	-6090
',	-6091
▁1996	-6092
▁Bul	-6093
▁chem	-6094
▁Hand	-6095
▁Ca	-6096
riff	-6097
▁Both	-6098
▁burst	-6099
▁objects	-6100
irit	-6101
▁singer	-6102
▁Revolution	-6103
▁arran	-6104
CE	-6105
▁Science	-6106
▁extended	-6107
Per	-6108
▁loud	-6109
▁XV	-6110
▁foc	-6111
otes	-6112
▁nach	-6113
:18	-6114
aron	-6115
▁occas	-6116
▁depend	-6117
▁curious	-6118
Or	-6119
▁seek	-6120
▁Committee	-6121
▁184	-6122
▁job	-6123
▁bare	-6124
▁pick	-6125
▁taste	-6126
kon	-6127
▁individuals	-6128
▁2013	-6129
▁Never	-6130
▁associated	-6131
▁isn	-6132
▁depth	-6133
▁decision	-6134
▁Minn	-6135
▁dollars	-6136
▁manager	-6137
▁smaller	-6138
▁bold	-6139
▁dan	-6140
▁32	-6141
wan	-6142
uing	-6143
▁actor	-6144
▁disease	-6145
▁confidence	-6146
orious	-6147
▁και	-6148
71	-6149
fle	-6150
stein	-6151
urban	-6152
▁Bow	-6153
▁Wall	-6154
▁entrance	-6155
▁35	-6156
▁Earth	-6157
aints	-6158
▁Song	-6159
▁occupation	-6160
ushing	-6161
▁reign	-6162
British	-6163
▁Mot	-6164
▁45	-6165
▁Stan	-6166
▁unf	-6167
▁Illinois	-6168
ansa	-6169
endant	-6170
αν	-6171
▁Arm	-6172
▁rub	-6173
▁inte	-6174
▁lake	-6175
▁principle	-6176
▁veh	-6177
▁lands	-6178
▁bran	-6179
omer	-6180
▁ca	-6181
▁explained	-6182
▁faint	-6183
▁element	-6184
▁Championships	-6185
▁Civil	-6186
alo	-6187
ères	-6188
ultural	-6189
▁aussi	-6190
On	-6191
▁flo	-6192
▁jam	-6193
▁uses	-6194
▁reco	-6195
IP	-6196
nic	-6197
▁smiled	-6198
List	-6199
olis	-6200
▁flat	-6201
enger	-6202
Te	-6203
▁label	-6204
▁hes	-6205
▁Fair	-6206
ierre	-6207
▁papers	-6208
lets	-6209
▁treatment	-6210
▁Only	-6211
▁della	-6212
iva	-6213
▁Att	-6214
adelph	-6215
▁bodies	-6216
▁Night	-6217
▁Doctor	-6218
▁proof	-6219
▁carrying	-6220
):	-6221
▁Lab	-6222
▁pointed	-6223
▁DE	-6224
▁Bes	-6225
▁invent	-6226
zo	-6227
▁8.	-6228
▁Georgia	-6229
▁triumph	-6230
▁principles	-6231
▁murm	-6232
imm	-6233
sub	-6234
TCTG	-6235
▁remaining	-6236
▁Chief	-6237
▁gi	-6238
▁fran	-6239
▁tail	-6240
▁ils	-6241
▁feelings	-6242
▁Cy	-6243
umble	-6244
▁apparently	-6245
▁perman	-6246
usal	-6247
▁significant	-6248
▁persu	-6249
▁recent	-6250
▁Team	-6251
▁sig	-6252
▁secure	-6253
vous	-6254
▁Oxford	-6255
cd	-6256
▁supported	-6257
▁debut	-6258
▁hier	-6259
ucle	-6260
onto	-6261
GGC	-6262
then	-6263
▁Hard	-6264
▁exceed	-6265
▁cart	-6266
llä	-6267
coln	-6268
▁Sav	-6269
▁Francisco	-6270
▁innoc	-6271
anguage	-6272
▁gle	-6273
▁oll	-6274
▁viel	-6275
▁Like	-6276
▁noted	-6277
▁Representatives	-6278
▁Big	-6279
▁inhabitants	-6280
▁vic	-6281
▁facts	-6282
▁Education	-6283
acks	-6284
▁trial	-6285
asts	-6286
▁Dev	-6287
▁marry	-6288
▁Jackson	-6289
▁shook	-6290
auc	-6291
▁aston	-6292
▁Games	-6293
▁interrupt	-6294
▁vessel	-6295
anks	-6296
▁unit	-6297
ogen	-6298
ervation	-6299
aria	-6300
rec	-6301
▁ain	-6302
▁über	-6303
▁rat	-6304
▁judgment	-6305
Oct	-6306
▁Blue	-6307
orted	-6308
itated	-6309
▁’	-6310
▁grown	-6311
▁showing	-6312
▁Creek	-6313
▁Mid	-6314
▁subs	-6315
▁protection	-6316
Je	-6317
▁Bank	-6318
▁spiritual	-6319
long	-6320
▁2014	-6321
▁relief	-6322
eli	-6323
▁brain	-6324
▁sorry	-6325
▁gest	-6326
▁broadcast	-6327
▁sole	-6328
ieux	-6329
▁Whe	-6330
▁hä	-6331
▁Had	-6332
▁sang	-6333
▁operation	-6334
▁endeav	-6335
chief	-6336
▁fleet	-6337
present	-6338
500	-6339
▁shadow	-6340
fortun	-6341
81	-6342
AAAG	-6343
▁Enter	-6344
▁stands	-6345
▁Among	-6346
sm	-6347
▁conflict	-6348
▁Win	-6349
▁besides	-6350
▁É	-6351
TATC	-6352
▁Michigan	-6353
▁Ja	-6354
▁cow	-6355
▁shoulder	-6356
kt	-6357
▁2015	-6358
▁dwell	-6359
▁hospital	-6360
▁blow	-6361
▁leurs	-6362
iverse	-6363
_{	-6364
adelphia	-6365
ighter	-6366
▁organization	-6367
heid	-6368
▁retired	-6369
▁tea	-6370
▁counter	-6371
certain	-6372
▁safety	-6373
▁Ontario	-6374
ifying	-6375
▁acquired	-6376
▁Secretary	-6377
ulate	-6378
▁1997	-6379
▁yards	-6380
OC	-6381
▁Conf	-6382
–199	-6383
▁additional	-6384
earch	-6385
▁golden	-6386
▁sacrif	-6387
▁rapidly	-6388
athered	-6389
essa	-6390
▁Add	-6391
▁Andrew	-6392
aka	-6393
icine	-6394
▁coat	-6395
▁suspic	-6396
theless	-6397
▁tele	-6398
▁companion	-6399
urance	-6400
!...	-6401
▁anxious	-6402
▁£	-6403
▁conven	-6404
asta	-6405
▁AG	-6406
ecause	-6407
▁hearts	-6408
▁McC	-6409
▁admitted	-6410
▁document	-6411
▁disturb	-6412
▁rejo	-6413
▁owner	-6414
ouri	-6415
▁Wild	-6416
2-	-6417
team	-6418
▁reference	-6419
▁territory	-6420
amen	-6421
▁glance	-6422
1/	-6423
▁aqu	-6424
▁glory	-6425
▁poetry	-6426
▁apr	-6427
▁Death	-6428
▁governor	-6429
▁useful	-6430
▁Dec	-6431
▁frag	-6432
▁estim	-6433
▁finding	-6434
▁subjects	-6435
So	-6436
▁worthy	-6437
▁problem	-6438
▁fly	-6439
ysis	-6440
▁Williams	-6441
value	-6442
Let	-6443
▁Again	-6444
▁buried	-6445
car	-6446
AY	-6447
En	-6448
map	-6449
")	-6450
▁Castle	-6451
rog	-6452
uh	-6453
▁sous	-6454
▁woods	-6455
▁enemies	-6456
▁producer	-6457
usted	-6458
▁connection	-6459
eding	-6460
▁faces	-6461
▁description	-6462
▁ric	-6463
▁constituency	-6464
▁6,	-6465
ück	-6466
▁pride	-6467
▁actress	-6468
UL	-6469
▁Rem	-6470
▁propos	-6471
▁keeping	-6472
▁willing	-6473
mm	-6474
▁mont	-6475
▁neighbour	-6476
▁remembered	-6477
South	-6478
▁Belg	-6479
▁recognized	-6480
▁τη	-6481
inners	-6482
▁couple	-6483
utely	-6484
▁zich	-6485
▁correct	-6486
▁historical	-6487
▁liv	-6488
▁dance	-6489
▁possibly	-6490
BS	-6491
asty	-6492
Aug	-6493
El	-6494
Rep	-6495
olo	-6496
▁Though	-6497
TAAC	-6498
▁patient	-6499
▁183	-6500
▁aware	-6501
▁interests	-6502
AND	-6503
▁score	-6504
▁distinguished	-6505
▁soil	-6506
*,	-6507
▁solem	-6508
▁reform	-6509
▁Township	-6510
▁peut	-6511
▁Short	-6512
ardon	-6513
08	-6514
▁fancy	-6515
▁copy	-6516
▁Asia	-6517
▁drag	-6518
▁races	-6519
▁unable	-6520
▁Arts	-6521
OW	-6522
▁monarch	-6523
bell	-6524
▁altogether	-6525
heast	-6526
▁shell	-6527
bgcolor	-6528
▁obliged	-6529
▁noch	-6530
▁rear	-6531
▁tä	-6532
▁Ha	-6533
pass	-6534
orous	-6535
omy	-6536
▁liberty	-6537
▁Det	-6538
▁Bridge	-6539
▁closely	-6540
esota	-6541
▁Pap	-6542
▁skin	-6543
riv	-6544
▁motor	-6545
▁remarkable	-6546
▁eth	-6547
▁Pass	-6548
3%	-6549
▁aside	-6550
▁Library	-6551
▁rules	-6552
▁Field	-6553
▁student	-6554
▁Radio	-6555
▁teams	-6556
ching	-6557
▁gather	-6558
▁CD	-6559
oj	-6560
▁tur	-6561
▁obst	-6562
▁sz	-6563
acon	-6564
▁Federal	-6565
aya	-6566
▁Constitution	-6567
▁Christmas	-6568
▁sed	-6569
▁calling	-6570
▁albums	-6571
nat	-6572
▁Os	-6573
▁Jews	-6574
▁Child	-6575
-3	-6576
cing	-6577
▁metal	-6578
▁joka	-6579
▁salt	-6580
▁Maria	-6581
▁2016	-6582
▁duties	-6583
▁(202	-6584
bu	-6585
alous	-6586
▁Home	-6587
▁mighty	-6588
mag	-6589
wick	-6590
press	-6591
▁1960	-6592
wen	-6593
▁solemn	-6594
National	-6595
▁für	-6596
ungen	-6597
olitan	-6598
▁gain	-6599
▁chosen	-6600
▁capable	-6601
▁classes	-6602
West	-6603
▁diam	-6604
▁electric	-6605
esta	-6606
ados	-6607
gency	-6608
▁vert	-6609
▁forgotten	-6610
▁clubs	-6611
▁coff	-6612
▁economic	-6613
▁Lo	-6614
▁knowing	-6615
▁Jeff	-6616
▁dust	-6617
▁Bishop	-6618
▁arrival	-6619
uther	-6620
▁dece	-6621
▁Dun	-6622
▁Coll	-6623
quarters	-6624
▁Ret	-6625
▁interp	-6626
ilst	-6627
onds	-6628
▁Bon	-6629
▁slave	-6630
▁windows	-6631
bel	-6632
▁Pope	-6633
obile	-6634
▁mile	-6635
▁Hung	-6636
▁risk	-6637
▁domestic	-6638
▁fought	-6639
▁kaik	-6640
▁acknow	-6641
▁Victoria	-6642
▁Ray	-6643
▁accompanied	-6644
▁Div	-6645
▁temps	-6646
▁Techn	-6647
ropri	-6648
▁legs	-6649
▁attrib	-6650
▁Kn	-6651
▁aspect	-6652
▁pocket	-6653
▁reduced	-6654
▁pressure	-6655
uri	-6656
▁Rod	-6657
▁proc	-6658
▁enthus	-6659
▁fingers	-6660
▁Each	-6661
icians	-6662
▁sag	-6663
hend	-6664
▁driven	-6665
▁labour	-6666
▁goals	-6667
▁magazine	-6668
hin	-6669
▁Vill	-6670
bi	-6671
▁ash	-6672
poration	-6673
4%	-6674
▁pää	-6675
Am	-6676
amin	-6677
▁tongue	-6678
▁VI	-6679
▁bij	-6680
▁bought	-6681
▁Care	-6682
▁actual	-6683
uj	-6684
▁Jewish	-6685
▁naturally	-6686
Ne	-6687
▁product	-6688
▁gray	-6689
▁UN	-6690
eren	-6691
ión	-6692
post	-6693
▁lit	-6694
father	-6695
anch	-6696
▁Lew	-6697
▁7,	-6698
▁saved	-6699
umin	-6700
▁ends	-6701
illä	-6702
▁cel	-6703
▁crossed	-6704
▁Columbia	-6705
lers	-6706
▁rocks	-6707
▁terror	-6708
▁issued	-6709
._,	-6710
▁Form	-6711
▁intention	-6712
▁Professor	-6713
▁Theatre	-6714
▁encoura	-6715
▁owned	-6716
▁Light	-6717
INE	-6718
dis	-6719
▁reflect	-6720
▁Bell	-6721
▁Office	-6722
▁|201	-6723
oto	-6724
sort	-6725
ombre	-6726
▁Wilson	-6727
▁gathered	-6728
OD	-6729
iday	-6730
isode	-6731
▁mostly	-6732
▁brave	-6733
reement	-6734
▁desired	-6735
ksi	-6736
pton	-6737
▁|199	-6738
▁Bal	-6739
▁buy	-6740
▁deck	-6741
▁servants	-6742
itors	-6743
èrent	-6744
▁delay	-6745
▁cultiv	-6746
▁interested	-6747
dig	-6748
ref	-6749
pes	-6750
▁absence	-6751
▁consequence	-6752
des	-6753
▁possessed	-6754
TTAC	-6755
▁ride	-6756
▁dangerous	-6757
▁holy	-6758
▁breakfast	-6759
TS	-6760
▁establishments	-6761
▁aj	-6762
heim	-6763
▁acts	-6764
▁pattern	-6765
rav	-6766
oked	-6767
ession	-6768
▁être	-6769
▁Scottish	-6770
▁seized	-6771
▁studio	-6772
▁causes	-6773
────	-6774
hemat	-6775
▁alive	-6776
unched	-6777
▁quietly	-6778
▁reasons	-6779
erick	-6780
▁media	-6781
ournament	-6782
▁sacred	-6783
▁dial	-6784
acious	-6785
emp	-6786
▁demanded	-6787
never	-6788
▁afford	-6789
▁gentlemen	-6790
▁Mir	-6791
▁prompt	-6792
▁creature	-6793
appy	-6794
rell	-6795
after	-6796
spe	-6797
▁granted	-6798
▁visited	-6799
▁lev	-6800
ffic	-6801
▁"_	-6802
▁Come	-6803
phy	-6804
–1	-6805
▁divine	-6806
▁Coast	-6807
▁relationship	-6808
:00	-6809
▁vir	-6810
▁households	-6811
stance	-6812
▁settlement	-6813
leep	-6814
▁struggle	-6815
▁sell	-6816
▁spirits	-6817
▁Brazil	-6818
▁defeated	-6819
▁36	-6820
uting	-6821
▁1992	-6822
▁remarked	-6823
|2	-6824
gest	-6825
▁1994	-6826
▁ahead	-6827
▁forb	-6828
urches	-6829
▁goods	-6830
▁studies	-6831
▁telling	-6832
▁temple	-6833
▁ihr	-6834
▁largely	-6835
8%	-6836
▁contrary	-6837
▁seats	-6838
▁claimed	-6839
▁Alf	-6840
▁0000	-6841
▁clearly	-6842
▁formerly	-6843
using	-6844
▁Board	-6845
sa	-6846
▁ο	-6847
count	-6848
▁needs	-6849
▁Person	-6850
oped	-6851
▁Hän	-6852
▁tells	-6853
▁equally	-6854
▁constant	-6855
▁gods	-6856
inson	-6857
seen	-6858
UN	-6859
▁scar	-6860
▁compared	-6861
▁brothers	-6862
eries	-6863
▁avoid	-6864
▁shoulders	-6865
▁stranger	-6866
oche	-6867
uper	-6868
▁tap	-6869
▁Sa	-6870
iable	-6871
▁Circ	-6872
▁check	-6873
▁300	-6874
encies	-6875
________	-6876
▁basketball	-6877
uable	-6878
▁fart	-6879
gel	-6880
▁centuries	-6881
▁calls	-6882
▁treated	-6883
▁frame	-6884
|202	-6885
▁Tenn	-6886
▁Fa	-6887
▁Country	-6888
▁ox	-6889
▁Inf	-6890
TAGC	-6891
▁Lincoln	-6892
▁primary	-6893
▁wo	-6894
▁eastern	-6895
occ	-6896
▁Later	-6897
▁palace	-6898
itement	-6899
▁Still	-6900
▁Republican	-6901
sl	-6902
▁jun	-6903
▁castle	-6904
▁pounds	-6905
ika	-6906
▁traditional	-6907
iot	-6908
▁About	-6909
▁flower	-6910
aska	-6911
▁concerning	-6912
eman	-6913
hers	-6914
ieder	-6915
▁Anne	-6916
▁Da	-6917
▁message	-6918
▁Doug	-6919
▁annual	-6920
▁estate	-6921
five	-6922
▁psych	-6923
▁block	-6924
▁Ba	-6925
▁Tay	-6926
▁Str	-6927
ses	-6928
▁choice	-6929
▁managed	-6930
AAGC	-6931
2%	-6932
▁discip	-6933
▁sovere	-6934
eling	-6935
▁dare	-6936
▁Independ	-6937
ár	-6938
GCC	-6939
duce	-6940
▁Nature	-6941
▁milk	-6942
▁News	-6943
uen	-6944
force	-6945
▁lett	-6946
▁tired	-6947
▁undert	-6948
▁slightly	-6949
▁lod	-6950
len	-6951
▁Non	-6952
▁gradually	-6953
▁assem	-6954
▁1995	-6955
▁request	-6956
▁Marsh	-6957
▁Lar	-6958
mouth	-6959
▁Orig	-6960
▁editor	-6961
▁sentiment	-6962
▁hyp	-6963
▁zoo	-6964
▁Wat	-6965
▁uniform	-6966
7%	-6967
ει	-6968
lies	-6969
▁surprised	-6970
▁Hal	-6971
▁Common	-6972
Hist	-6973
▁impression	-6974
iste	-6975
▁liqu	-6976
OV	-6977
▁phr	-6978
rical	-6979
▁articles	-6980
▁Supp	-6981
▁caval	-6982
▁Han	-6983
AF	-6984
▁wasn	-6985
▁Brook	-6986
▁walking	-6987
▁hide	-6988
▁9.	-6989
▁Mill	-6990
▁ceased	-6991
ATAT	-6992
▁begun	-6993
ommes	-6994
▁hurt	-6995
▁hearing	-6996
▁relation	-6997
hedral	-6998
▁necessity	-6999
iens	-7000
▁Berlin	-7001
▁younger	-7002
▁Corps	-7003
▁plate	-7004
▁views	-7005
▁han	-7006
▁Fig	-7007
▁opposition	-7008
▁kit	-7009
▁strike	-7010
▁vac	-7011
▁smoke	-7012
▁carriage	-7013
▁worship	-7014
▁noticed	-7015
/8/8/8/	-7016
?--	-7017
▁bent	-7018
▁Ram	-7019
▁bore	-7020
wed	-7021
▁rig	-7022
▁Heaven	-7023
▁featured	-7024
ronic	-7025
▁suffering	-7026
▁intelligence	-7027
taient	-7028
▁sport	-7029
▁Point	-7030
upright	-7031
▁management	-7032
iece	-7033
▁advice	-7034
ção	-7035
music	-7036
▁Game	-7037
▁islands	-7038
oro	-7039
▁60	-7040
▁wants	-7041
aging	-7042
9%	-7043
▁learning	-7044
▁reven	-7045
▁capacity	-7046
who	-7047
▁branches	-7048
▁literary	-7049
▁Cop	-7050
▁Test	-7051
German	-7052
▁selected	-7053
▁Minnesota	-7054
point	-7055
▁haar	-7056
rer	-7057
uce	-7058
▁Tro	-7059
ashed	-7060
▁Perhaps	-7061
▁Way	-7062
▁rent	-7063
▁expand	-7064
▁watching	-7065
▁dos	-7066
▁wet	-7067
hetic	-7068
▁instinct	-7069
2/	-7070
▁listen	-7071
▁detect	-7072
eared	-7073
▁empty	-7074
▁university	-7075
▁dés	-7076
ellen	-7077
▁evidently	-7078
nde	-7079
▁Top	-7080
AB	-7081
▁là	-7082
iture	-7083
▁vision	-7084
▁library	-7085
▁statement	-7086
ivity	-7087
▁narr	-7088
▁10,	-7089
6%	-7090
▁containing	-7091
61	-7092
:200	-7093
▁talked	-7094
▁Jane	-7095
▁oh	-7096
ulpt	-7097
▁rac	-7098
illery	-7099
cia	-7100
inking	-7101
▁noise	-7102
▁Sup	-7103
▁federal	-7104
▁Province	-7105
▁CC	-7106
TACC	-7107
▁sequ	-7108
rolled	-7109
▁basis	-7110
▁tied	-7111
▁agric	-7112
▁affair	-7113
▁Television	-7114
▁happen	-7115
▁Somet	-7116
issance	-7117
▁suit	-7118
Austral	-7119
▁Jr	-7120
kä	-7121
plic	-7122
estab	-7123
▁contained	-7124
▁today	-7125
▁reject	-7126
▁concept	-7127
▁records	-7128
▁commonly	-7129
▁Jacob	-7130
▁activity	-7131
eral	-7132
▁Hay	-7133
▁wand	-7134
real	-7135
arted	-7136
▁8,	-7137
agu	-7138
label	-7139
▁cousin	-7140
jud	-7141
▁pages	-7142
rage	-7143
▁Avenue	-7144
▁hockey	-7145
▁waited	-7146
▁touched	-7147
▁nem	-7148
perial	-7149
▁swift	-7150
▁33	-7151
kind	-7152
ainted	-7153
▁fu	-7154
▁contrast	-7155
riz	-7156
▁contact	-7157
▁satisfied	-7158
▁Philadelphia	-7159
▁setting	-7160
▁Elle	-7161
ugby	-7162
ERS	-7163
▁practical	-7164
ILL	-7165
▁busy	-7166
▁disappoint	-7167
▁Tal	-7168
▁rien	-7169
▁Walter	-7170
▁prayer	-7171
▁Kong	-7172
ounce	-7173
▁hotel	-7174
▁|3	-7175
▁slaves	-7176
▁understanding	-7177
▁falling	-7178
▁administration	-7179
blank	-7180
elijk	-7181
▁throne	-7182
yan	-7183
SS	-7184
▁mixed	-7185
▁Project	-7186
▁ax	-7187
▁flood	-7188
▁TC	-7189
▁explan	-7190
▁sein	-7191
▁median	-7192
▁prisoners	-7193
ος	-7194
▁Bru	-7195
▁joint	-7196
▁Missouri	-7197
udes	-7198
▁tum	-7199
▁pill	-7200
herlands	-7201
ds	-7202
itled	-7203
▁surrounded	-7204
▁newspaper	-7205
▁sym	-7206
ograp	-7207
▁chamber	-7208
ische	-7209
▁durch	-7210
▁toute	-7211
▁concerned	-7212
Nov	-7213
AACC	-7214
▁Nic	-7215
▁2017	-7216
▁voyage	-7217
chi	-7218
▁Head	-7219
▁lang	-7220
▁teeth	-7221
/8/8/8/8/	-7222
▁Bible	-7223
▁methods	-7224
imo	-7225
▁starting	-7226
▁purposes	-7227
▁returning	-7228
abe	-7229
▁BC	-7230
down	-7231
aph	-7232
▁Budd	-7233
▁signal	-7234
▁incident	-7235
UT	-7236
ampion	-7237
▁fifteen	-7238
ilms	-7239
white	-7240
--_	-7241
▁cra	-7242
enden	-7243
▁consists	-7244
▁Ott	-7245
▁conver	-7246
His	-7247
from	-7248
▁2018	-7249
▁channel	-7250
▁Anton	-7251
▁Polit	-7252
boy	-7253
▁opt	-7254
▁Justice	-7255
▁Once	-7256
▁politics	-7257
gram	-7258
▁Those	-7259
▁status	-7260
▁wore	-7261
▁rooms	-7262
ctures	-7263
General	-7264
].	-7265
▁partly	-7266
▁commander	-7267
amps	-7268
▁consp	-7269
▁drop	-7270
▁10.	-7271
aver	-7272
▁response	-7273
din	-7274
North	-7275
▁vessels	-7276
▁consult	-7277
▁pity	-7278
▁contro	-7279
▁proceeded	-7280
upp	-7281
▁severe	-7282
▁│	-7283
▁od	-7284
▁Through	-7285
▁arranged	-7286
▁exercise	-7287
▁products	-7288
quer	-7289
unte	-7290
▁minä	-7291
▁explain	-7292
mosp	-7293
athan	-7294
▁shop	-7295
▁Main	-7296
ilding	-7297
▁philosophy	-7298
ulla	-7299
▁mig	-7300
▁1993	-7301
▁nice	-7302
font	-7303
▁400	-7304
jours	-7305
▁putting	-7306
dess	-7307
▁huge	-7308
ellä	-7309
▁angry	-7310
▁Clark	-7311
non	-7312
▁percent	-7313
▁Hind	-7314
▁dram	-7315
▁goal	-7316
▁rout	-7317
▁ability	-7318
▁security	-7319
isa	-7320
izes	-7321
▁Times	-7322
▁assistance	-7323
▁grande	-7324
▁mental	-7325
▁unh	-7326
Fl	-7327
▁Gre	-7328
▁nin	-7329
▁friendship	-7330
agne	-7331
▁parish	-7332
▁singing	-7333
▁bringing	-7334
anna	-7335
antes	-7336
itzer	-7337
▁tent	-7338
stead	-7339
ipe	-7340
▁bearing	-7341
▁cricket	-7342
▁TH	-7343
▁ber	-7344
▁verd	-7345
ordinary	-7346
▁Leon	-7347
▁proportion	-7348
▁details	-7349
rou	-7350
▁alumni	-7351
▁precip	-7352
▁Jon	-7353
▁scientific	-7354
▁acquaint	-7355
▁experiment	-7356
adows	-7357
▁rode	-7358
▁Stephen	-7359
roit	-7360
▁Follow	-7361
Dem	-7362
▁00000000	-7363
greg	-7364
át	-7365
vet	-7366
▁emph	-7367
▁worst	-7368
▁gén	-7369
▁*19	-7370
▁bell	-7371
▁coal	-7372
Mr	-7373
edu	-7374
▁Fox	-7375
ού	-7376
▁concent	-7377
oria	-7378
▁regions	-7379
▁captured	-7380
▁Barb	-7381
▁Daniel	-7382
iplom	-7383
▁studied	-7384
▁gay	-7385
▁sam	-7386
▁Majesty	-7387
▁convent	-7388
▁attached	-7389
ules	-7390
UM	-7391
▁Kenn	-7392
5/	-7393
▁Imp	-7394
▁του	-7395
este	-7396
oster	-7397
engers	-7398
▁screen	-7399
acter	-7400
▁burning	-7401
reck	-7402
▁pré	-7403
▁stick	-7404
▁stones	-7405
▁teach	-7406
▁moments	-7407
▁Festival	-7408
▁Econom	-7409
bur	-7410
oqu	-7411
Good	-7412
▁34	-7413
▁dar	-7414
91	-7415
▁approxim	-7416
▁financial	-7417
inction	-7418
▁consideration	-7419
▁infin	-7420
▁strict	-7421
0)	-7422
▁pel	-7423
eta	-7424
51	-7425
▁ham	-7426
elly	-7427
▁anti	-7428
▁Conference	-7429
▁revolution	-7430
▁claims	-7431
▁Did	-7432
achel	-7433
▁lifted	-7434
▁Race	-7435
▁cha	-7436
▁Mother	-7437
▁circle	-7438
▁attempted	-7439
▁shame	-7440
gro	-7441
▁AL	-7442
amming	-7443
▁females	-7444
▁Brother	-7445
▁Back	-7446
▁plays	-7447
▁Margaret	-7448
▁unw	-7449
▁Greece	-7450
▁medical	-7451
oren	-7452
▁Cab	-7453
acles	-7454
based	-7455
▁tant	-7456
▁affected	-7457
▁responsible	-7458
TAGG	-7459
▁Also	-7460
▁dozen	-7461
▁bord	-7462
▁calcul	-7463
four	-7464
▁draft	-7465
mal	-7466
AATG	-7467
ieties	-7468
asant	-7469
▁Show	-7470
▁truly	-7471
▁quelque	-7472
▁acad	-7473
)</	-7474
▁unus	-7475
▁armed	-7476
▁prior	-7477
▁ped	-7478
▁satisfaction	-7479
.=	-7480
▁Hart	-7481
▁liked	-7482
ropolitan	-7483
▁visible	-7484
▁wing	-7485
▁mutta	-7486
▁Golden	-7487
▁begins	-7488
▁Rh	-7489
▁Tu	-7490
▁expedition	-7491
atri	-7492
▁reader	-7493
▁surely	-7494
▁Brig	-7495
▁donc	-7496
▁revealed	-7497
omp	-7498
etch	-7499
adron	-7500
▁procl	-7501
▁toutes	-7502
▁sympathy	-7503
▁Stadium	-7504
▁specific	-7505
Come	-7506
▁generation	-7507
▁Dam	-7508
▁midst	-7509
▁queen	-7510
▁create	-7511
▁hurried	-7512
William	-7513
▁infer	-7514
▁audience	-7515
▁immediate	-7516
▁desper	-7517
▁Spirit	-7518
▁Av	-7519
When	-7520
▁consent	-7521
▁laughing	-7522
orado	-7523
▁meat	-7524
▁delivered	-7525
▁informed	-7526
.;	-7527
box	-7528
▁nose	-7529
▁climate	-7530
▁reality	-7531
▁push	-7532
▁doesn	-7533
▁miser	-7534
▁extreme	-7535
▁dir	-7536
▁cord	-7537
▁amongst	-7538
▁farther	-7539
érie	-7540
▁genius	-7541
▁autom	-7542
▁steel	-7543
ordinates	-7544
hu	-7545
uese	-7546
▁este	-7547
vy	-7548
▁è	-7549
terday	-7550
▁encoun	-7551
▁flesh	-7552
insi	-7553
=,	-7554
▁steam	-7555
▁bag	-7556
▁maar	-7557
▁dressed	-7558
========	-7559
▁Atlantic	-7560
▁doors	-7561
▁Mu	-7562
arse	-7563
▁hopes	-7564
▁AN	-7565
ARD	-7566
▁minds	-7567
▁credit	-7568
sex	-7569
fa	-7570
▁Vo	-7571
▁ki	-7572
▁whispered	-7573
▁pouv	-7574
eeee	-7575
▁hence	-7576
See	-7577
▁acting	-7578
▁arts	-7579
▁handsome	-7580
▁sup	-7581
▁flying	-7582
▁thousands	-7583
otton	-7584
▁bass	-7585
ographic	-7586
▁Centre	-7587
▁presently	-7588
▁Turn	-7589
▁tort	-7590
▁extremely	-7591
ti	-7592
▁Power	-7593
▁descent	-7594
▁pulled	-7595
utter	-7596
▁fill	-7597
unning	-7598
▁veget	-7599
▁butter	-7600
rum	-7601
tha	-7602
▁syn	-7603
▁imagination	-7604
writer	-7605
▁guide	-7606
▁settle	-7607
▁toujours	-7608
enz	-7609
▁Fire	-7610
▁corps	-7611
▁dur	-7612
OP	-7613
▁Temple	-7614
▁Anth	-7615
▁fold	-7616
▁virtue	-7617
Christ	-7618
▁combined	-7619
▁accord	-7620
▁Ent	-7621
▁Down	-7622
εν	-7623
Par	-7624
▁Op	-7625
▁problems	-7626
-4	-7627
▁9,	-7628
▁appreci	-7629
▁singles	-7630
▁|4	-7631
▁contain	-7632
ulty	-7633
obe	-7634
▁Desp	-7635
▁patri	-7636
▁argument	-7637
▁drove	-7638
▁failure	-7639
7/	-7640
:2	-7641
▁Ross	-7642
usive	-7643
iah	-7644
▁violence	-7645
ffff	-7646
enses	-7647
▁quand	-7648
▁og	-7649
▁Upon	-7650
mill	-7651
itate	-7652
active	-7653
▁conducted	-7654
▁(1	-7655
▁Girl	-7656
▁hatte	-7657
▁prospect	-7658
▁Cambridge	-7659
zone	-7660
▁homme	-7661
▁Turk	-7662
NA	-7663
▁Som	-7664
▁worn	-7665
▁Guard	-7666
izations	-7667
ayer	-7668
▁issues	-7669
▁jus	-7670
▁tempt	-7671
▁Ken	-7672
▁districts	-7673
uty	-7674
▁tower	-7675
▁Albert	-7676
▁sources	-7677
▁tod	-7678
▁faut	-7679
irmed	-7680
▁condem	-7681
▁excitement	-7682
▁Ur	-7683
osta	-7684
ribed	-7685
-18	-7686
▁Sud	-7687
rative	-7688
ivät	-7689
▁fairly	-7690
▁splendid	-7691
bourne	-7692
▁Aff	-7693
▁Work	-7694
▁raise	-7695
▁winning	-7696
cell	-7697
▁Wel	-7698
▁desert	-7699
▁Taylor	-7700
▁destruction	-7701
▁voul	-7702
▁moins	-7703
9)	-7704
▁bay	-7705
▁amid	-7706
▁sugar	-7707
▁singular	-7708
pson	-7709
▁degrees	-7710
▁faithful	-7711
▁LE	-7712
▁cattle	-7713
akers	-7714
▁flour	-7715
▁cela	-7716
▁stern	-7717
aki	-7718
▁Sever	-7719
cha	-7720
owder	-7721
ester	-7722
▁Joh	-7723
ova	-7724
▁actions	-7725
▁Sher	-7726
▁devoted	-7727
▁hoped	-7728
▁Engine	-7729
asti	-7730
icit	-7731
▁relie	-7732
▁subm	-7733
▁rever	-7734
▁iv	-7735
▁viv	-7736
▁Syd	-7737
▁architecture	-7738
▁yours	-7739
▁awarded	-7740
▁companions	-7741
▁atmosp	-7742
andy	-7743
▁notable	-7744
▁descend	-7745
▁link	-7746
▁sinc	-7747
▁pover	-7748
iration	-7749
essee	-7750
▁skill	-7751
▁Austria	-7752
▁spo	-7753
▁launched	-7754
auv	-7755
▁Santa	-7756
▁commanded	-7757
▁unfortun	-7758
bli	-7759
▁immen	-7760
▁exha	-7761
▁signs	-7762
aro	-7763
wide	-7764
▁compre	-7765
▁parliament	-7766
▁Bad	-7767
▁acid	-7768
▁types	-7769
▁wisdom	-7770
▁listened	-7771
▁Und	-7772
▁resc	-7773
▁friendly	-7774
Gr	-7775
ossa	-7776
ulse	-7777
▁Mess	-7778
▁keen	-7779
▁Uncle	-7780
velopment	-7781
looking	-7782
▁hidden	-7783
yo	-7784
ordon	-7785
||1	-7786
▁shr	-7787
▁diff	-7788
▁jamais	-7789
▁scale	-7790
▁extraordinary	-7791
▁smooth	-7792
▁excited	-7793
▁wheel	-7794
▁gal	-7795
▁rival	-7796
▁authorities	-7797
▁assured	-7798
▁opposed	-7799
▁Prem	-7800
▁abund	-7801
▁devil	-7802
▁combat	-7803
onym	-7804
panic	-7805
▁dying	-7806
▁nearer	-7807
rous	-7808
▁Cer	-7809
▁Poland	-7810
▁ancest	-7811
lyn	-7812
▁poem	-7813
▁absor	-7814
▁violent	-7815
iscons	-7816
liest	-7817
▁behav	-7818
▁cloth	-7819
▁sheep	-7820
▁deeply	-7821
▁drama	-7822
ederation	-7823
owa	-7824
isch	-7825
▁puis	-7826
▁gloom	-7827
ître	-7828
▁alg	-7829
▁Nations	-7830
▁density	-7831
▁valuable	-7832
nte	-7833
elen	-7834
▁whilst	-7835
▁careful	-7836
▁enf	-7837
irs	-7838
▁sul	-7839
ocation	-7840
▁movements	-7841
▁application	-7842
song	-7843
▁nyt	-7844
▁Knight	-7845
▁Cape	-7846
▁privile	-7847
aman	-7848
angers	-7849
▁despite	-7850
▁Princess	-7851
▁creation	-7852
▁positive	-7853
▁Gil	-7854
▁derived	-7855
▁addressed	-7856
put	-7857
▁tut	-7858
▁Found	-7859
▁[_	-7860
alph	-7861
density	-7862
▁escaped	-7863
▁integr	-7864
▁serving	-7865
▁wicked	-7866
▁prisoner	-7867
bes	-7868
▁Amb	-7869
▁Walk	-7870
▁exchange	-7871
▁Ho	-7872
outs	-7873
▁pist	-7874
▁182	-7875
▁Duc	-7876
▁einen	-7877
▁baby	-7878
▁paus	-7879
ienced	-7880
▁defeat	-7881
AGTC	-7882
ingen	-7883
▁wret	-7884
Living	-7885
;–	-7886
MS	-7887
yard	-7888
▁1988	-7889
▁stead	-7890
▁wings	-7891
▁competition	-7892
▁duc	-7893
▁Ship	-7894
▁très	-7895
olas	-7896
rett	-7897
▁inches	-7898
▁subsequently	-7899
▁Pak	-7900
▁environment	-7901
Min	-7902
▁Special	-7903
urday	-7904
▁votre	-7905
▁Military	-7906
▁Var	-7907
▁trail	-7908
▁Fle	-7909
▁bat	-7910
ecess	-7911
Euro	-7912
▁teaching	-7913
▁discovery	-7914
Of	-7915
▁12,	-7916
:01	-7917
▁kon	-7918
▁mart	-7919
Ed	-7920
▁sentence	-7921
▁institutions	-7922
▁tale	-7923
▁waar	-7924
▁Having	-7925
▁Following	-7926
ém	-7927
Tr	-7928
▁Id	-7929
▁après	-7930
asm	-7931
isconsin	-7932
▁gel	-7933
▁anch	-7934
agan	-7935
▁torn	-7936
▁respond	-7937
▁18,	-7938
▁accur	-7939
▁indign	-7940
▁painted	-7941
orporated	-7942
▁Ob	-7943
uate	-7944
idenote	-7945
▁equip	-7946
▁Napole	-7947
oti	-7948
▁MAR	-7949
peare	-7950
▁impress	-7951
ilty	-7952
▁Kar	-7953
▁1950	-7954
▁ä	-7955
fld	-7956
▁hyd	-7957
eper	-7958
▁Simon	-7959
▁resol	-7960
▁recently	-7961
▁éc	-7962
▁committed	-7963
EP	-7964
▁11,	-7965
rayed	-7966
▁transm	-7967
▁resolved	-7968
▁sortable	-7969
▁ment	-7970
usement	-7971
uto	-7972
▁curios	-7973
club	-7974
▁embr	-7975
▁cos	-7976
▁Prix	-7977
▁Ele	-7978
▁horror	-7979
▁conclusion	-7980
▁naar	-7981
▁horiz	-7982
▁Bab	-7983
▁adj	-7984
▁Winter	-7985
eme	-7986
iat	-7987
kee	-7988
▁Album	-7989
▁waste	-7990
▁37	-7991
▁inquir	-7992
▁wholly	-7993
▁dogs	-7994
ocracy	-7995
▁association	-7996
▁Ball	-7997
▁haven	-7998
▁ideal	-7999
▁welcome	-8000
▁prominent	-8001
rors	-8002
works	-8003
▁Burn	-8004
▁Sin	-8005
▁2024	-8006
amma	-8007
capt	-8008
▁widely	-8009
▁mode	-8010
igs	-8011
▁ker	-8012
▁kings	-8013
▁fix	-8014
▁dull	-8015
▁materials	-8016
τα	-8017
▁nav	-8018
his	-8019
igo	-8020
▁sust	-8021
▁demographics	-8022
emed	-8023
itan	-8024
town	-8025
▁fled	-8026
▁sculpt	-8027
prise	-8028
iche	-8029
Who	-8030
idad	-8031
ippi	-8032
▁pup	-8033
▁Thou	-8034
▁Conne	-8035
ensa	-8036
frac	-8037
▁jur	-8038
One	-8039
▁lux	-8040
TGAC	-8041
▁obey	-8042
▁suis	-8043
▁moder	-8044
▁prime	-8045
▁mistake	-8046
▁department	-8047
▁gran	-8048
▁dischar	-8049
▁measures	-8050
▁grey	-8051
AATT	-8052
▁increasing	-8053
▁Kh	-8054
▁absolutely	-8055
▁Area	-8056
▁seated	-8057
▁banks	-8058
▁hither	-8059
ämä	-8060
Sidenote	-8061
▁Lim	-8062
▁actors	-8063
▁reward	-8064
▁abandoned	-8065
▁Sel	-8066
onies	-8067
▁retreat	-8068
▁profession	-8069
▁Netherlands	-8070
ande	-8071
otted	-8072
istered	-8073
rive	-8074
▁boats	-8075
▁grief	-8076
ront	-8077
osh	-8078
▁quelques	-8079
▁agreement	-8080
▁Cro	-8081
▁2022	-8082
umption	-8083
▁Mit	-8084
▁ole	-8085
▁interior	-8086
uma	-8087
▁24,	-8088
▁tom	-8089
▁Supreme	-8090
▁choose	-8091
▁operated	-8092
uy	-8093
border	-8094
▁odd	-8095
▁Flore	-8096
▁theatre	-8097
aga	-8098
▁excess	-8099
▁voices	-8100
▁kinds	-8101
▁owners	-8102
▁Publ	-8103
▁imagine	-8104
▁Research	-8105
EST	-8106
cies	-8107
▁pressed	-8108
Best	-8109
yes	-8110
▁Sports	-8111
▁disappeared	-8112
▁AR	-8113
3/	-8114
▁bew	-8115
there	-8116
▁prosper	-8117
▁activities	-8118
▁conscience	-8119
▁nomin	-8120
▁Lieutenant	-8121
Ste	-8122
▁Ten	-8123
▁caut	-8124
▁obsc	-8125
Mon	-8126
▁38	-8127
▁sua	-8128
▁roads	-8129
ource	-8130
▁prés	-8131
▁renew	-8132
=1	-8133
iac	-8134
etta	-8135
▁maid	-8136
▁arose	-8137
▁smiling	-8138
▁Ash	-8139
▁não	-8140
ATATT	-8141
▁Lewis	-8142
▁Mountain	-8143
▁más	-8144
▁scholar	-8145
▁Ast	-8146
▁gets	-8147
▁lovely	-8148
▁Corporation	-8149
ytt	-8150
▁Gro	-8151
▁quantity	-8152
earing	-8153
▁insc	-8154
▁despair	-8155
istä	-8156
▁chain	-8157
▁agent	-8158
▁occasionally	-8159
=4	-8160
▁3:	-8161
otic	-8162
▁(16	-8163
▁scheme	-8164
▁printed	-8165
|1	-8166
▁supper	-8167
▁approached	-8168
▁fellows	-8169
▁doctrine	-8170
quet	-8171
Xpage	-8172
▁fais	-8173
▁revol	-8174
ureau	-8175
oso	-8176
obal	-8177
▁tomb	-8178
ami	-8179
▁constructed	-8180
▁fois	-8181
▁ger	-8182
teenth	-8183
▁mainly	-8184
Port	-8185
▁hate	-8186
▁limit	-8187
▁churches	-8188
▁wave	-8189
▁unex	-8190
▁Sydney	-8191
▁propri	-8192
▁residence	-8193
▁thoroughly	-8194
▁Ker	-8195
ees	-8196
akin	-8197
idel	-8198
▁Cub	-8199
▁permanent	-8200
inton	-8201
▁Ocean	-8202
will	-8203
▁ocean	-8204
▁batter	-8205
▁pardon	-8206
anti	-8207
▁attacked	-8208
▁composition	-8209
▁Islam	-8210
▁municipal	-8211
▁Beach	-8212
▁exception	-8213
anne	-8214
anny	-8215
▁admit	-8216
▁00	-8217
▁holds	-8218
▁indif	-8219
▁Sweden	-8220
▁retire	-8221
ifications	-8222
▁tracks	-8223
▁permitted	-8224
▁controvers	-8225
▁vocals	-8226
▁chapter	-8227
▁concluded	-8228
Sir	-8229
nal	-8230
Car	-8231
▁Spring	-8232
▁rendered	-8233
emeter	-8234
▁Grant	-8235
300	-8236
▁Pict	-8237
▁rein	-8238
▁maintained	-8239
sä	-8240
▁39	-8241
▁pare	-8242
▁Kansas	-8243
▁Imperial	-8244
▁sacrifice	-8245
▁Family	-8246
▁entitled	-8247
ELL	-8248
▁boot	-8249
Char	-8250
▁Athlet	-8251
▁symbol	-8252
▁constantly	-8253
▁TG	-8254
▁Uk	-8255
▁Cas	-8256
angel	-8257
▁Ford	-8258
▁Look	-8259
▁Ark	-8260
oni	-8261
▁Fra	-8262
▁lift	-8263
ologist	-8264
By	-8265
▁191	-8266
▁fiction	-8267
▁Bart	-8268
▁hole	-8269
▁femme	-8270
▁loose	-8271
▁Journal	-8272
▁improve	-8273
issippi	-8274
▁***	-8275
usalem	-8276
▁colle	-8277
▁Forest	-8278
▁Batt	-8279
▁Hong	-8280
▁strongly	-8281
ESS	-8282
▁15,	-8283
▁wir	-8284
master	-8285
▁celebrated	-8286
alty	-8287
▁Dom	-8288
▁successor	-8289
dist	-8290
zech	-8291
▁phen	-8292
anut	-8293
aires	-8294
▁fare	-8295
▁cabin	-8296
▁Adam	-8297
▁Lind	-8298
▁rot	-8299
▁zur	-8300
books	-8301
▁Bat	-8302
2019	-8303
▁nou	-8304
borough	-8305
▁Hospital	-8306
▁departure	-8307
hl	-8308
alion	-8309
▁ton	-8310
▁finds	-8311
▁preserved	-8312
▁Sab	-8313
▁Band	-8314
inch	-8315
keit	-8316
wich	-8317
▁folk	-8318
▁rés	-8319
▁manifest	-8320
ép	-8321
▁picked	-8322
▁ko	-8323
IE	-8324
French	-8325
▁heavily	-8326
▁mercy	-8327
▁weapons	-8328
▁Marc	-8329
▁inner	-8330
▁praise	-8331
SP	-8332
ων	-8333
chang	-8334
▁instru	-8335
▁Stone	-8336
▁Transport	-8337
emen	-8338
▁assumed	-8339
▁benefit	-8340
▁existing	-8341
▁universal	-8342
OH	-8343
▁appeal	-8344
ün	-8345
▁architect	-8346
▁ka	-8347
▁1989	-8348
▁Tennessee	-8349
▁fifth	-8350
▁resistance	-8351
▁8/	-8352
UC	-8353
eff	-8354
immer	-8355
Where	-8356
▁comedy	-8357
▁kitchen	-8358
struction	-8359
▁independence	-8360
▁tul	-8361
phone	-8362
▁temperature	-8363
icken	-8364
▁Crown	-8365
6/	-8366
▁Az	-8367
▁più	-8368
▁decor	-8369
▁inher	-8370
▁kindly	-8371
▁railroad	-8372
IST	-8373
▁Pa	-8374
▁14,	-8375
▁Ren	-8376
▁mic	-8377
▁Low	-8378
▁guest	-8379
▁tight	-8380
allel	-8381
▁Asian	-8382
▁premier	-8383
▁Hamilton	-8384
–2	-8385
▁counten	-8386
▁mistress	-8387
itage	-8388
▁reputation	-8389
▁cert	-8390
▁Polish	-8391
▁2023	-8392
▁Aunt	-8393
▁Because	-8394
▁poverty	-8395
▁critical	-8396
ugg	-8397
▁Greg	-8398
weg	-8399
▁2:	-8400
▁Roger	-8401
anim	-8402
onent	-8403
▁convin	-8404
agger	-8405
▁impat	-8406
▁tribes	-8407
▁professor	-8408
▁Indust	-8409
▁sounds	-8410
▁approximately	-8411
lav	-8412
▁AD	-8413
▁protest	-8414
dale	-8415
▁Hur	-8416
arte	-8417
▁Last	-8418
ρα	-8419
▁)	-8420
▁greet	-8421
▁Health	-8422
▁Highway	-8423
▁inspired	-8424
ouch	-8425
▁för	-8426
▁Roll	-8427
EA	-8428
▁frequent	-8429
▁hen	-8430
ît	-8431
seless	-8432
uclear	-8433
▁Davis	-8434
▁waren	-8435
ntä	-8436
uster	-8437
▁mounted	-8438
▁brilliant	-8439
rations	-8440
▁44	-8441
▁13,	-8442
caption	-8443
they	-8444
▁Sax	-8445
▁Besides	-8446
▁resources	-8447
▁separated	-8448
via	-8449
▁AM	-8450
TCTT	-8451
▁Protest	-8452
▁VII	-8453
▁Barn	-8454
osis	-8455
▁Juan	-8456
▁ages	-8457
▁Toronto	-8458
▁Helen	-8459
▁Douglas	-8460
▁Tar	-8461
▁consol	-8462
aughters	-8463
▁Brad	-8464
inging	-8465
▁Gib	-8466
▁2021	-8467
▁seasons	-8468
▁essential	-8469
bing	-8470
hard	-8471
▁remind	-8472
var	-8473
Comm	-8474
▁attitude	-8475
▁jet	-8476
▁flow	-8477
oking	-8478
▁Marie	-8479
'.	-8480
▁bomb	-8481
▁contempt	-8482
Phil	-8483
▁Prime	-8484
equ	-8485
▁communication	-8486
vens	-8487
ourable	-8488
▁Us	-8489
▁craft	-8490
▁Christianity	-8491
▁Human	-8492
▁defend	-8493
▁positions	-8494
▁(2	-8495
apped	-8496
▁perpet	-8497
▁surrounding	-8498
▁sale	-8499
▁verb	-8500
▁knees	-8501
▁reports	-8502
▁Official	-8503
▁magnific	-8504
▁multiple	-8505
▁ihn	-8506
▁driver	-8507
▁Defn	-8508
ailing	-8509
▁elder	-8510
▁determin	-8511
▁Mike	-8512
▁Wisconsin	-8513
▁kle	-8514
▁FC	-8515
▁|18	-8516
ustomed	-8517
lan	-8518
ication	-8519
▁finger	-8520
2_	-8521
öl	-8522
▁asking	-8523
sely	-8524
▁Mean	-8525
▁defence	-8526
▁appropri	-8527
▁eggs	-8528
▁waves	-8529
Did	-8530
ardo	-8531
▁Legisl	-8532
heit	-8533
▁demonstr	-8534
ping	-8535
Jul	-8536
igg	-8537
▁clouds	-8538
eler	-8539
▁obv	-8540
▁bron	-8541
uta	-8542
embers	-8543
imately	-8544
▁abroad	-8545
AAAAC	-8546
▁enorm	-8547
CD	-8548
▁sla	-8549
igt	-8550
AGTT	-8551
▁dish	-8552
icip	-8553
rants	-8554
▁wishes	-8555
▁founder	-8556
▁scenes	-8557
▁invited	-8558
▁179	-8559
▁coffee	-8560
▁normal	-8561
▁Constant	-8562
pool	-8563
▁fever	-8564
olph	-8565
abama	-8566
▁foundation	-8567
atherine	-8568
▁11.	-8569
▁Free	-8570
▁IS	-8571
fall	-8572
▁shortly	-8573
rij	-8574
▁BBC	-8575
▁depos	-8576
▁fatal	-8577
ewise	-8578
▁horn	-8579
people	-8580
▁fired	-8581
▁lover	-8582
6;	-8583
ibus	-8584
▁villages	-8585
▁extensive	-8586
xty	-8587
▁Ta	-8588
▁Books	-8589
▁execution	-8590
odox	-8591
ensions	-8592
▁attempts	-8593
▁formation	-8594
▁advert	-8595
▁brig	-8596
weight	-8597
▁Organ	-8598
▁yesterday	-8599
τε	-8600
leton	-8601
▁12.	-8602
▁communities	-8603
pit	-8604
▁ti	-8605
▁formal	-8606
▁Pot	-8607
unter	-8608
▁1991	-8609
▁passes	-8610
▁retain	-8611
▁Nothing	-8612
▁everybody	-8613
▁Sem	-8614
▁intent	-8615
▁Saturday	-8616
:21	-8617
▁Li	-8618
▁spend	-8619
▁chest	-8620
▁να	-8621
▁Wars	-8622
Dec	-8623
▁stepped	-8624
▁industrial	-8625
▁bos	-8626
▁guer	-8627
imming	-8628
▁orn	-8629
▁dignity	-8630
burn	-8631
▁Nob	-8632
▁plenty	-8633
▁thrust	-8634
▁collected	-8635
▁establishment	-8636
▁Have	-8637
▁males	-8638
▁Medal	-8639
▁sees	-8640
▁contre	-8641
▁avoir	-8642
▁Nich	-8643
▁gift	-8644
▁trip	-8645
▁Naz	-8646
▁anger	-8647
Har	-8648
▁Pitt	-8649
▁economy	-8650
▁Friend	-8651
▁charged	-8652
▁auth	-8653
tis	-8654
vals	-8655
▁Six	-8656
▁Brun	-8657
▁répond	-8658
▁thanks	-8659
vat	-8660
▁bud	-8661
▁vari	-8662
abled	-8663
▁stup	-8664
▁remov	-8665
▁wound	-8666
▁eu	-8667
▁mich	-8668
rip	-8669
▁grounds	-8670
▁committee	-8671
oz	-8672
▁SC	-8673
▁guilty	-8674
efef	-8675
▁ot	-8676
▁ruin	-8677
.&	-8678
agle	-8679
],	-8680
▁Alb	-8681
▁recol	-8682
▁immense	-8683
di	-8684
hol	-8685
▁42	-8686
▁breaking	-8687
▁confusion	-8688
τι	-8689
orus	-8690
World	-8691
▁Any	-8692
▁Maur	-8693
▁amaz	-8694
='	-8695
12.	-8696
ints	-8697
▁rib	-8698
▁Frederick	-8699
---	-8700
formed	-8701
▁pushed	-8702
emetery	-8703
▁Samuel	-8704
▁(?	-8705
▁acknowled	-8706
▁punishment	-8707
▁Philippines	-8708
ATION	-8709
▁poison	-8710
▁earliest	-8711
▁relative	-8712
▁1987	-8713
▁stuff	-8714
▁Dou	-8715
▁notre	-8716
▁continu	-8717
▁planned	-8718
▁Moh	-8719
apers	-8720
▁sets	-8721
ansion	-8722
ös	-8723
agues	-8724
ternet	-8725
▁Indeed	-8726
▁resolution	-8727
▁tow	-8728
ahr	-8729
▁cars	-8730
▁Kentucky	-8731
bted	-8732
▁fame	-8733
▁myth	-8734
▁hell	-8735
▁effective	-8736
▁restrict	-8737
▁lawyer	-8738
▁finish	-8739
▁explanation	-8740
ouses	-8741
▁wrest	-8742
▁listed	-8743
▁CON	-8744
▁nodd	-8745
▁executive	-8746
▁vice	-8747
▁delicate	-8748
▁interpret	-8749
▁cet	-8750
▁Billy	-8751
▁discussion	-8752
▁AT	-8753
▁prefer	-8754
▁painting	-8755
LA	-8756
▁Quebec	-8757
▁Mississippi	-8758
▁nog	-8759
▁asleep	-8760
▁distribution	-8761
▁alla	-8762
▁dawn	-8763
ials	-8764
avait	-8765
power	-8766
▁Regiment	-8767
▁regiment	-8768
▁Gran	-8769
▁rapp	-8770
rons	-8771
▁alarm	-8772
chestra	-8773
▁alongside	-8774
mad	-8775
atta	-8776
▁drug	-8777
▁enjoyed	-8778
ienne	-8779
▁translation	-8780
anton	-8781
▁experienced	-8782
▁situated	-8783
AATC	-8784
anth	-8785
▁cig	-8786
GE	-8787
;--	-8788
▁bull	-8789
▁someone	-8790
bow	-8791
idän	-8792
▁Norway	-8793
▁rivers	-8794
▁introduction	-8795
rac	-8796
="3"	-8797
▁souls	-8798
ipping	-8799
▁nobody	-8800
▁déc	-8801
esti	-8802
iveness	-8803
▁Therefore	-8804
}{	-8805
wealth	-8806
▁Mutta	-8807
▁presidential	-8808
▁sooner	-8809
▁deliber	-8810
▁sufficiently	-8811
▁loyal	-8812
▁werden	-8813
▁Christians	-8814
:1	-8815
ât	-8816
usta	-8817
▁turns	-8818
▁contest	-8819
▁striking	-8820
▁Several	-8821
▁Indiana	-8822
▁everywhere	-8823
▁fulf	-8824
3-	-8825
▁piano	-8826
abri	-8827
aws	-8828
omot	-8829
▁Eth	-8830
▁dynasty	-8831
150	-8832
▁Domin	-8833
▁wij	-8834
onents	-8835
▁museum	-8836
▁sovereign	-8837
this	-8838
▁flu	-8839
▁mix	-8840
King	-8841
▁ook	-8842
▁restored	-8843
▁compelled	-8844
▁nun	-8845
ospel	-8846
▁Colorado	-8847
▁atmosphere	-8848
:199	-8849
▁computer	-8850
▁MP	-8851
Dav	-8852
▁vul	-8853
▁sprang	-8854
dy	-8855
gra	-8856
▁thinks	-8857
▁Information	-8858
▁abst	-8859
▁maxim	-8860
Her	-8861
▁difficulties	-8862
idi	-8863
▁receiving	-8864
5-	-8865
▁diplom	-8866
▁ollut	-8867
alm	-8868
▁pod	-8869
scape	-8870
▁rushed	-8871
▁phenomen	-8872
▁rum	-8873
▁Jerusalem	-8874
▁summ	-8875
▁Commun	-8876
▁absolute	-8877
▁equipment	-8878
4/	-8879
album	-8880
lessly	-8881
▁recording	-8882
eps	-8883
▁partner	-8884
▁interrupted	-8885
▁intellectual	-8886
▁Ak	-8887
rete	-8888
▁Dur	-8889
▁pier	-8890
▁convinced	-8891
▁seed	-8892
▁await	-8893
▁το	-8894
avan	-8895
▁advoc	-8896
▁regarding	-8897
▁alter	-8898
football	-8899
▁chiefly	-8900
▁reaching	-8901
▁charm	-8902
▁accounts	-8903
Med	-8904
oused	-8905
▁pays	-8906
▁wedd	-8907
▁Gordon	-8908
▁billion	-8909
pdf	-8910
▁Ra	-8911
▁Napoleon	-8912
▁riding	-8913
fare	-8914
▁inse	-8915
▁ceremony	-8916
▁Kat	-8917
▁ecc	-8918
chers	-8919
regon	-8920
▁valign	-8921
▁Anna	-8922
▁occasions	-8923
▁awful	-8924
▁perfor	-8925
▁accomplished	-8926
,[	-8927
▁Age	-8928
iency	-8929
▁natives	-8930
▁programs	-8931
▁operating	-8932
▁divisions	-8933
▁Development	-8934
▁accomp	-8935
image	-8936
▁precious	-8937
▁leaf	-8938
▁purchased	-8939
Ang	-8940
hum	-8941
jet	-8942
low	-8943
ulle	-8944
▁analysis	-8945
▁jusqu	-8946
▁Ich	-8947
▁Pur	-8948
▁residents	-8949
bey	-8950
atis	-8951
▁Square	-8952
▁Argent	-8953
▁Buck	-8954
▁medal	-8955
▁Police	-8956
dem	-8957
rin	-8958
ateur	-8959
▁clergy	-8960
▁Aud	-8961
elli	-8962
▁dil	-8963
ollen	-8964
▁2006,	-8965
▁belonged	-8966
▁gently	-8967
▁wooden	-8968
▁attacks	-8969
CA	-8970
BER	-8971
▁solution	-8972
▁nam	-8973
raine	-8974
▁losing	-8975
omme	-8976
plex	-8977
▁chart	-8978
▁warri	-8979
block	-8980
ships	-8981
▁caps	-8982
▁divers	-8983
othy	-8984
addle	-8985
▁Vers	-8986
▁traffic	-8987
aille	-8988
ensch	-8989
ultan	-8990
▁font	-8991
▁mourn	-8992
▁ainsi	-8993
▁emphas	-8994
▁Author	-8995
magazine	-8996
:3	-8997
▁ges	-8998
▁falls	-8999
▁titles	-9000
▁Monsieur	-9001
zes	-9002
agers	-9003
▁indul	-9004
akespeare	-9005
▁meg	-9006
▁criminal	-9007
▁tribe	-9008
Ant	-9009
▁uncertain	-9010
▁Sn	-9011
▁„	-9012
ruits	-9013
▁probable	-9014
▁|5	-9015
▁geb	-9016
ommen	-9017
▁Ern	-9018
▁bishop	-9019
held	-9020
▁Holland	-9021
▁Live	-9022
▁chez	-9023
offset	-9024
▁convey	-9025
▁Memorial	-9026
actor	-9027
▁1984	-9028
▁contempl	-9029
▁arrangement	-9030
San	-9031
▁20,	-9032
uscript	-9033
▁throat	-9034
▁Portugal	-9035
.—	-9036
▁fee	-9037
▁VIII	-9038
▁Front	-9039
▁kindness	-9040
▁select	-9041
▁Despite	-9042
ifer	-9043
▁debt	-9044
alia	-9045
▁alc	-9046
▁Media	-9047
▁fo	-9048
||0||	-9049
Que	-9050
inations	-9051
▁movie	-9052
▁assigned	-9053
▁Prim	-9054
▁Administ	-9055
ORD	-9056
▁Herr	-9057
auf	-9058
▁innocent	-9059
▁guests	-9060
▁subsequent	-9061
▁|+	-9062
▁16,	-9063
▁Obs	-9064
Count	-9065
James	-9066
▁Prize	-9067
▁Miller	-9068
▁reckon	-9069
▁predecess	-9070
IX	-9071
▁kat	-9072
bishop	-9073
▁ster	-9074
▁workers	-9075
▁né	-9076
Gu	-9077
lease	-9078
▁countenance	-9079
▁Tod	-9080
▁bou	-9081
▁grie	-9082
▁Pierre	-9083
▁distinction	-9084
";	-9085
two	-9086
▁bei	-9087
▁abol	-9088
▁Bah	-9089
▁Story	-9090
tem	-9091
▁Wy	-9092
RS	-9093
▁jealous	-9094
▁perceived	-9095
olen	-9096
▁feed	-9097
cticut	-9098
▁Place	-9099
▁swept	-9100
▁corrupt	-9101
................	-9102
▁gif	-9103
▁Lanc	-9104
▁Mort	-9105
▁yeux	-9106
▁refuge	-9107
▁Episode	-9108
▁defined	-9109
thodox	-9110
▁counsel	-9111
ATAG	-9112
▁mand	-9113
amental	-9114
▁Germans	-9115
▁foolish	-9116
▁empire	-9117
▁portrait	-9118
aration	-9119
▁regret	-9120
lichen	-9121
▁17,	-9122
inals	-9123
▁Maryland	-9124
▁Ut	-9125
▁seldom	-9126
▁landing	-9127
hn	-9128
urent	-9129
▁characteristic	-9130
bler	-9131
rific	-9132
▁iii	-9133
Black	-9134
polit	-9135
▁Command	-9136
vas	-9137
▁autre	-9138
▁Univers	-9139
▁properly	-9140
▁acted	-9141
TGTC	-9142
▁mystery	-9143
▁Portuguese	-9144
uß	-9145
ults	-9146
▁Mun	-9147
▁Sign	-9148
▁daar	-9149
▁lights	-9150
pos	-9151
▁fest	-9152
▁Motor	-9153
▁neighborhood	-9154
▁verse	-9155
mother	-9156
bst	-9157
apore	-9158
▁2007,	-9159
▁Ira	-9160
▁NHL	-9161
▁homes	-9162
atin	-9163
▁Comics	-9164
▁driving	-9165
▁Baseball	-9166
▁Fame	-9167
▁dict	-9168
▁rust	-9169
▁Alabama	-9170
▁×	-9171
▁Space	-9172
Star	-9173
rets	-9174
▁Iran	-9175
▁anxiety	-9176
AAAAG	-9177
▁ease	-9178
▁newly	-9179
▁headquarters	-9180
TGAG	-9181
▁Queens	-9182
▁clever	-9183
▁dismiss	-9184
emb	-9185
isten	-9186
▁secured	-9187
_:	-9188
iy	-9189
oty	-9190
▁Kl	-9191
rans	-9192
▁tournament	-9193
iß	-9194
▁rhy	-9195
▁sitä	-9196
▁burned	-9197
▁Relig	-9198
▁organized	-9199
▁Hans	-9200
▁luck	-9201
ivan	-9202
ouver	-9203
▁Ward	-9204
▁mayor	-9205
▁specim	-9206
=6	-9207
EFA	-9208
anes	-9209
▁votes	-9210
▁championship	-9211
érit	-9212
▁2010,	-9213
▁Stock	-9214
▁consisted	-9215
Nor	-9216
▁Lam	-9217
▁phrase	-9218
language	-9219
▁adapt	-9220
White	-9221
▁Korea	-9222
aths	-9223
▁Bos	-9224
▁jew	-9225
Films	-9226
Canadian	-9227
▁acquaintance	-9228
▁Admir	-9229
▁fant	-9230
▁Disc	-9231
▁knight	-9232
▁hunting	-9233
opher	-9234
▁Hamp	-9235
▁polic	-9236
▁admiration	-9237
▁voir	-9238
▁mainten	-9239
▁partners	-9240
▁jou	-9241
amation	-9242
▁existed	-9243
▁error	-9244
▁substant	-9245
▁qualities	-9246
established	-9247
▁gli	-9248
▁pipe	-9249
▁cott	-9250
▁plot	-9251
inding	-9252
▁legend	-9253
▁engineer	-9254
>[	-9255
▁aunt	-9256
ussian	-9257
▁gross	-9258
fulness	-9259
▁shouted	-9260
▁injury	-9261
▁quarters	-9262
wall	-9263
ATTTT	-9264
▁Alice	-9265
ña	-9266
▁Howard	-9267
ogs	-9268
urre	-9269
▁mood	-9270
▁einer	-9271
ikk	-9272
iate	-9273
elson	-9274
▁Stra	-9275
▁jot	-9276
▁Modern	-9277
▁emperor	-9278
▁observe	-9279
▁creatures	-9280
Are	-9281
sez	-9282
irds	-9283
▁exposed	-9284
▁Allen	-9285
▁Ye	-9286
▁scored	-9287
▁anybody	-9288
▁mild	-9289
First	-9290
▁Crit	-9291
▁Anderson	-9292
Europe	-9293
▁Steve	-9294
▁transferred	-9295
▁Stat	-9296
▁unusual	-9297
▁mysterious	-9298
▁2008,	-9299
▁uncons	-9300
ders	-9301
atures	-9302
▁Het	-9303
encia	-9304
▁doch	-9305
iast	-9306
▁80	-9307
▁ay	-9308
▁penet	-9309
Br	-9310
▁Lawrence	-9311
▁daughters	-9312
▁publication	-9313
armed	-9314
ikä	-9315
oping	-9316
▁wenn	-9317
PS	-9318
▁Liberal	-9319
▁étaient	-9320
▁officials	-9321
▁comfortable	-9322
▁Kings	-9323
▁marks	-9324
▁recovered	-9325
Roy	-9326
▁Aber	-9327
▁géné	-9328
▁solo	-9329
▁functions	-9330
▁25,	-9331
▁Burg	-9332
▁treaty	-9333
▁grav	-9334
▁meal	-9335
▁Palace	-9336
▁ga	-9337
▁Alexand	-9338
illo	-9339
▁technology	-9340
dam	-9341
▁Lib	-9342
▁behold	-9343
Pop	-9344
▁primarily	-9345
▁forming	-9346
zi	-9347
▁entering	-9348
▁emot	-9349
▁monde	-9350
▁medicine	-9351
▁opinions	-9352
erg	-9353
▁allowing	-9354
▁accustomed	-9355
▁leads	-9356
▁weary	-9357
Sec	-9358
▁subt	-9359
▁adopt	-9360
RAN	-9361
rot	-9362
▁py	-9363
▁observation	-9364
▁1986	-9365
ublin	-9366
▁Liter	-9367
▁slavery	-9368
▁instantly	-9369
geon	-9370
▁Balt	-9371
▁dimin	-9372
▁48	-9373
TAAAA	-9374
▁paused	-9375
▁stairs	-9376
▁Grace	-9377
▁millions	-9378
▁provisions	-9379
Was	-9380
▁|0	-9381
▁Plan	-9382
▁Historic	-9383
▁examples	-9384
▁currently	-9385
ál	-9386
ainen	-9387
igation	-9388
▁substance	-9389
▁|&	-9390
▁sixty	-9391
upon	-9392
▁Director	-9393
▁Cra	-9394
ρι	-9395
oco	-9396
▁180	-9397
▁Tam	-9398
mente	-9399
▁novels	-9400
DP	-9401
idity	-9402
▁hogy	-9403
▁vary	-9404
itzerland	-9405
WH	-9406
▁Henri	-9407
CFC	-9408
acco	-9409
▁Lang	-9410
▁autres	-9411
▁priests	-9412
2]	-9413
▁capit	-9414
▁profound	-9415
▁describe	-9416
▁instruments	-9417
▁fan	-9418
craft	-9419
resident	-9420
▁consciousness	-9421
▁Bull	-9422
▁conj	-9423
▁offers	-9424
▁authors	-9425
"--	-9426
▁19,	-9427
▁NFL	-9428
▁jump	-9429
DST	-9430
▁ghost	-9431
▁offices	-9432
erves	-9433
▁affili	-9434
apted	-9435
▁Alfred	-9436
▁contemporary	-9437
▁bree	-9438
▁consec	-9439
inth	-9440
oting	-9441
▁softly	-9442
ssä	-9443
▁Territ	-9444
▁cavalry	-9445
▁|0.	-9446
▁Works	-9447
eni	-9448
Here	-9449
start	-9450
▁Whit	-9451
▁sexual	-9452
fam	-9453
ophy	-9454
▁jeune	-9455
▁él	-9456
▁Bol	-9457
▁Wol	-9458
▁models	-9459
▁profit	-9460
▁princes	-9461
▁likewise	-9462
▁strateg	-9463
iour	-9464
▁eleven	-9465
alan	-9466
▁ard	-9467
bot	-9468
▁lon	-9469
▁aged	-9470
▁remove	-9471
ocking	-9472
▁Treat	-9473
ono	-9474
aton	-9475
gate	-9476
▁outer	-9477
▁damage	-9478
▁PR	-9479
▁Tony	-9480
▁neighb	-9481
▁vs	-9482
▁fanc	-9483
▁sout	-9484
▁einem	-9485
rish	-9486
▁178	-9487
▁mie	-9488
▁approved	-9489
▁provides	-9490
oen	-9491
▁Peace	-9492
▁roi	-9493
▁seule	-9494
><	-9495
uda	-9496
▁fert	-9497
▁gang	-9498
▁inch	-9499
Democratic	-9500
?」	-9501
même	-9502
▁cris	-9503
stairs	-9504
▁Mexican	-9505
oire	-9506
▁fel	-9507
▁initially	-9508
▁ly	-9509
▁avant	-9510
▁concert	-9511
ele	-9512
cient	-9513
▁purchase	-9514
▁confirmed	-9515
gi	-9516
allenge	-9517
▁structures	-9518
▁Third	-9519
>(?	-9520
kan	-9521
▁1:	-9522
vation	-9523
uced	-9524
▁13.	-9525
▁donn	-9526
▁dedicated	-9527
rai	-9528
▁Dig	-9529
▁Cook	-9530
▁courts	-9531
▁educated	-9532
▁cells	-9533
▁crack	-9534
▁feared	-9535
▁somewhere	-9536
quel	-9537
George	-9538
▁2009,	-9539
▁Shakespeare	-9540
▁Sound	-9541
▁steep	-9542
——	-9543
▁Thy	-9544
▁warning	-9545
▁requires	-9546
▁threatened	-9547
bus	-9548
▁brid	-9549
inted	-9550
▁trois	-9551
▁Cru	-9552
▁Viet	-9553
▁rifle	-9554
▁glorious	-9555
▁images	-9556
▁postal	-9557
track	-9558
oux	-9559
orable	-9560
▁provinces	-9561
made	-9562
▁arrested	-9563
icer	-9564
▁Mond	-9565
▁oldest	-9566
▁zou	-9567
gt	-9568
▁FOR	-9569
▁baseball	-9570
NE	-9571
▁70	-9572
▁Dal	-9573
▁Gray	-9574
▁ridic	-9575
▁Railroad	-9576
hä	-9577
ilia	-9578
▁21,	-9579
▁Community	-9580
▁frightened	-9581
▁SP	-9582
▁sind	-9583
▁stim	-9584
▁nearest	-9585
tery	-9586
▁trace	-9587
▁fierce	-9588
ands	-9589
▁sigh	-9590
ensä	-9591
onial	-9592
▁fishing	-9593
lia	-9594
Sep	-9595
hess	-9596
unct	-9597
ummer	-9598
▁capture	-9599
▁extract	-9600
▁utterly	-9601
▁crossing	-9602
▁patron	-9603
▁manners	-9604
3]	-9605
▁Mann	-9606
▁opera	-9607
agh	-9608
="4	-9609
aping	-9610
▁parallel	-9611
▁recognition	-9612
▁(15	-9613
▁Ins	-9614
oples	-9615
▁shelter	-9616
Your	-9617
acer	-9618
rice	-9619
has	-9620
▁lamp	-9621
▁stayed	-9622
▁painter	-9623
▁inclined	-9624
arth	-9625
▁Ped	-9626
▁nest	-9627
▁oder	-9628
▁toler	-9629
▁anyone	-9630
▁awards	-9631
▁Nick	-9632
▁yard	-9633
AV	-9634
▁43	-9635
▁permission	-9636
▁1983	-9637
▁personnel	-9638
▁49	-9639
▁Bour	-9640
▁belonging	-9641
▁initial	-9642
▁composer	-9643
▁elsewhere	-9644
▁ward	-9645
▁genre	-9646
▁inquired	-9647
▁Ext	-9648
Japan	-9649
▁Take	-9650
cester	-9651
rizona	-9652
▁Native	-9653
▁habits	-9654
Art	-9655
died	-9656
▁avo	-9657
----"	-9658
autre	-9659
▁alleg	-9660
▁landed	-9661
▁weakness	-9662
▁wal	-9663
>(?)</	-9664
▁Judge	-9665
▁laughter	-9666
▁passengers	-9667
SC	-9668
^{	-9669
▁nurs	-9670
▁ö	-9671
Men	-9672
hou	-9673
▁knife	-9674
▁merc	-9675
TTTTG	-9676
▁1979	-9677
▁GC	-9678
▁NE	-9679
▁eternal	-9680
▁responsibility	-9681
Jun	-9682
▁Ot	-9683
▁|6	-9684
Rich	-9685
▁jum	-9686
▁thread	-9687
▁transp	-9688
▁collabor	-9689
pent	-9690
.]</	-9691
▁Review	-9692
▁internal	-9693
▁graph	-9694
▁assert	-9695
▁continues	-9696
▁Tok	-9697
▁blessed	-9698
▁invasion	-9699
▁Next	-9700
▁Network	-9701
▁matches	-9702
▁64	-9703
▁trains	-9704
Me	-9705
▁1985	-9706
▁Silver	-9707
▁Entertainment	-9708
DD	-9709
mod	-9710
David	-9711
▁estimated	-9712
fty	-9713
life	-9714
ilation	-9715
▁hommes	-9716
Cent	-9717
isms	-9718
▁Ban	-9719
▁stiff	-9720
▁tables	-9721
ser	-9722
asted	-9723
▁spark	-9724
▁feather	-9725
▁temp	-9726
inated	-9727
▁typically	-9728
▁Connecticut	-9729
lle	-9730
▁tin	-9731
Rober	-9732
▁Meth	-9733
▁curiosity	-9734
▁external	-9735
▁xx	-9736
▁nick	-9737
▁nervous	-9738
▁candidate	-9739
oric	-9740
▁string	-9741
uits	-9742
▁Conc	-9743
▁Page	-9744
orting	-9745
▁Bang	-9746
▁permit	-9747
▁weapon	-9748
▁emotion	-9749
▁CO	-9750
▁tête	-9751
▁wire	-9752
▁Oregon	-9753
▁Mos	-9754
▁beach	-9755
▁slept	-9756
itely	-9757
pless	-9758
▁Anthony	-9759
▁earned	-9760
▁script	-9761
▁shield	-9762
▁anticip	-9763
resses	-9764
▁humanity	-9765
▁tunn	-9766
▁14.	-9767
▁Arn	-9768
:"	-9769
▁Moon	-9770
▁approaching	-9771
▁és	-9772
iasm	-9773
arrison	-9774
▁LA	-9775
▁ép	-9776
▁Bed	-9777
ellor	-9778
▁prend	-9779
▁shade	-9780
▁spouse	-9781
▁missing	-9782
▁photograph	-9783
▁bones	-9784
▁drift	-9785
▁dreams	-9786
▁Au	-9787
▁2005,	-9788
▁premi	-9789
▁municipality	-9790
jan	-9791
▁rép	-9792
▁transfer	-9793
▁Meanwhile	-9794
▁miserable	-9795
▁secretary	-9796
Roman	-9797
▁Hugh	-9798
▁confident	-9799
CCCC	-9800
▁30,	-9801
▁Fal	-9802
going	-9803
?’	-9804
had	-9805
▁equival	-9806
rived	-9807
index	-9808
▁frank	-9809
unction	-9810
uled	-9811
aware	-9812
▁seeking	-9813
▁artillery	-9814
▁institution	-9815
dire	-9816
▁hollow	-9817
erts	-9818
itty	-9819
▁22,	-9820
geant	-9821
▁Vi	-9822
▁inex	-9823
▁Hu	-9824
▁Thor	-9825
▁offering	-9826
▁cul	-9827
▁2011,	-9828
▁Moore	-9829
TTTTC	-9830
▁negro	-9831
▁writes	-9832
▁imprison	-9833
University	-9834
Co	-9835
▁Heb	-9836
▁realized	-9837
lov	-9838
▁influenced	-9839
▁combination	-9840
▁connect	-9841
▁monsieur	-9842
▁Which	-9843
iley	-9844
▁apply	-9845
▁bond	-9846
▁file	-9847
▁urged	-9848
▁mankind	-9849
▁humble	-9850
▁Cow	-9851
▁silk	-9852
▁rush	-9853
▁desir	-9854
▁Confeder	-9855
▁Das	-9856
istle	-9857
▁volumes	-9858
▁facilities	-9859
Mad	-9860
arde	-9861
▁obed	-9862
▁officially	-9863
▁assault	-9864
lad	-9865
▁alike	-9866
▁naval	-9867
▁widow	-9868
▁Foundation	-9869
▁Standard	-9870
acent	-9871
▁Adams	-9872
minster	-9873
▁absurd	-9874
▁cotton	-9875
ographical	-9876
▁historian	-9877
▁listening	-9878
▁scattered	-9879
rm	-9880
▁01	-9881
bott	-9882
▁killing	-9883
▁detail	-9884
▁housing	-9885
▁appearances	-9886
▁possibility	-9887
php	-9888
▁uncom	-9889
▁improved	-9890
▁troubles	-9891
▁stretched	-9892
▁Ein	-9893
▁fuel	-9894
MA	-9895
omas	-9896
▁flew	-9897
▁levels	-9898
die	-9899
▁rage	-9900
▁nearby	-9901
▁unexpected	-9902
osure	-9903
▁Ruth	-9904
▁suiv	-9905
▁thunder	-9906
olate	-9907
▁Staff	-9908
▁poets	-9909
▁resulted	-9910
▁assistant	-9911
aders	-9912
▁stamp	-9913
▁Pakistan	-9914
Republican	-9915
eous	-9916
▁split	-9917
▁έ	-9918
gon	-9919
▁rolled	-9920
▁senior	-9921
▁Russell	-9922
▁indicated	-9923
eten	-9924
▁encl	-9925
▁nost	-9926
rak	-9927
▁Serb	-9928
▁refuse	-9929
▁Ve	-9930
▁ris	-9931
▁bands	-9932
Apr	-9933
alling	-9934
▁survey	-9935
▁featuring	-9936
▁organizations	-9937
▁47	-9938
▁nob	-9939
▁Iowa	-9940
▁Swedish	-9941
▁Florence	-9942
▁Manchester	-9943
▁1982	-9944
▁nodded	-9945
▁bef	-9946
chell	-9947
▁winds	-9948
▁launch	-9949
▁ans	-9950
angen	-9951
▁1930	-9952
gal	-9953
▁46	-9954
▁handed	-9955
öt	-9956
vard	-9957
andal	-9958
▁criticism	-9959
▁asp	-9960
found	-9961
▁Edin	-9962
▁succ	-9963
Hen	-9964
▁1974	-9965
▁vest	-9966
▁stores	-9967
hematics	-9968
God	-9969
hti	-9970
▁BO	-9971
▁Kun	-9972
▁synt	-9973
usk	-9974
Miss	-9975
ragon	-9976
▁ό	-9977
rix	-9978
▁resign	-9979
orph	-9980
▁250	-9981
▁Foreign	-9982
▁hundreds	-9983
ín	-9984
▁soit	-9985
▁Labor	-9986
folk	-9987
▁examination	-9988
vant	-9989
▁expense	-9990
iten	-9991
pher	-9992
▁Dark	-9993
▁Labour	-9994
ulating	-9995
HT	-9996
▁Sac	-9997
▁Matthew	-9998
adt	-9999
▁Dieu	-10000
▁prud	-10001
▁whence	-10002
▁intense	-10003
bbed	-10004
Mich	-10005
ogle	-10006
bound	-10007
unted	-10008
arling	-10009
▁Luther	-10010
▁copies	-10011
▁medium	-10012
arrass	-10013
lete	-10014
orte	-10015
▁Log	-10016
▁cards	-10017
imal	-10018
veland	-10019
▁succession	-10020
▁Ul	-10021
▁excuse	-10022
▁resting	-10023
oca	-10024
esar	-10025
achment	-10026
▁commenced	-10027
▁mac	-10028
ahoma	-10029
▁treas	-10030
15.	-10031
▁jon	-10032
▁Vinc	-10033
▁shared	-10034
ART	-10035
odge	-10036
▁fasc	-10037
▁unter	-10038
▁Sometimes	-10039
ohl	-10040
▁hee	-10041
leans	-10042
▁stronger	-10043
mel	-10044
bourg	-10045
▁Between	-10046
▁resulting	-10047
▁representative	-10048
▁Czech	-10049
▁representation	-10050
▁acquainted	-10051
Ab	-10052
Cap	-10053
dest	-10054
▁Karl	-10055
▁Region	-10056
▁Iraq	-10057
▁wondered	-10058
▁classical	-10059
2=	-10060
sted	-10061
▁seg	-10062
asting	-10063
▁olisi	-10064
▁unique	-10065
▁merchant	-10066
:0	-10067
▁sisters	-10068
▁departed	-10069
oscow	-10070
▁Trib	-10071
▁poems	-10072
▁powder	-10073
▁accused	-10074
▁compass	-10075
▁consisting	-10076
assador	-10077
▁cheeks	-10078
▁freely	-10079
▁versions	-10080
▁testim	-10081
shine	-10082
▁kans	-10083
▁wieder	-10084
ié	-10085
ACAA	-10086
▁serves	-10087
Australian	-10088
ovel	-10089
orden	-10090
▁Roberts	-10091
▁blaz	-10092
▁Premier	-10093
▁semi	-10094
▁bride	-10095
▁Chapter	-10096
▁converted	-10097
▁8/8/8/8/	-10098
▁insisted	-10099
▁κα	-10100
case	-10101
bal	-10102
▁flame	-10103
▁prize	-10104
entially	-10105
▁renamed	-10106
▁cultural	-10107
▁generous	-10108
▁manuscript	-10109
abl	-10110
–17	-10111
._--	-10112
▁Infantry	-10113
▁respectively	-10114
▁mob	-10115
ocese	-10116
ación	-10117
uw	-10118
ambig	-10119
▁furnished	-10120
▁celui	-10121
▁26,	-10122
▁champion	-10123
▁musicians	-10124
▁Ges	-10125
▁supplies	-10126
FFFF	-10127
ommod	-10128
▁Ale	-10129
▁borne	-10130
▁united	-10131
▁dreadful	-10132
▁software	-10133
orro	-10134
angle	-10135
▁comr	-10136
▁sched	-10137
▁whenever	-10138
▁theme	-10139
▁ministers	-10140
▁sé	-10141
▁rope	-10142
▁sales	-10143
▁exists	-10144
▁unhappy	-10145
▁whereas	-10146
▁~	-10147
omed	-10148
acement	-10149
▁recover	-10150
▁supplied	-10151
oves	-10152
▁Chris	-10153
▁spare	-10154
▁ending	-10155
▁Without	-10156
▁commerce	-10157
▁Vis	-10158
▁eleg	-10159
▁ranks	-10160
▁conviction	-10161
▁remarks	-10162
edge	-10163
▁lest	-10164
usions	-10165
▁Ni	-10166
▁Isa	-10167
▁Wolf	-10168
▁Tower	-10169
▁translated	-10170
grad	-10171
when	-10172
▁Bert	-10173
▁worden	-10174
Cal	-10175
▁pä	-10176
▁gem	-10177
▁Ever	-10178
▁pause	-10179
▁liberal	-10180
tu	-10181
aksi	-10182
Res	-10183
▁aur	-10184
▁dern	-10185
▁grate	-10186
▁Switzerland	-10187
οι	-10188
xture	-10189
▁poll	-10190
▁battles	-10191
aja	-10192
▁Ron	-10193
cluding	-10194
amo	-10195
▁lou	-10196
▁covering	-10197
▁attracted	-10198
liche	-10199
▁shift	-10200
▁Bureau	-10201
▁balance	-10202
▁forever	-10203
stic	-10204
▁Dave	-10205
▁arrive	-10206
▁withdraw	-10207
▁potential	-10208
▁lieutenant	-10209
enez	-10210
▁1976	-10211
▁23,	-10212
▁savage	-10213
riptions	-10214
▁artific	-10215
▁philosoph	-10216
ätt	-10217
▁shining	-10218
ALL	-10219
éri	-10220
East	-10221
▁executed	-10222
▁unfortunate	-10223
▁denied	-10224
▁Denmark	-10225
FFFDF	-10226
▁borrow	-10227
▁pied	-10228
klahoma	-10229
▁Five	-10230
▁Channel	-10231
▁adapted	-10232
DE	-10233
DFFFDF	-10234
▁notion	-10235
rust	-10236
orney	-10237
▁1900	-10238
▁root	-10239
▁visitors	-10240
uni	-10241
▁Ori	-10242
▁neut	-10243
▁pitch	-10244
▁negoti	-10245
▁glanced	-10246
▁Franklin	-10247
▁kan	-10248
▁limits	-10249
▁forgot	-10250
▁cutting	-10251
▁Louisiana	-10252
bat	-10253
oda	-10254
▁puzz	-10255
▁Hills	-10256
▁Notable	-10257
▁render	-10258
Bill	-10259
▁Cass	-10260
▁initi	-10261
εί	-10262
apes	-10263
ountain	-10264
▁Romans	-10265
quote	-10266
▁Mayor	-10267
▁Olympic	-10268
0"	-10269
sters	-10270
▁magic	-10271
▁Gallery	-10272
▁vehicle	-10273
▁Inn	-10274
▁clo	-10275
▁grim	-10276
▁diver	-10277
▁sanoi	-10278
actions	-10279
ags	-10280
▁Phill	-10281
▁enormous	-10282
▁suspicion	-10283
▁enthusiasm	-10284
▁disposition	-10285
▁sab	-10286
keeper	-10287
ictions	-10288
▁colony	-10289
▁secondary	-10290
MP	-10291
▁28,	-10292
▁Cre	-10293
▁sank	-10294
▁fatig	-10295
▁recip	-10296
▁forehead	-10297
Ju	-10298
wind	-10299
▁Beat	-10300
▁Conservative	-10301
apse	-10302
▁summon	-10303
city	-10304
▁Advent	-10305
▁Commons	-10306
▁readily	-10307
▁instructions	-10308
▁campus	-10309
Bar	-10310
tym	-10311
▁presents	-10312
ulu	-10313
▁wur	-10314
▁Antonio	-10315
▁delighted	-10316
orde	-10317
▁1972	-10318
▁Norman	-10319
▁Business	-10320
▁charming	-10321
▁irrit	-10322
▁Jam	-10323
▁Edinburgh	-10324
▁directions	-10325
ić	-10326
▁90	-10327
▁vä	-10328
▁saint	-10329
▁sembl	-10330
▁eagerly	-10331
▁troubled	-10332
▁pul	-10333
▁vielä	-10334
▁identified	-10335
▁steady	-10336
▁accompany	-10337
mus	-10338
▁fortun	-10339
▁occurs	-10340
▁ignorant	-10341
▁suitable	-10342
▁Tai	-10343
▁laiss	-10344
-5	-10345
▁hanging	-10346
▁Alber	-10347
▁rarely	-10348
▁BY	-10349
ridge	-10350
cat	-10351
▁eg	-10352
▁burden	-10353
▁useless	-10354
cal	-10355
oko	-10356
stal	-10357
▁Near	-10358
natural	-10359
▁clock	-10360
▁genus	-10361
Mil	-10362
▁2012,	-10363
,—	-10364
izz	-10365
tes	-10366
quest	-10367
▁Gent	-10368
▁tide	-10369
▁ingen	-10370
oyd	-10371
▁tel	-10372
▁Harris	-10373
▁WH	-10374
▁kau	-10375
▁père	-10376
▁Peters	-10377
▁lately	-10378
▁Arkansas	-10379
▁loving	-10380
▁Children	-10381
gie	-10382
▁resumed	-10383
▁ky	-10384
▁bid	-10385
etime	-10386
▁Mack	-10387
stan	-10388
▁nel	-10389
elect	-10390
▁1918	-10391
itional	-10392
det	-10393
oard	-10394
▁Fel	-10395
▁onder	-10396
▁tranqu	-10397
▁Right	-10398
▁devant	-10399
▁seriously	-10400
▁properties	-10401
▁contra	-10402
position	-10403
▁quarrel	-10404
▁regional	-10405
ylon	-10406
▁pla	-10407
oiselle	-10408
▁wird	-10409
ACAG	-10410
▁Bernard	-10411
▁Diego	-10412
▁astron	-10413
▁employment	-10414
▁bronze	-10415
▁prejud	-10416
ictional	-10417
blockquote	-10418
▁faced	-10419
EFC	-10420
▁porte	-10421
▁rebell	-10422
▁pursued	-10423
▁gaze	-10424
▁uttered	-10425
▁programming	-10426
▁utmost	-10427
▁identity	-10428
assen	-10429
▁pilot	-10430
▁plainly	-10431
▁travers	-10432
star	-10433
▁gau	-10434
▁online	-10435
cad	-10436
door	-10437
party	-10438
▁distress	-10439
▁retained	-10440
kö	-10441
▁wra	-10442
western	-10443
▁venture	-10444
▁chemical	-10445
mund	-10446
onom	-10447
▁1978	-10448
▁roots	-10449
ographer	-10450
▁expanded	-10451
▁15.	-10452
kaan	-10453
▁Bud	-10454
allas	-10455
rates	-10456
▁wearing	-10457
▁150	-10458
▁kissed	-10459
▁statue	-10460
ambiguation	-10461
▁leadership	-10462
▁mou	-10463
▁tie	-10464
first	-10465
ordan	-10466
▁academic	-10467
▁ai	-10468
–202	-10469
▁(?),	-10470
▁beast	-10471
▁vital	-10472
▁deed	-10473
▁seine	-10474
▁Natural	-10475
Feb	-10476
▁Morgan	-10477
▁reserve	-10478
orf	-10479
▁til	-10480
▁physician	-10481
▁Khan	-10482
▁Rand	-10483
EFCFFF	-10484
▁quart	-10485
▁faculty	-10486
bf	-10487
▁lighted	-10488
▁descended	-10489
Pol	-10490
▁#"	-10491
urely	-10492
▁Melbourne	-10493
ften	-10494
▁177	-10495
hesis	-10496
▁contributed	-10497
▁cave	-10498
▁Heart	-10499
▁Ministry	-10500
▁reception	-10501
▁(199	-10502
▁Week	-10503
▁blame	-10504
▁providing	-10505
withstanding	-10506
cos	-10507
imore	-10508
RY	-10509
▁uma	-10510
▁accommod	-10511
bben	-10512
▁Rub	-10513
▁Chart	-10514
▁Fried	-10515
▁Turkish	-10516
▁sending	-10517
▁patience	-10518
▁Theod	-10519
12,	-10520
Liber	-10521
▁victim	-10522
uke	-10523
▁mud	-10524
▁rural	-10525
▁trick	-10526
▁Turkey	-10527
aza	-10528
ellers	-10529
cycl	-10530
▁Writ	-10531
▁bark	-10532
render	-10533
▁pant	-10534
▁Armen	-10535
▁Dublin	-10536
▁Hockey	-10537
▁Patrick	-10538
▁alternative	-10539
Rec	-10540
▁27,	-10541
▁annoy	-10542
▁entry	-10543
▁scorn	-10544
▁designated	-10545
▁terre	-10546
PP	-10547
▁$2	-10548
▁angel	-10549
▁brings	-10550
▁Singapore	-10551
▁Kal	-10552
ACTC	-10553
endre	-10554
▁Name	-10555
▁kil	-10556
▁suspect	-10557
▁gates	-10558
casting	-10559
▁apartment	-10560
▁historic	-10561
▁owing	-10562
▁briefly	-10563
▁4:	-10564
ulus	-10565
ullen	-10566
▁merch	-10567
▁Ay	-10568
▁festival	-10569
▁FA	-10570
▁sais	-10571
itudes	-10572
▁Arizona	-10573
▁ignorance	-10574
cro	-10575
▁IX	-10576
▁civilization	-10577
hill	-10578
opes	-10579
▁Kir	-10580
▁Member	-10581
▁thence	-10582
▁dancing	-10583
IO	-10584
rup	-10585
ACTT	-10586
Just	-10587
▁Rap	-10588
▁childhood	-10589
▁electoral	-10590
ème	-10591
▁speaks	-10592
zel	-10593
▁Sic	-10594
▁Technology	-10595
Ep	-10596
▁Web	-10597
▁Lane	-10598
▁Soon	-10599
adas	-10600
State	-10601
erd	-10602
ijd	-10603
TGTT	-10604
▁ceux	-10605
▁Hence	-10606
▁Muslim	-10607
▁Campbell	-10608
▁nevertheless	-10609
▁Mes	-10610
▁rav	-10611
inned	-10612
▁Forces	-10613
▁assass	-10614
▁nights	-10615
▁Convention	-10616
▁Has	-10617
▁Marine	-10618
▁monument	-10619
whe	-10620
▁unc	-10621
▁ming	-10622
▁immig	-10623
▁adventure	-10624
▁displayed	-10625
▁tan	-10626
▁Final	-10627
▁Holly	-10628
▁loves	-10629
▁wedding	-10630
marine	-10631
▁drinking	-10632
▁Pil	-10633
▁format	-10634
▁Belgium	-10635
▁wretched	-10636
Win	-10637
▁Note	-10638
▁tun	-10639
▁shock	-10640
▁Oak	-10641
▁Mach	-10642
▁isol	-10643
▁cliff	-10644
▁γ	-10645
ummary	-10646
iksi	-10647
▁revel	-10648
gressive	-10649
▁Neb	-10650
▁Lt	-10651
▁16.	-10652
▁bis	-10653
▁mehr	-10654
▁selection	-10655
Fran	-10656
enne	-10657
Robert	-10658
▁decide	-10659
▁target	-10660
.),	-10661
helm	-10662
inge	-10663
▁Yan	-10664
emale	-10665
▁Fern	-10666
▁volt	-10667
▁sleeping	-10668
!_	-10669
▁hers	-10670
▁gazed	-10671
▁colors	-10672
▁protected	-10673
▁overt	-10674
▁expansion	-10675
▁trained	-10676
ji	-10677
omo	-10678
▁Morris	-10679
▁fitted	-10680
▁vit	-10681
▁coin	-10682
ructure	-10683
▁Murray	-10684
▁Protestant	-10685
éra	-10686
acts	-10687
aneous	-10688
▁Hotel	-10689
▁crowded	-10690
▁mistaken	-10691
▁coordinates	-10692
▁vow	-10693
stream	-10694
▁peoples	-10695
▁nurse	-10696
▁curtain	-10697
chter	-10698
▁Spani	-10699
▁intim	-10700
▁implement	-10701
▁¿	-10702
ranean	-10703
▁jours	-10704
▁Hampshire	-10705
▁entertain	-10706
some	-10707
▁Fil	-10708
▁copper	-10709
lementary	-10710
disambiguation	-10711
iang	-10712
▁persec	-10713
▁Bou	-10714
inate	-10715
λλ	-10716
▁Na	-10717
orse	-10718
ishops	-10719
▁desperate	-10720
▁trembling	-10721
▁apt	-10722
▁cheek	-10723
▁midnight	-10724
ijn	-10725
inte	-10726
▁eating	-10727
▁immort	-10728
▁examined	-10729
elev	-10730
▁cabinet	-10731
▁conference	-10732
isd	-10733
▁(3	-10734
▁sailed	-10735
vor	-10736
▁2025	-10737
Im	-10738
16.	-10739
▁Philos	-10740
▁marched	-10741
▁madame	-10742
▁designs	-10743
subdivision	-10744
ις	-10745
From	-10746
änsä	-10747
cap	-10748
▁41	-10749
rained	-10750
Charles	-10751
▁Democr	-10752
▁Bry	-10753
▁zum	-10754
lett	-10755
offs	-10756
▁lock	-10757
▁nowrap	-10758
abs	-10759
▁yo	-10760
▁bath	-10761
▁lors	-10762
▁Trust	-10763
term	-10764
▁contrad	-10765
▁Mountains	-10766
▁doubtless	-10767
▁haben	-10768
▁kunn	-10769
▁swall	-10770
▁achieved	-10771
▁rejected	-10772
._]	-10773
▁Ts	-10774
TGGGC	-10775
ipper	-10776
▁1977	-10777
▁Rest	-10778
▁producing	-10779
jà	-10780
PWH	-10781
rod	-10782
▁shoes	-10783
▁universe	-10784
▁1981	-10785
▁repr	-10786
▁Illust	-10787
▁scholars	-10788
▁¡	-10789
▁29,	-10790
apolis	-10791
▁Kennedy	-10792
▁critics	-10793
uren	-10794
▁1968	-10795
▁Phys	-10796
▁2013,	-10797
▁infect	-10798
▁dispos	-10799
▁charges	-10800
▁assembly	-10801
pat	-10802
—||	-10803
▁Nav	-10804
arded	-10805
▁1940	-10806
▁denn	-10807
▁Would	-10808
▁antiqu	-10809
▁injured	-10810
▁sto	-10811
▁perd	-10812
▁dates	-10813
▁micro	-10814
▁determine	-10815
▁pir	-10816
▁stem	-10817
leader	-10818
▁Garden	-10819
▁ultimately	-10820
▁magnificent	-10821
▁Nelson	-10822
▁manage	-10823
▁την	-10824
▁bears	-10825
▁Dak	-10826
berry	-10827
▁affl	-10828
gement	-10829
▁Bulgar	-10830
▁Say	-10831
Color	-10832
▁folks	-10833
orig	-10834
ATTTC	-10835
▁overw	-10836
▁firmly	-10837
▁negative	-10838
OK	-10839
▁Sid	-10840
▁dialect	-10841
▁stared	-10842
▁suggestion	-10843
ACG	-10844
lik	-10845
▁tob	-10846
▁dess	-10847
avel	-10848
▁Years	-10849
endment	-10850
▁barbar	-10851
leen	-10852
▁1975	-10853
anche	-10854
atten	-10855
▁Bh	-10856
▁NC	-10857
▁mett	-10858
regular	-10859
▁facility	-10860
▁vehicles	-10861
nut	-10862
omon	-10863
▁Geography	-10864
▁prevented	-10865
.«	-10866
itus	-10867
▁kir	-10868
erness	-10869
▁Racing	-10870
▁beings	-10871
▁explos	-10872
▁highway	-10873
▁sites	-10874
▁Moscow	-10875
▁clothing	-10876
▁afterward	-10877
▁depuis	-10878
goals	-10879
▁newspapers	-10880
–3	-10881
▁vap	-10882
world	-10883
▁Mars	-10884
rt	-10885
▁75	-10886
rogen	-10887
400	-10888
▁MA	-10889
|100	-10890
ienna	-10891
▁Naval	-10892
▁bosom	-10893
▁heure	-10894
▁prayers	-10895
▁55	-10896
▁mole	-10897
▁Real	-10898
▁Stanley	-10899
dr	-10900
▁musician	-10901
▁ruled	-10902
▁signature	-10903
TE	-10904
udo	-10905
êtes	-10906
ancholy	-10907
▁readers	-10908
▁Las	-10909
▁defense	-10910
▁comparison	-10911
▁GG	-10912
inqu	-10913
▁mant	-10914
▁Johann	-10915
▁adding	-10916
ivo	-10917
▁τα	-10918
race	-10919
weet	-10920
▁Donald	-10921
▁consequences	-10922
GB	-10923
inus	-10924
▁Esp	-10925
apsed	-10926
▁chim	-10927
▁Actor	-10928
▁Orleans	-10929
▁narrative	-10930
▁USA	-10931
March	-10932
▁1920	-10933
▁|202	-10934
▁prohib	-10935
▁overall	-10936
ecutive	-10937
4]	-10938
list	-10939
ussia	-10940
▁Monte	-10941
▁fires	-10942
▁Abd	-10943
▁olivat	-10944
IFA	-10945
olar	-10946
riers	-10947
▁Alan	-10948
iones	-10949
▁intr	-10950
coming	-10951
▁argued	-10952
▁talent	-10953
▁NA	-10954
▁ram	-10955
▁farmer	-10956
▁lonely	-10957
▁representing	-10958
SR	-10959
15,	-10960
wegian	-10961
▁2015,	-10962
▁lust	-10963
▁romantic	-10964
▁suspected	-10965
sea	-10966
Note	-10967
also	-10968
▁egy	-10969
▁Gene	-10970
▁Cooper	-10971
▁autumn	-10972
▁belongs	-10973
▁disposed	-10974
Ke	-10975
tw	-10976
▁fille	-10977
unications	-10978
ITH	-10979
raham	-10980
▁altar	-10981
▁strain	-10982
iversary	-10983
▁painful	-10984
▁Ali	-10985
▁restaur	-10986
▁resident	-10987
▁Village	-10988
rub	-10989
olla	-10990
▁â	-10991
otta	-10992
such	-10993
▁Horn	-10994
▁inev	-10995
History	-10996
▁crisis	-10997
▁changing	-10998
fire	-10999
▁bin	-11000
jamin	-11001
▁1973	-11002
▁documents	-11003
Old	-11004
_--	-11005
▁Sky	-11006
▁Call	-11007
▁assez	-11008
μα	-11009
akh	-11010
elia	-11011
▁org	-11012
%"	-11013
▁achieve	-11014
▁Ky	-11015
onna	-11016
▁gre	-11017
▁tiny	-11018
▁prote	-11019
▁projects	-11020
▁instances	-11021
▁territories	-11022
icide	-11023
▁Fitz	-11024
▁tact	-11025
▁heeft	-11026
gery	-11027
▁Egyptian	-11028
▁convention	-11029
Il	-11030
break	-11031
icing	-11032
▁urban	-11033
▁raising	-11034
▁winners	-11035
▁delightful	-11036
▁Row	-11037
▁Goth	-11038
▁2014,	-11039
▁successfully	-11040
rowned	-11041
▁dared	-11042
▁Bor	-11043
▁Cit	-11044
▁sanct	-11045
iez	-11046
CFCFFF	-11047
▁Ralph	-11048
▁embarrass	-11049
▁equivalent	-11050
heure	-11051
▁abrupt	-11052
▁ci	-11053
ijke	-11054
▁hurry	-11055
▁absent	-11056
▁armies	-11057
▁infantry	-11058
▁52	-11059
▁strengthen	-11060
▁closer	-11061
▁racing	-11062
▁engines	-11063
▁sorts	-11064
▁shadows	-11065
▁Sciences	-11066
XX	-11067
Reg	-11068
▁dow	-11069
cur	-11070
▁54	-11071
▁senses	-11072
▁Mission	-11073
SE	-11074
▁erected	-11075
/8/8	-11076
Great	-11077
▁Bapt	-11078
▁tempor	-11079
fff	-11080
▁noon	-11081
▁discont	-11082
17.	-11083
▁Ald	-11084
Summary	-11085
▁grandfather	-11086
former	-11087
▁anchor	-11088
▁describes	-11089
atched	-11090
▁corpor	-11091
▁Independent	-11092
üh	-11093
▁fog	-11094
▁hadn	-11095
▁disgr	-11096
▁animated	-11097
▁θ	-11098
▁Ess	-11099
▁Gener	-11100
▁Personal	-11101
iverpool	-11102
▁demands	-11103
▁writings	-11104
▁preparation	-11105
▁dich	-11106
apping	-11107
itious	-11108
bliography	-11109
uart	-11110
▁dei	-11111
▁hind	-11112
▁vaan	-11113
▁commence	-11114
▁instruction	-11115
ieval	-11116
ouston	-11117
▁pushpin	-11118
rä	-11119
mind	-11120
endar	-11121
▁Medical	-11122
▁hastily	-11123
only	-11124
udson	-11125
▁2000,	-11126
uld	-11127
▁somehow	-11128
▁Richmond	-11129
▁tear	-11130
▁intelligent	-11131
lock	-11132
▁elim	-11133
▁poured	-11134
▁indicate	-11135
ammar	-11136
▁murmured	-11137
▁Cond	-11138
▁predecessor	-11139
▁Pas	-11140
▁Eric	-11141
called	-11142
▁Brian	-11143
▁allows	-11144
▁ashamed	-11145
▁reaction	-11146
▁preferred	-11147
oba	-11148
empl	-11149
▁alors	-11150
▁anywhere	-11151
▁evolution	-11152
With	-11153
uded	-11154
DS	-11155
▁Tell	-11156
iciency	-11157
▁eh	-11158
eron	-11159
▁sty	-11160
uerto	-11161
▁forests	-11162
arten	-11163
▁Etym	-11164
▁brow	-11165
▁confined	-11166
▁counties	-11167
▁preserve	-11168
▁preceding	-11169
sky	-11170
uine	-11171
▁flash	-11172
▁misery	-11173
iko	-11174
▁cir	-11175
▁marble	-11176
▁Jimmy	-11177
▁sections	-11178
▁RE	-11179
aucoup	-11180
▁cents	-11181
▁refers	-11182
▁Stewart	-11183
alog	-11184
▁plane	-11185
▁Know	-11186
▁pace	-11187
▁straw	-11188
▁ethnic	-11189
▁Instead	-11190
▁giant	-11191
▁bottle	-11192
▁repeat	-11193
▁impatient	-11194
izer	-11195
ducing	-11196
▁liquid	-11197
▁remainder	-11198
ungs	-11199
ritten	-11200
iami	-11201
rock	-11202
unci	-11203
▁wars	-11204
▁Moses	-11205
▁merit	-11206
▁magist	-11207
Mal	-11208
reb	-11209
inian	-11210
▁****	-11211
▁Pear	-11212
▁dispute	-11213
emoiselle	-11214
▁inferior	-11215
Tis	-11216
▁Put	-11217
-6	-11218
▁avaient	-11219
▁chairman	-11220
▁assembled	-11221
▁SH	-11222
oret	-11223
▁(1)	-11224
▁Guy	-11225
▁ged	-11226
▁Beng	-11227
insula	-11228
▁flung	-11229
▁hitherto	-11230
BL	-11231
CT	-11232
|18	-11233
inea	-11234
▁XXX	-11235
season	-11236
▁recommend	-11237
avia	-11238
orum	-11239
▁17.	-11240
▁lun	-11241
▁Prop	-11242
▁buff	-11243
▁shooting	-11244
osi	-11245
▁NAS	-11246
▁vos	-11247
▁kann	-11248
02.	-11249
▁nut	-11250
Hispanic	-11251
▁passenger	-11252
▁Run	-11253
▁Design	-11254
▁slipped	-11255
mil	-11256
ène	-11257
▁101	-11258
▁Hawai	-11259
▁helpless	-11260
thm	-11261
ocal	-11262
inery	-11263
▁load	-11264
ancellor	-11265
▁Nevertheless	-11266
rez	-11267
▁(4	-11268
ensed	-11269
igenous	-11270
▁beloved	-11271
▁temporary	-11272
▁appointment	-11273
DFDF	-11274
eded	-11275
resse	-11276
estine	-11277
▁2004,	-11278
▁returns	-11279
wij	-11280
▁kid	-11281
asped	-11282
ifies	-11283
▁Mand	-11284
▁petit	-11285
▁Faith	-11286
▁hebben	-11287
othe	-11288
▁déf	-11289
▁device	-11290
▁disag	-11291
atically	-11292
▁Chamber	-11293
▁promoted	-11294
▁gratitude	-11295
öm	-11296
years	-11297
▁investigation	-11298
aban	-11299
▁Pont	-11300
▁differences	-11301
nyt	-11302
rev	-11303
alian	-11304
▁poly	-11305
ashing	-11306
mances	-11307
▁mol	-11308
▁500|	-11309
▁Jerry	-11310
▁pendant	-11311
▁necessarily	-11312
rès	-11313
▁|7	-11314
Paul	-11315
▁insult	-11316
▁ON	-11317
▁mé	-11318
rome	-11319
nty	-11320
ACTG	-11321
green	-11322
rican	-11323
resents	-11324
▁seconds	-11325
▁thereby	-11326
zed	-11327
eland	-11328
estä	-11329
ruck	-11330
▁Mind	-11331
▁benef	-11332
▁chapel	-11333
▁Persian	-11334
▁côt	-11335
▁entr	-11336
▁incon	-11337
▁charity	-11338
▁Thompson	-11339
/19	-11340
sti	-11341
▁Eug	-11342
▁Word	-11343
▁kaikki	-11344
▁colours	-11345
▁session	-11346
▁badly	-11347
▁sixth	-11348
▁volunte	-11349
▁Commonwealth	-11350
ymn	-11351
▁εί	-11352
▁admin	-11353
▁provision	-11354
?...	-11355
▁elabor	-11356
▁causing	-11357
course	-11358
▁decre	-11359
▁horrible	-11360
illon	-11361
round	-11362
pi	-11363
aco	-11364
▁tak	-11365
▁franch	-11366
▁digital	-11367
▁§	-11368
||2	-11369
irts	-11370
▁disg	-11371
▁adjust	-11372
▁accordingly	-11373
unut	-11374
▁Beg	-11375
aning	-11376
▁enabled	-11377
▁supre	-11378
▁obvious	-11379
VD	-11380
▁Unt	-11381
hearted	-11382
▁remote	-11383
▁Austrian	-11384
▁tendency	-11385
roid	-11386
castle	-11387
▁grasp	-11388
▁merry	-11389
▁misfort	-11390
▁Municipality	-11391
ια	-11392
Red	-11393
lee	-11394
▁ao	-11395
▁Career	-11396
▁judges	-11397
Look	-11398
acre	-11399
▁eloqu	-11400
▁phase	-11401
▁Oklahoma	-11402
▁suo	-11403
ieurs	-11404
▁Woman	-11405
▁Building	-11406
NH	-11407
▁focus	-11408
▁lasted	-11409
▁missed	-11410
▁Cemetery	-11411
▁engineering	-11412
▁Cour	-11413
▁doth	-11414
▁häntä	-11415
▁ambition	-11416
▁Hebrew	-11417
TCAG	-11418
number	-11419
▁bowed	-11420
▁gardens	-11421
▁melancholy	-11422
▁relatively	-11423
▁ya	-11424
ferent	-11425
▁Upper	-11426
▁Record	-11427
▁hungry	-11428
CO	-11429
▁sore	-11430
▁Bruce	-11431
▁appar	-11432
▁Box	-11433
▁safely	-11434
▁Mi	-11435
gric	-11436
ortheast	-11437
▁hay	-11438
▁Moreover	-11439
▁performing	-11440
όν	-11441
▁desk	-11442
▁Honor	-11443
▁princess	-11444
▁wreck	-11445
▁attain	-11446
▁ED	-11447
▁fab	-11448
Che	-11449
Year	-11450
▁thir	-11451
▁beaucoup	-11452
▁neighbourhood	-11453
!»	-11454
ghan	-11455
hall	-11456
▁cad	-11457
black	-11458
▁Latino	-11459
▁Cathedral	-11460
phew	-11461
uming	-11462
▁1967	-11463
antine	-11464
▁Charlotte	-11465
▁Dra	-11466
▁Champions	-11467
=5	-11468
App	-11469
▁pronounced	-11470
▁1964	-11471
▁practically	-11472
etti	-11473
▁lion	-11474
▁mortal	-11475
▁miel	-11476
▁rice	-11477
August	-11478
▁haste	-11479
▁sympt	-11480
▁Electric	-11481
TON	-11482
orship	-11483
▁arist	-11484
▁regularly	-11485
oga	-11486
eline	-11487
▁locomot	-11488
▁reflected	-11489
120	-11490
▁beaten	-11491
▁planet	-11492
▁stroke	-11493
▁tobacco	-11494
ierra	-11495
▁Hend	-11496
▁comic	-11497
▁lowest	-11498
▁masses	-11499
▁prepare	-11500
▁fed	-11501
▁shed	-11502
▁Season	-11503
▁crying	-11504
▁Affairs	-11505
▁continually	-11506
"),	-11507
agy	-11508
▁Ga	-11509
▁Full	-11510
▁echo	-11511
▁sins	-11512
▁forgive	-11513
▁Tob	-11514
▁Carter	-11515
▁Lis	-11516
▁tank	-11517
▁Federation	-11518
▁discipline	-11519
ieth	-11520
utor	-11521
▁Sant	-11522
▁vague	-11523
▁reasonable	-11524
5]	-11525
NS	-11526
▁perf	-11527
▁celle	-11528
▁furniture	-11529
Cons	-11530
▁kom	-11531
▁precis	-11532
▁purple	-11533
▁extension	-11534
▁Fall	-11535
pur	-11536
Jack	-11537
AAATT	-11538
▁mail	-11539
▁columns	-11540
ahan	-11541
serv	-11542
▁2017,	-11543
▁alleged	-11544
το	-11545
▁proposal	-11546
nu	-11547
nia	-11548
âte	-11549
▁pip	-11550
▁bone	-11551
▁cottage	-11552
bid	-11553
▁conception	-11554
▁convenient	-11555
CL	-11556
%20	-11557
gow	-11558
ánd	-11559
oule	-11560
▁rit	-11561
adise	-11562
▁Dead	-11563
▁Nous	-11564
▁mitä	-11565
▁ours	-11566
▁Franç	-11567
▁Robinson	-11568
▁Historical	-11569
▁leis	-11570
▁queer	-11571
▁traged	-11572
▁favourite	-11573
–16	-11574
imum	-11575
▁Andre	-11576
▁Maine	-11577
▁covers	-11578
▁boundary	-11579
▁Nik	-11580
▁1969	-11581
▁Brigade	-11582
▁2018,	-11583
▁begged	-11584
▁announce	-11585
ió	-11586
lla	-11587
imer	-11588
▁Cos	-11589
▁seas	-11590
▁modest	-11591
▁Squadron	-11592
ßen	-11593
▁με	-11594
▁Grey	-11595
▁vier	-11596
▁typical	-11597
▁represents	-11598
ως	-11599
inda	-11600
▁Clay	-11601
▁Hungary	-11602
▁supporting	-11603
▁Kate	-11604
terior	-11605
▁Wright	-11606
▁fruits	-11607
vé	-11608
onte	-11609
otto	-11610
uccess	-11611
▁theat	-11612
▁pursuit	-11613
▁Vic	-11614
▁2016,	-11615
▁général	-11616
▁Internet	-11617
sur	-11618
aned	-11619
▁Local	-11620
▁masters	-11621
▁standards	-11622
▁prosec	-11623
▁timber	-11624
▁Montreal	-11625
▁steadily	-11626
▁Py	-11627
▁Get	-11628
▁aug	-11629
eenth	-11630
▁Frances	-11631
▁devotion	-11632
▁somebody	-11633
▁legislation	-11634
erver	-11635
▁Buff	-11636
▁wives	-11637
elevation	-11638
▁throwing	-11639
pä	-11640
inä	-11641
▁rested	-11642
▁confused	-11643
_).	-11644
omach	-11645
▁defect	-11646
▁ib	-11647
▁Aqu	-11648
▁Por	-11649
▁aller	-11650
▁milit	-11651
▁sharply	-11652
THE	-11653
▁(2)	-11654
▁deeper	-11655
▁colonies	-11656
homme	-11657
lections	-11658
▁treasure	-11659
ahl	-11660
rik	-11661
|20	-11662
▁proced	-11663
▁eighteen	-11664
IAN	-11665
inence	-11666
▁deleg	-11667
▁resigned	-11668
oirs	-11669
▁arrangements	-11670
ismo	-11671
Total	-11672
achelor	-11673
▁Catherine	-11674
▁behalf	-11675
▁publisher	-11676
▁Mov	-11677
▁Poor	-11678
▁cries	-11679
▁crimes	-11680
▁colonel	-11681
▁Political	-11682
about	-11683
▁toss	-11684
▁impulse	-11685
▁surrender	-11686
cr	-11687
▁CL	-11688
▁Ll	-11689
▁31,	-11690
▁2019,	-11691
▁grain	-11692
▁Johnny	-11693
▁rolling	-11694
▁alliance	-11695
▁followers	-11696
Sw	-11697
▁Magazine	-11698
▁favorite	-11699
!’	-11700
▁η	-11701
six	-11702
▁18.	-11703
▁fears	-11704
▁insist	-11705
▁imagined	-11706
QU	-11707
▁20.	-11708
▁silm	-11709
ikt	-11710
▁CE	-11711
▁så	-11712
oubted	-11713
▁sheet	-11714
▁Herbert	-11715
▁stable	-11716
▁supreme	-11717
▁dét	-11718
oslav	-11719
▁pine	-11720
ulsion	-11721
▁hired	-11722
▁Barbara	-11723
SA	-11724
ól	-11725
uli	-11726
wig	-11727
rift	-11728
▁Pad	-11729
▁gam	-11730
▁web	-11731
▁Cricket	-11732
6]	-11733
ppe	-11734
▁clay	-11735
▁gifts	-11736
landers	-11737
Bel	-11738
Lou	-11739
▁Farm	-11740
endent	-11741
▁Sarah	-11742
▁impact	-11743
▁reduce	-11744
▁imperial	-11745
▁overcome	-11746
▁observations	-11747
▁Gulf	-11748
▁Lion	-11749
▁Method	-11750
▁Within	-11751
▁circumstance	-11752
|3	-11753
▁pad	-11754
▁Lucy	-11755
▁Gabri	-11756
▁tones	-11757
▁contents	-11758
▁teachers	-11759
atto	-11760
fish	-11761
▁Zone	-11762
▁handle	-11763
ifically	-11764
▁fathers	-11765
▁φ	-11766
▁Admiral	-11767
bye	-11768
leased	-11769
▁Commander	-11770
▁Map	-11771
▁siege	-11772
zig	-11773
AGGCC	-11774
▁dell	-11775
▁deny	-11776
height	-11777
▁colonial	-11778
▁distinguish	-11779
▁57	-11780
▁på	-11781
▁rude	-11782
▁FM	-11783
▁déjà	-11784
▁sounded	-11785
▁discussed	-11786
icular	-11787
▁agents	-11788
▁gesch	-11789
cu	-11790
ski	-11791
▁JOH	-11792
▁Lud	-11793
▁2003,	-11794
▁fi	-11795
▁mate	-11796
▁displ	-11797
▁naked	-11798
▁vocal	-11799
iler	-11800
ribe	-11801
issait	-11802
Sch	-11803
ervatory	-11804
800	-11805
></	-11806
ourd	-11807
▁Fif	-11808
▁1919	-11809
▁FIFA	-11810
London	-11811
▁exceedingly	-11812
▁AA	-11813
▁perch	-11814
▁stair	-11815
▁Finland	-11816
jes	-11817
▁rap	-11818
gence	-11819
▁Korean	-11820
▁beating	-11821
▁definite	-11822
▁Cleveland	-11823
ket	-11824
▁auc	-11825
ilver	-11826
▁Desc	-11827
▁56	-11828
▁RO	-11829
ethe	-11830
▁performances	-11831
▁unm	-11832
▁Detroit	-11833
War	-11834
▁kön	-11835
▁thine	-11836
▁Oliver	-11837
▁testimony	-11838
▁pin	-11839
▁Hann	-11840
▁Michel	-11841
▁reflection	-11842
ilda	-11843
aired	-11844
▁José	-11845
▁lieu	-11846
▁footnotes	-11847
▁Hop	-11848
▁Boys	-11849
▁Vous	-11850
▁sentiments	-11851
▁considering	-11852
,_	-11853
urers	-11854
▁landl	-11855
▁declare	-11856
iki	-11857
herent	-11858
▁Fleet	-11859
▁enterprise	-11860
imme	-11861
▁Vienna	-11862
▁Regional	-11863
Tom	-11864
attan	-11865
▁emig	-11866
▁pear	-11867
▁ruins	-11868
▁donner	-11869
▁stadium	-11870
▁recognised	-11871
▁distributed	-11872
▁Betty	-11873
▁infinite	-11874
▁agreeable	-11875
ikh	-11876
▁Hold	-11877
▁mille	-11878
▁ranked	-11879
▁Finally	-11880
ajor	-11881
▁Mme	-11882
Greek	-11883
▁stout	-11884
▁maiden	-11885
pled	-11886
▁1971	-11887
▁enable	-11888
▁engagement	-11889
▁agricultural	-11890
Gold	-11891
grat	-11892
▁athlet	-11893
▁Schools	-11894
vironment	-11895
▁knee	-11896
headed	-11897
related	-11898
▁landscape	-11899
▁OR	-11900
AAATG	-11901
adesh	-11902
▁aloud	-11903
▁wrath	-11904
▁Borough	-11905
▁Express	-11906
▁creating	-11907
NG	-11908
▁eene	-11909
▁Speed	-11910
elected	-11911
▁sensible	-11912
▁consequently	-11913
▁neat	-11914
▁zone	-11915
▁shake	-11916
▁carbon	-11917
▁Edition	-11918
▁technical	-11919
=0	-11920
Obs	-11921
▁tales	-11922
iph	-11923
yty	-11924
▁leather	-11925
▁Madrid	-11926
▁illness	-11927
▁ell	-11928
▁Dean	-11929
▁administrative	-11930
arin	-11931
icia	-11932
ellite	-11933
▁personality	-11934
▁Om	-11935
▁accum	-11936
orkshire	-11937
▁revenge	-11938
▁declined	-11939
▁traditions	-11940
▁Finn	-11941
▁nuclear	-11942
▁abstract	-11943
▁Battalion	-11944
cca	-11945
nie	-11946
▁mm	-11947
▁curs	-11948
▁clerk	-11949
▁Athens	-11950
▁Malays	-11951
ibilities	-11952
urrection	-11953
▁sunshine	-11954
çon	-11955
▁απ	-11956
▁rag	-11957
▁exert	-11958
▁Orange	-11959
▁logo	-11960
▁Places	-11961
▁experiences	-11962
▁Tag	-11963
unities	-11964
▁cheerful	-11965
▁hym	-11966
▁ons	-11967
▁(1999	-11968
▁Arist	-11969
▁Walker	-11970
▁inquiry	-11971
▁Cec	-11972
Grand	-11973
amour	-11974
▁UEFA	-11975
▁seul	-11976
▁Marshall	-11977
ül	-11978
soft	-11979
river	-11980
▁meer	-11981
▁feast	-11982
17,	-11983
uka	-11984
urst	-11985
Sm	-11986
▁DC	-11987
▁ow	-11988
July	-11989
▁Very	-11990
▁Welsh	-11991
LD	-11992
▁Kim	-11993
▁ling	-11994
▁oath	-11995
▁apost	-11996
▁divor	-11997
▁strang	-11998
▁versch	-11999
▁jurisd	-12000
▁Abraham	-12001
▁perfection	-12002
▁sne	-12003
▁Hope	-12004
▁Produ	-12005
▁reluct	-12006
▁Ref	-12007
▁Graham	-12008
▁nephew	-12009
abet	-12010
▁COM	-12011
ían	-12012
ucht	-12013
▁arr	-12014
▁bapt	-12015
endous	-12016
▁nobles	-12017
▁Charlie	-12018
▁exhausted	-12019
▁turb	-12020
▁brick	-12021
▁peril	-12022
▁depends	-12023
▁interpre	-12024
▁jos	-12025
ambre	-12026
▁shalt	-12027
▁waist	-12028
▁Christopher	-12029
▁rug	-12030
▁Bowl	-12031
▁pian	-12032
▁Susan	-12033
▁Nation	-12034
▁Benjamin	-12035
▁SE	-12036
▁voi	-12037
▁Disney	-12038
ATATG	-12039
▁2020,	-12040
▁drunk	-12041
FA	-12042
ahn	-12043
Very	-12044
bach	-12045
Royal	-12046
Saint	-12047
▁Iron	-12048
▁Municipal	-12049
8]	-12050
▁XIV	-12051
three	-12052
▁Move	-12053
▁cens	-12054
making	-12055
▁encouraged	-12056
▁politicians	-12057
▁rou	-12058
▁auto	-12059
▁footballer	-12060
Em	-12061
erity	-12062
rency	-12063
▁soll	-12064
orters	-12065
▁enlar	-12066
▁Direct	-12067
▁controlled	-12068
▁Aus	-12069
▁Prom	-12070
▁commit	-12071
▁periods	-12072
▁starring	-12073
hm	-12074
▁NBA	-12075
icate	-12076
▁wondering	-12077
▁pig	-12078
ilian	-12079
ingle	-12080
▁voted	-12081
▁leaned	-12082
▁conquer	-12083
–4	-12084
▁provin	-12085
ément	-12086
▁1966	-12087
▁util	-12088
▁pione	-12089
▁repair	-12090
▁Security	-12091
▁ul	-12092
▁Vice	-12093
▁angle	-12094
▁multitude	-12095
asa	-12096
atte	-12097
hang	-12098
▁urg	-12099
▁Jordan	-12100
▁regards	-12101
itime	-12102
▁Equ	-12103
▁*"	-12104
ighty	-12105
ocial	-12106
▁mixture	-12107
Gl	-12108
phony	-12109
▁elles	-12110
▁sobre	-12111
del	-12112
Have	-12113
occup	-12114
▁paying	-12115
▁Indones	-12116
oys	-12117
Lord	-12118
redited	-12119
▁attent	-12120
▁prophe	-12121
▁cleared	-12122
idae	-12123
thren	-12124
▁Lost	-12125
elfare	-12126
▁Studies	-12127
▁entertainment	-12128
-7	-12129
Members	-12130
=3|	-12131
gly	-12132
annels	-12133
▁hosted	-12134
▁passages	-12135
▁provincial	-12136
-10	-12137
AATAA	-12138
▁brut	-12139
▁canal	-12140
▁casual	-12141
1=	-12142
▁Kon	-12143
iders	-12144
▁rabb	-12145
▁soup	-12146
▁maison	-12147
▁garrison	-12148
▁relatives	-12149
▁Hell	-12150
▁Mans	-12151
▁ville	-12152
▁Monday	-12153
▁transc	-12154
▁programme	-12155
anni	-12156
usively	-12157
▁rescue	-12158
▁closing	-12159
UD	-12160
▁occasional	-12161
aden	-12162
▁din	-12163
▁wake	-12164
▁Tele	-12165
▁varied	-12166
utenberg	-12167
oming	-12168
▁Alaska	-12169
▁Junior	-12170
▁Senator	-12171
▁philosopher	-12172
eton	-12173
▁scr	-12174
▁lend	-12175
astery	-12176
▁suspended	-12177
dal	-12178
hent	-12179
▁spell	-12180
▁Script	-12181
Dr	-12182
▁vivid	-12183
▁Provin	-12184
▁relieved	-12185
▁responded	-12186
▁Ka	-12187
▁ah	-12188
▁tub	-12189
legraph	-12190
▁titled	-12191
▁Program	-12192
sta	-12193
▁hin	-12194
▁decline	-12195
▁Zeit	-12196
▁près	-12197
▁seal	-12198
▁assume	-12199
▁slightest	-12200
▁ella	-12201
▁revenue	-12202
▁irregular	-12203
▁unconscious	-12204
anden	-12205
▁Seven	-12206
itating	-12207
▁happens	-12208
▁persist	-12209
▁Nicholas	-12210
▁unp	-12211
▁Norm	-12212
▁corp	-12213
▁cargo	-12214
▁Sudden	-12215
▁Singles	-12216
▁lan	-12217
June	-12218
rified	-12219
▁township	-12220
▁astonishment	-12221
January	-12222
▁telephone	-12223
Def	-12224
▁Lyn	-12225
▁incom	-12226
▁quoted	-12227
▁precipitation	-12228
FM	-12229
▁pink	-12230
▁Round	-12231
▁recalled	-12232
▁haz	-12233
▁Cart	-12234
▁funds	-12235
Part	-12236
asses	-12237
▁gathering	-12238
itti	-12239
▁factory	-12240
▁journalist	-12241
CAR	-12242
rir	-12243
unde	-12244
▁Albums	-12245
▁lament	-12246
▁experiments	-12247
ukk	-12248
▁Broadcasting	-12249
)#	-12250
té	-12251
imb	-12252
open	-12253
▁Soph	-12254
▁geen	-12255
▁distinctly	-12256
▁popularity	-12257
▁Biography	-12258
▁XI	-12259
▁ej	-12260
▁alles	-12261
▁cease	-12262
▁Gilbert	-12263
▁Vietnam	-12264
Ass	-12265
atoes	-12266
▁cared	-12267
▁nombre	-12268
▁customs	-12269
▁meetings	-12270
essä	-12271
▁slip	-12272
▁schon	-12273
▁Dakota	-12274
▁circuit	-12275
▁concealed	-12276
▁condemned	-12277
▁Nev	-12278
IES	-12279
iene	-12280
isons	-12281
udder	-12282
▁jack	-12283
sburgh	-12284
tering	-12285
▁dining	-12286
τη	-12287
lette	-12288
▁Glen	-12289
▁Trade	-12290
▁Report	-12291
▁citizen	-12292
TGGCC	-12293
▁passions	-12294
▁Elementary	-12295
▁Queensland	-12296
7]	-12297
aines	-12298
ports	-12299
▁Bush	-12300
▁recognize	-12301
▁53	-12302
onian	-12303
▁compens	-12304
▁tube	-12305
reedom	-12306
▁cheap	-12307
▁colored	-12308
▁funeral	-12309
▁kl	-12310
▁itse	-12311
▁palm	-12312
▁plac	-12313
▁Being	-12314
bet	-12315
Book	-12316
erie	-12317
Scott	-12318
▁lesson	-12319
hop	-12320
achte	-12321
▁dollar	-12322
▁victims	-12323
ohol	-12324
rise	-12325
▁Ned	-12326
▁Opp	-12327
▁vine	-12328
▁Venice	-12329
iterranean	-12330
ühr	-12331
▁Hunt	-12332
million	-12333
:“	-12334
▁debate	-12335
▁conceal	-12336
▁hopeless	-12337
▁pointing	-12338
assy	-12339
▁veter	-12340
▁visits	-12341
▁congreg	-12342
▁sixteen	-12343
▁πρ	-12344
rating	-12345
»,	-12346
ayed	-12347
▁19.	-12348
names	-12349
▁sillä	-12350
▁budget	-12351
▁processes	-12352
kel	-12353
▁MS	-12354
changed	-12355
▁factor	-12356
▁Perform	-12357
ependant	-12358
▁́	-12359
orp	-12360
▁21.	-12361
▁Pier	-12362
▁onto	-12363
▁smart	-12364
▁racial	-12365
▁representatives	-12366
acked	-12367
▁lent	-12368
worthy	-12369
-8	-12370
▁Beaut	-12371
▁Milton	-12372
▁firing	-12373
▁plates	-12374
▁advantages	-12375
encer	-12376
▁Commer	-12377
baseball	-12378
▁lap	-12379
▁prey	-12380
▁harsh	-12381
▁saddle	-12382
16,	-12383
▁Cad	-12384
▁Syl	-12385
▁Soul	-12386
▁artistic	-12387
-12	-12388
yne	-12389
▁Stuart	-12390
▁winner	-12391
▁seventy	-12392
stre	-12393
▁Ric	-12394
▁pag	-12395
Lat	-12396
ATCTC	-12397
▁Much	-12398
▁Nord	-12399
▁unlike	-12400
▁significance	-12401
osph	-12402
▁accus	-12403
▁drums	-12404
▁sober	-12405
▁genuine	-12406
▁temples	-12407
▁travelling	-12408
▁cri	-12409
ristol	-12410
▁neutral	-12411
ità	-12412
anor	-12413
rawn	-12414
▁buck	-12415
▁idle	-12416
▁Lower	-12417
▁intervals	-12418
▁oft	-12419
TTTAA	-12420
ág	-12421
may	-12422
▁Og	-12423
auer	-12424
Music	-12425
Mer	-12426
rious	-12427
▁Priv	-12428
riages	-12429
▁Maurice	-12430
▁wanting	-12431
run	-12432
▁hid	-12433
irect	-12434
▁heavens	-12435
▁attributed	-12436
uden	-12437
▁ing	-12438
▁barn	-12439
umbent	-12440
rington	-12441
musician	-12442
}\	-12443
mun	-12444
▁25.	-12445
▁Rou	-12446
▁bot	-12447
▁conspir	-12448
Christian	-12449
▁discharge	-12450
▁generations	-12451
▁Pour	-12452
aments	-12453
▁values	-12454
▁Register	-12455
▁acknowledged	-12456
▁utc	-12457
▁mijn	-12458
▁Danish	-12459
▁Orthodox	-12460
▁acres	-12461
▁muttered	-12462
▁1945	-12463
▁quer	-12464
▁unre	-12465
▁feels	-12466
▁Contin	-12467
▁finest	-12468
▁conceived	-12469
sal	-12470
000.	-12471
▁Dog	-12472
▁aer	-12473
▁Ple	-12474
▁Wes	-12475
▁mère	-12476
opping	-12477
▁facing	-12478
attering	-12479
election	-12480
▁primitive	-12481
▁definition	-12482
▁Pel	-12483
ntown	-12484
▁belle	-12485
▁deeds	-12486
uration	-12487
▁selbst	-12488
boat	-12489
anted	-12490
▁Half	-12491
▁payment	-12492
▁visitor	-12493
▁classification	-12494
yll	-12495
▁deserted	-12496
^2	-12497
."[	-12498
▁22.	-12499
▁aik	-12500
▁casa	-12501
▁objection	-12502
issue	-12503
▁Ivan	-12504
▁disturbed	-12505
fly	-12506
▁Croat	-12507
▁shone	-12508
▁subsc	-12509
▁Saints	-12510
▁Ancient	-12511
abil	-12512
ifted	-12513
icking	-12514
▁pound	-12515
ologists	-12516
="1	-12517
▁recommended	-12518
kh	-12519
▁Tig	-12520
▁Ellen	-12521
▁Hudson	-12522
▁preparing	-12523
▁inspiration	-12524
PH	-12525
onda	-12526
▁dann	-12527
▁heir	-12528
▁scre	-12529
▁Agric	-12530
▁Shall	-12531
stances	-12532
▁volunt	-12533
issions	-12534
▁continuous	-12535
yers	-12536
▁wagon	-12537
lesiast	-12538
European	-12539
▁Actress	-12540
été	-12541
▁PL	-12542
▁Ach	-12543
▁Raj	-12544
▁Jacques	-12545
▁artificial	-12546
▁Gh	-12547
▁PRO	-12548
▁Nar	-12549
▁yht	-12550
▁cash	-12551
▁plung	-12552
Henry	-12553
wright	-12554
▁deemed	-12555
▁extend	-12556
▁airport	-12557
▁slender	-12558
▁Liverpool	-12559
9]	-12560
ked	-12561
▁simpl	-12562
ao	-12563
éch	-12564
▁της	-12565
plicity	-12566
amento	-12567
▁adult	-12568
▁rates	-12569
▁admirable	-12570
-17	-12571
▁planning	-12572
div	-12573
▁Ru	-12574
oler	-12575
geance	-12576
▁Swiss	-12577
▁hatred	-12578
▁behavior	-12579
▁23.	-12580
cular	-12581
▁Chile	-12582
▁presc	-12583
olds	-12584
ollo	-12585
▁realize	-12586
▁influences	-12587
▁51	-12588
amos	-12589
▁rugby	-12590
▁petite	-12591
üt	-12592
iop	-12593
▁Occ	-12594
▁stages	-12595
▁dragged	-12596
orage	-12597
▁bade	-12598
▁siitä	-12599
▁persuaded	-12600
▁fet	-12601
ichen	-12602
▁Horse	-12603
▁moist	-12604
▁fourteen	-12605
▁Yorkshire	-12606
cf	-12607
roe	-12608
orer	-12609
▁ori	-12610
▁Metro	-12611
▁Sultan	-12612
word	-12613
▁Pra	-12614
▁comed	-12615
stat	-12616
▁eleph	-12617
enschen	-12618
irmingham	-12619
▁characteristics	-12620
PA	-12621
▁|8	-12622
="3"|	-12623
▁hook	-12624
▁Abbey	-12625
▁ordin	-12626
▁Socorro	-12627
▁roughly	-12628
▁Executive	-12629
▁strangers	-12630
="5	-12631
zza	-12632
enen	-12633
▁1965	-12634
▁routes	-12635
▁confront	-12636
▁impressed	-12637
▁offensive	-12638
akt	-12639
▁58	-12640
▁AS	-12641
▁préc	-12642
▁femin	-12643
▁120	-12644
▁Falls	-12645
pective	-12646
▁Greeks	-12647
▁merged	-12648
▁serait	-12649
▁selfish	-12650
▁streams	-12651
▁Gru	-12652
eight	-12653
▁sera	-12654
600	-12655
▁Mult	-12656
▁rect	-12657
▁ott	-12658
▁disgu	-12659
▁eaten	-12660
▁stomach	-12661
▁appropriate	-12662
adi	-12663
Town	-12664
oser	-12665
venth	-12666
▁voix	-12667
▁knocked	-12668
md	-12669
uu	-12670
▁Sche	-12671
▁Shel	-12672
▁deze	-12673
ijo	-12674
▁ici	-12675
asper	-12676
▁Total	-12677
▁assure	-12678
▁references	-12679
▁Treaty	-12680
isy	-12681
▁wins	-12682
▁cannon	-12683
▁desires	-12684
▁Services	-12685
aser	-12686
▁Benn	-12687
▁hoof	-12688
▁sagte	-12689
mid	-12690
ões	-12691
iera	-12692
oise	-12693
▁Fac	-12694
woman	-12695
||0||0	-12696
▁Friday	-12697
AAAAAAAA	-12698
Mont	-12699
▁mans	-12700
▁Title	-12701
▁Puerto	-12702
▁induced	-12703
cover	-12704
▁surf	-12705
▁limbs	-12706
▁Jefferson	-12707
uras	-12708
▁arc	-12709
▁Baker	-12710
▁disorder	-12711
afe	-12712
asser	-12713
▁pool	-12714
▁soci	-12715
▁patients	-12716
▁educational	-12717
▁Joy	-12718
▁Nag	-12719
plete	-12720
▁francs	-12721
▁laying	-12722
▁Princip	-12723
▁Brothers	-12724
▁goodness	-12725
fig	-12726
inka	-12727
bbing	-12728
▁Living	-12729
▁gazing	-12730
▁Od	-12731
▁kö	-12732
▁Chem	-12733
▁grows	-12734
▁scarce	-12735
▁touching	-12736
▁Coun	-12737
▁summit	-12738
▁adjacent	-12739
▁improvement	-12740
–15	-12741
TGTAA	-12742
Thomas	-12743
ayan	-12744
▁Micro	-12745
▁confirm	-12746
▁fearful	-12747
▁lightly	-12748
▁accomplish	-12749
uity	-12750
semble	-12751
general	-12752
irlines	-12753
▁verses	-12754
▁illeg	-12755
▁Athletics	-12756
▁tools	-12757
▁trump	-12758
▁exquis	-12759
▁seiner	-12760
ania	-12761
▁Bath	-12762
▁agency	-12763
▁59	-12764
▁Jay	-12765
child	-12766
▁bloom	-12767
▁boots	-12768
▁slain	-12769
▁Broadway	-12770
▁murdered	-12771
ño	-12772
01.	-12773
icon	-12774
▁lyr	-12775
Peter	-12776
▁praised	-12777
▁Administration	-12778
▁|10	-12779
▁gens	-12780
▁peas	-12781
▁Rugby	-12782
▁Small	-12783
▁parted	-12784
4-	-12785
▁Dorothy	-12786
▁mechanical	-12787
ashi	-12788
▁leaning	-12789
▁maximum	-12790
▁corresponding	-12791
▁(1997	-12792
hension	-12793
▁conventional	-12794
GA	-12795
▁Mall	-12796
mathbf	-12797
onsense	-12798
▁intimate	-12799
▁timezone	-12800
yi	-12801
▁Rud	-12802
▁Sym	-12803
avais	-12804
▁Cole	-12805
▁Negro	-12806
▁Caesar	-12807
east	-12808
▁lag	-12809
▁2022,	-12810
▁Blood	-12811
▁agriculture	-12812
▁Als	-12813
▁Milan	-12814
▁cream	-12815
▁aboard	-12816
▁memorial	-12817
▁Bibliography	-12818
BR	-12819
▁Sout	-12820
icious	-12821
ickets	-12822
▁Robin	-12823
▁easier	-12824
▁harmony	-12825
▁thereof	-12826
▁Suddenly	-12827
▁concerns	-12828
▁dramatic	-12829
▁Billboard	-12830
._)	-12831
▁Ry	-12832
▁promote	-12833
▁todo	-12834
▁shaft	-12835
▁headed	-12836
▁Spaniards	-12837
ext	-12838
vag	-12839
▁rue	-12840
INEAR	-12841
▁mieux	-12842
▁Baltimore	-12843
▁astonished	-12844
▁Fab	-12845
▁Tel	-12846
▁Poet	-12847
▁moderate	-12848
▁Rio	-12849
▁dub	-12850
maker	-12851
▁bund	-12852
▁drum	-12853
Michael	-12854
▁Chester	-12855
▁selling	-12856
▁conna	-12857
▁trunk	-12858
▁warfare	-12859
▁Westminster	-12860
▁controversy	-12861
pon	-12862
vre	-12863
▁Sig	-12864
▁Suff	-12865
▁Chair	-12866
Richard	-12867
▁Vincent	-12868
▁singers	-12869
▁proceedings	-12870
▁cs	-12871
ffffe	-12872
▁jotka	-12873
lessness	-12874
TCCCC	-12875
grade	-12876
▁recall	-12877
Indian	-12878
tainly	-12879
sels	-12880
length	-12881
▁keeps	-12882
▁Gun	-12883
▁deer	-12884
news	-12885
▁Cher	-12886
▁cure	-12887
▁appearing	-12888
▁200|	-12889
▁arise	-12890
▁coeur	-12891
▁heures	-12892
▁Century	-12893
Mark	-12894
▁ihre	-12895
ANT	-12896
enf	-12897
nex	-12898
▁trag	-12899
▁spons	-12900
▁latest	-12901
▁oak	-12902
annon	-12903
video	-12904
▁Laura	-12905
▁brass	-12906
▁Warren	-12907
ulk	-12908
▁XII	-12909
Native	-12910
ithuan	-12911
▁wheels	-12912
▁sensation	-12913
▁determination	-12914
ioni	-12915
▁hunt	-12916
▁roles	-12917
▁Harold	-12918
▁infant	-12919
▁prices	-12920
▁renewed	-12921
▁Cob	-12922
▁Rain	-12923
▁honey	-12924
▁Number	-12925
BO	-12926
ARL	-12927
cott	-12928
irie	-12929
▁mos	-12930
▁mari	-12931
▁lofty	-12932
country	-12933
▁startled	-12934
▁hesitated	-12935
▁Bron	-12936
▁diese	-12937
▁mutual	-12938
atz	-12939
bird	-12940
▁señ	-12941
▁vex	-12942
▁Andy	-12943
▁Cardinal	-12944
▁constitutional	-12945
ilà	-12946
uve	-12947
arms	-12948
blem	-12949
arter	-12950
▁locked	-12951
▁sighed	-12952
gun	-12953
emor	-12954
▁Beh	-12955
▁rebu	-12956
▁Chron	-12957
▁burnt	-12958
ammed	-12959
▁Glas	-12960
▁pauv	-12961
▁thro	-12962
▁tons	-12963
▁basic	-12964
▁hosts	-12965
▁Origin	-12966
▁eldest	-12967
▁Alliance	-12968
▁Pictures	-12969
ís	-12970
TATTC	-12971
▁subl	-12972
▁Former	-12973
▁Collection	-12974
▁`	-12975
anga	-12976
away	-12977
olid	-12978
▁tip	-12979
▁abuse	-12980
▁Rogers	-12981
▁coward	-12982
▁pursue	-12983
▁neglect	-12984
▁righteous	-12985
▁Kath	-12986
▁Apost	-12987
▁wages	-12988
▁conquered	-12989
▁fib	-12990
▁wen	-12991
agner	-12992
dinand	-12993
▁namely	-12994
▁plains	-12995
▁tribute	-12996
emi	-12997
▁andere	-12998
▁Stevens	-12999
▁convert	-13000
Bur	-13001
iii	-13002
▁Ku	-13003
lain	-13004
▁hypot	-13005
▁grateful	-13006
▁McK	-13007
▁gek	-13008
▁belt	-13009
▁Studios	-13010
▁exhibition	-13011
▁Haz	-13012
▁vaik	-13013
▁incred	-13014
▁sitten	-13015
umberland	-13016
▁absorbed	-13017
▁retirement	-13018
▁moy	-13019
piece	-13020
▁Houston	-13021
▁fundamental	-13022
▁Metropolitan	-13023
nant	-13024
▁Born	-13025
▁Cham	-13026
▁Flag	-13027
▁vanished	-13028
houses	-13029
▁ninete	-13030
▁perceive	-13031
Ter	-13032
osity	-13033
▁werd	-13034
fecture	-13035
▁Arnold	-13036
▁outward	-13037
+--------	-13038
gom	-13039
▁Rhod	-13040
▁inaug	-13041
▁raison	-13042
Cont	-13043
▁Rol	-13044
▁alk	-13045
venir	-13046
▁synd	-13047
▁Mason	-13048
▁couples	-13049
▁päiv	-13050
▁motive	-13051
▁undoubted	-13052
▁sop	-13053
▁delle	-13054
▁humor	-13055
▁Ottoman	-13056
▁Whether	-13057
▁pouvait	-13058
▁Original	-13059
fen	-13060
OND	-13061
▁Rena	-13062
▁examine	-13063
▁blessing	-13064
▁diameter	-13065
/4	-13066
bery	-13067
umps	-13068
▁core	-13069
▁situ	-13070
▁advised	-13071
▁conquest	-13072
▁notwithstanding	-13073
Pal	-13074
▁gig	-13075
▁doub	-13076
{\	-13077
oka	-13078
▁66	-13079
▁Hit	-13080
▁vil	-13081
▁Tokyo	-13082
▁Ukraine	-13083
▁incorporated	-13084
PC	-13085
utti	-13086
▁costs	-13087
▁prolong	-13088
▁wherever	-13089
AST	-13090
avoir	-13091
▁1939	-13092
▁Merc	-13093
▁peak	-13094
▁horizon	-13095
▁machinery	-13096
dä	-13097
lig	-13098
▁|"	-13099
amme	-13100
▁ate	-13101
▁2021,	-13102
▁incap	-13103
▁strip	-13104
covered	-13105
nis	-13106
▁Ik	-13107
ATGCC	-13108
▁Rick	-13109
▁grade	-13110
▁everyone	-13111
▁saints	-13112
▁Engineering	-13113
▁substantial	-13114
DC	-13115
").	-13116
▁norm	-13117
▁wash	-13118
▁surround	-13119
LL	-13120
άν	-13121
▁Kam	-13122
▁habe	-13123
▁suggests	-13124
iri	-13125
nek	-13126
ovo	-13127
uno	-13128
▁stolen	-13129
▁approval	-13130
▁measured	-13131
▁kos	-13132
▁rede	-13133
▁barrel	-13134
▁speaker	-13135
là	-13136
hui	-13137
guard	-13138
▁margin	-13139
▁shaking	-13140
including	-13141
▁considerably	-13142
▁λ	-13143
innen	-13144
▁hostile	-13145
▁Lor	-13146
▁porque	-13147
▁planted	-13148
▁Territory	-13149
aqu	-13150
▁Dyn	-13151
archy	-13152
orton	-13153
▁alma	-13154
▁demol	-13155
▁depths	-13156
▁license	-13157
Dist	-13158
data	-13159
Never	-13160
amaan	-13161
▁None	-13162
ologies	-13163
▁ruined	-13164
▁Sources	-13165
▁visiting	-13166
BM	-13167
▁jug	-13168
▁diet	-13169
▁Sport	-13170
▁advis	-13171
▁portions	-13172
▁preparations	-13173
ju	-13174
Arch	-13175
Donald	-13176
▁moreover	-13177
jon	-13178
anza	-13179
▁soir	-13180
▁(1998	-13181
▁stupid	-13182
▁counted	-13183
▁tav	-13184
▁zal	-13185
|2020	-13186
–6	-13187
▁pou	-13188
▁Bald	-13189
▁Track	-13190
▁Providence	-13191
▁applications	-13192
▁Mediterranean	-13193
▁24.	-13194
▁eer	-13195
▁quad	-13196
azione	-13197
▁romance	-13198
▁withdrew	-13199
Mus	-13200
flu	-13201
lay	-13202
▁cited	-13203
fs	-13204
pert	-13205
▁Gram	-13206
▁hosp	-13207
▁prosperity	-13208
év	-13209
▁muß	-13210
atured	-13211
▁squad	-13212
▁hi	-13213
half	-13214
▁cub	-13215
▁tir	-13216
igneur	-13217
▁Anglo	-13218
▁sailors	-13219
ulent	-13220
▁cycl	-13221
ounted	-13222
▁awake	-13223
▁wider	-13224
▁Constantin	-13225
mate	-13226
▁nuit	-13227
▁2006.	-13228
▁wrought	-13229
footballer	-13230
▁Hollywood	-13231
▁dismissed	-13232
▁rebellion	-13233
▁Ltd	-13234
▁attained	-13235
▁involving	-13236
ας	-13237
▁Bod	-13238
▁kor	-13239
▁1948	-13240
▁bonne	-13241
▁mines	-13242
▁Carlos	-13243
aneously	-13244
Sal	-13245
log	-13246
High	-13247
▁Past	-13248
▁Pedro	-13249
rah	-13250
▁$3	-13251
▁tack	-13252
▁marsh	-13253
▁placing	-13254
▁severely	-13255
main	-13256
borne	-13257
▁1963	-13258
▁souff	-13259
▁vener	-13260
▁jumped	-13261
▁healthy	-13262
▁ornament	-13263
Non	-13264
olia	-13265
▁Wor	-13266
group	-13267
▁beds	-13268
▁Kelly	-13269
▁Today	-13270
▁β	-13271
-16	-13272
cip	-13273
▁2002,	-13274
▁folly	-13275
▁Reserve	-13276
▁privilege	-13277
akk	-13278
▁cyl	-13279
▁hed	-13280
eston	-13281
▁beasts	-13282
▁seventh	-13283
▁assisted	-13284
▁summoned	-13285
caps	-13286
▁Angl	-13287
▁sunk	-13288
▁Capital	-13289
▁Due	-13290
▁Lad	-13291
▁Tib	-13292
▁Bird	-13293
▁Lamb	-13294
▁Peak	-13295
▁Ring	-13296
▁lightning	-13297
esy	-13298
▁lav	-13299
▁tard	-13300
▁arbit	-13301
▁symptoms	-13302
▁Argentina	-13303
▁correspondence	-13304
▁Bear	-13305
▁pilgr	-13306
▁Parker	-13307
▁inherit	-13308
▁wealthy	-13309
▁ba	-13310
gain	-13311
rena	-13312
▁hated	-13313
▁battery	-13314
fold	-13315
▁Food	-13316
▁côté	-13317
▁stew	-13318
▁basket	-13319
eu	-13320
okes	-13321
▁Wer	-13322
estone	-13323
hattan	-13324
▁dated	-13325
▁welche	-13326
▁dal	-13327
▁ante	-13328
aho	-13329
▁View	-13330
▁fils	-13331
mä	-13332
AAAT	-13333
ether	-13334
▁Wing	-13335
▁pains	-13336
▁vulgar	-13337
▁Sep	-13338
▁jag	-13339
ensis	-13340
erving	-13341
▁knock	-13342
▁staring	-13343
▁precisely	-13344
VI	-13345
MAN	-13346
enna	-13347
▁Pic	-13348
▁ray	-13349
iscop	-13350
▁lists	-13351
▁Atlanta	-13352
▁Language	-13353
▁arguments	-13354
▁incidents	-13355
▁questioned	-13356
="4"	-13357
▁verl	-13358
▁discl	-13359
▁irres	-13360
▁climbed	-13361
oks	-13362
▁fug	-13363
▁partial	-13364
▁cum	-13365
▁sei	-13366
▁survived	-13367
▁illustrated	-13368
▁Pun	-13369
▁lessons	-13370
▁ties	-13371
lington	-13372
▁helping	-13373
gh	-13374
rar	-13375
brid	-13376
▁McG	-13377
▁Afghan	-13378
kerchief	-13379
▁massive	-13380
politician	-13381
▁Independence	-13382
▁sway	-13383
▁respects	-13384
▁interpretation	-13385
OG	-13386
▁ó	-13387
▁oike	-13388
▁swear	-13389
▁Indies	-13390
ictionary	-13391
▁Demographics	-13392
▁Tol	-13393
▁Phoen	-13394
▁adorn	-13395
▁baron	-13396
▁daring	-13397
▁endure	-13398
▁resear	-13399
▁operate	-13400
▁dressing	-13401
▁invitation	-13402
▁commissioned	-13403
Met	-13404
seud	-13405
▁FIN	-13406
▁quoi	-13407
▁Canal	-13408
▁Austin	-13409
Japanese	-13410
Super	-13411
idency	-13412
▁Belle	-13413
▁parte	-13414
rus	-13415
▁plais	-13416
────────	-13417
▁satisfy	-13418
President	-13419
▁travelled	-13420
▁chron	-13421
▁compris	-13422
▁Gon	-13423
▁nit	-13424
cules	-13425
▁Snow	-13426
▁Market	-13427
▁disaster	-13428
inas	-13429
▁Syn	-13430
▁vind	-13431
▁mirror	-13432
▁revers	-13433
▁dwelling	-13434
▁}	-13435
vil	-13436
Inter	-13437
▁Maced	-13438
▁tegen	-13439
▁Harvard	-13440
▁machines	-13441
Air	-13442
▁63	-13443
iper	-13444
▁tid	-13445
iolet	-13446
▁weig	-13447
▁Dream	-13448
▁wheat	-13449
▁Masters	-13450
▁Socialist	-13451
▁(5	-13452
allis	-13453
▁jest	-13454
▁pole	-13455
incinn	-13456
▁Tommy	-13457
▁bullet	-13458
▁emerged	-13459
▁practices	-13460
AK	-13461
oton	-13462
▁τον	-13463
▁ruler	-13464
▁petition	-13465
Jew	-13466
mons	-13467
▁eût	-13468
▁hut	-13469
▁Stre	-13470
▁fury	-13471
▁disgrace	-13472
▁Norwegian	-13473
▁176	-13474
Frank	-13475
▁guar	-13476
▁essay	-13477
▁floating	-13478
▁Bot	-13479
▁Ice	-13480
▁Nan	-13481
swick	-13482
school	-13483
PR	-13484
TR	-13485
▁BE	-13486
▁BR	-13487
load	-13488
▁bom	-13489
human	-13490
▁zeal	-13491
▁bench	-13492
▁thirst	-13493
▁Collins	-13494
▁Current	-13495
▁Harrison	-13496
iu	-13497
Ber	-13498
ROM	-13499
▁swung	-13500
▁assign	-13501
▁orange	-13502
▁swiftly	-13503
undo	-13504
ATTCC	-13505
▁locations	-13506
▁eux	-13507
▁Utah	-13508
▁expend	-13509
▁varieties	-13510
ähän	-13511
▁Gott	-13512
▁suite	-13513
▁beheld	-13514
▁Communist	-13515
▁Testament	-13516
▁|9	-13517
inde	-13518
▁Ils	-13519
sworth	-13520
▁comprom	-13521
▁operator	-13522
▁fri	-13523
▁posit	-13524
▁cancer	-13525
▁Operation	-13526
vez	-13527
lijk	-13528
▁Till	-13529
▁chin	-13530
▁settlers	-13531
mu	-13532
▁Une	-13533
▁ved	-13534
icism	-13535
rooms	-13536
▁beer	-13537
▁propriet	-13538
▁nominated	-13539
elo	-13540
▁legit	-13541
▁rises	-13542
ugoslav	-13543
▁modified	-13544
IGHT	-13545
▁XIII	-13546
▁halt	-13547
▁mains	-13548
▁Volume	-13549
▁breeze	-13550
vell	-13551
ettes	-13552
iento	-13553
▁Senior	-13554
▁developing	-13555
▁1962	-13556
▁Caval	-13557
▁peine	-13558
▁mining	-13559
▁congress	-13560
▁procession	-13561
.-	-13562
▁2023,	-13563
▁appet	-13564
October	-13565
▁submitted	-13566
▁Ara	-13567
▁Eff	-13568
▁Pir	-13569
▁seu	-13570
April	-13571
▁Roche	-13572
▁había	-13573
▁republic	-13574
▁True	-13575
▁papa	-13576
▁warn	-13577
ocated	-13578
▁Capit	-13579
▁Julia	-13580
▁doute	-13581
▁Windows	-13582
▁Κ	-13583
▁dieser	-13584
▁ú	-13585
orie	-13586
▁26.	-13587
▁Alt	-13588
▁duke	-13589
▁Alban	-13590
▁Dance	-13591
▁jurisdiction	-13592
▁minun	-13593
▁todos	-13594
▁Legislative	-13595
aha	-13596
▁Dans	-13597
shaped	-13598
▁drank	-13599
▁restore	-13600
▁Religion	-13601
▁rational	-13602
▁extending	-13603
▁fortunate	-13604
kn	-13605
mates	-13606
000,000	-13607
▁Louise	-13608
▁altered	-13609
▁respectable	-13610
zing	-13611
▁vib	-13612
▁laps	-13613
▁wool	-13614
▁Barry	-13615
▁choses	-13616
▁candidates	-13617
▁disappointed	-13618
äni	-13619
isin	-13620
▁smell	-13621
▁stuck	-13622
▁stating	-13623
▁construct	-13624
änyt	-13625
▁toe	-13626
▁vom	-13627
▁Nova	-13628
▁bars	-13629
▁rings	-13630
▁propag	-13631
▁Defense	-13632
▁partially	-13633
UG	-13634
Alex	-13635
▁nerve	-13636
▁roses	-13637
▁Divine	-13638
Some	-13639
coat	-13640
▁Nep	-13641
▁tab	-13642
▁bras	-13643
▁cock	-13644
▁immer	-13645
▁Hunter	-13646
▁washed	-13647
▁indignation	-13648
uez	-13649
▁gez	-13650
TTTCC	-13651
ioned	-13652
uiten	-13653
▁bloss	-13654
iere	-13655
▁175	-13656
▁dien	-13657
▁Kit	-13658
▁cable	-13659
▁crash	-13660
▁devices	-13661
▁warriors	-13662
vit	-13663
abad	-13664
▁Hij	-13665
▁Pom	-13666
AGATG	-13667
▁ging	-13668
▁acquis	-13669
▁attendance	-13670
▁comparatively	-13671
▁ore	-13672
▁gown	-13673
gold	-13674
icts	-13675
▁Heritage	-13676
▁parliamentary	-13677
Er	-13678
high	-13679
pers	-13680
▁Video	-13681
▁challenge	-13682
▁wilderness	-13683
ße	-13684
sin	-13685
smith	-13686
urred	-13687
▁Beth	-13688
▁pond	-13689
▁canoe	-13690
▁loaded	-13691
▁Culture	-13692
WE	-13693
▁181	-13694
▁27.	-13695
afeeee	-13696
▁Neither	-13697
▁produces	-13698
▁promotion	-13699
haw	-13700
good	-13701
▁Vor	-13702
▁feu	-13703
ricane	-13704
▁probability	-13705
fles	-13706
into	-13707
▁Mol	-13708
issen	-13709
▁angels	-13710
▁reviews	-13711
▁colleges	-13712
Mart	-13713
▁(),	-13714
▁Gate	-13715
▁disse	-13716
▁62	-13717
TTCTC	-13718
September	-13719
▁vertical	-13720
▁partnership	-13721
lio	-13722
▁guards	-13723
beit	-13724
aters	-13725
▁sung	-13726
encing	-13727
▁(1995	-13728
▁Patri	-13729
▁graduated	-13730
▁legislative	-13731
▁68	-13732
▁Tan	-13733
▁viz	-13734
onden	-13735
▁asks	-13736
▁bush	-13737
▁dealing	-13738
▁prendre	-13739
▁fragments	-13740
▁Α	-13741
pine	-13742
inema	-13743
▁Bent	-13744
▁Joan	-13745
▁Cette	-13746
▁Guide	-13747
▁repent	-13748
incinnati	-13749
▁peaceful	-13750
ipt	-13751
velle	-13752
▁Treas	-13753
▁gesture	-13754
▁Gutenberg	-13755
▁satisfactory	-13756
äv	-13757
▁Kaz	-13758
▁pic	-13759
▁Mong	-13760
▁pupils	-13761
▁solitary	-13762
▁theories	-13763
▁bab	-13764
+----	-13765
▁Lords	-13766
▁journ	-13767
▁shells	-13768
Ma	-13769
ECT	-13770
mos	-13771
eyed	-13772
▁Made	-13773
▁cant	-13774
strong	-13775
-200	-13776
final	-13777
▁Case	-13778
▁quit	-13779
▁gallery	-13780
▁continent	-13781
▁proposition	-13782
________________	-13783
eno	-13784
▁Eld	-13785
raska	-13786
▁jury	-13787
▁Isaac	-13788
▁prodig	-13789
restling	-13790
▁earnestly	-13791
▁wandering	-13792
DA	-13793
▁Apr	-13794
▁zwe	-13795
▁Nash	-13796
▁hint	-13797
ampton	-13798
▁Price	-13799
▁Solomon	-13800
▁farmers	-13801
▁interse	-13802
▁strictly	-13803
uki	-13804
esto	-13805
phan	-13806
▁Vern	-13807
ockets	-13808
history	-13809
▁edited	-13810
▁majesty	-13811
▁Movement	-13812
▁Bass	-13813
▁metres	-13814
▁holiday	-13815
▁commands	-13816
▁exhibited	-13817
▁obedience	-13818
stall	-13819
vision	-13820
▁seeds	-13821
▁lively	-13822
▁annually	-13823
liness	-13824
▁invention	-13825
vid	-13826
▁Bav	-13827
▁ugly	-13828
▁Butler	-13829
▁Turner	-13830
▁Circuit	-13831
▁diseases	-13832
Sam	-13833
mic	-13834
lines	-13835
▁fans	-13836
▁ganz	-13837
▁(1996	-13838
▁flows	-13839
▁daylight	-13840
Washington	-13841
▁universities	-13842
esses	-13843
▁trap	-13844
▁moves	-13845
▁context	-13846
▁farewell	-13847
▁tropical	-13848
▁amusement	-13849
ρί	-13850
sim	-13851
▁Cry	-13852
▁Eli	-13853
named	-13854
▁dried	-13855
▁holes	-13856
atriate	-13857
▁virtues	-13858
adj	-13859
▁HER	-13860
amped	-13861
▁bout	-13862
▁sacrific	-13863
▁Publishing	-13864
▁wax	-13865
▁foss	-13866
spring	-13867
▁ratio	-13868
▁shops	-13869
▁vérit	-13870
▁invented	-13871
▁merchants	-13872
▁opportunities	-13873
.'"	-13874
▁Nu	-13875
iors	-13876
▁slope	-13877
▁blocks	-13878
▁deadly	-13879
▁smoking	-13880
jä	-13881
▁Wed	-13882
▁Beau	-13883
▁Buch	-13884
▁beard	-13885
▁warned	-13886
▁leagues	-13887
▁presque	-13888
▁replace	-13889
▁neglected	-13890
/1	-13891
hour	-13892
rator	-13893
▁dorm	-13894
▁2005.	-13895
▁Plant	-13896
▁chances	-13897
▁Jonathan	-13898
▁governments	-13899
▁wurde	-13900
▁fisher	-13901
Out	-13902
unis	-13903
▁Anim	-13904
isible	-13905
▁shirt	-13906
Liberal	-13907
▁classic	-13908
▁factors	-13909
▁requested	-13910
▁respective	-13911
apa	-13912
arus	-13913
rone	-13914
uder	-13915
▁JOHN	-13916
▁Must	-13917
▁emotions	-13918
▁studying	-13919
▁simplicity	-13920
▁nationality	-13921
▁Kan	-13922
viation	-13923
▁insign	-13924
▁invari	-13925
▁pistol	-13926
▁calculated	-13927
GN	-13928
lit	-13929
issä	-13930
▁Mitchell	-13931
▁attractive	-13932
umi	-13933
wyn	-13934
leur	-13935
▁Pant	-13936
▁Eight	-13937
▁sequence	-13938
yram	-13939
▁Prior	-13940
▁hiding	-13941
▁Basketball	-13942
▁adventures	-13943
cor	-13944
addy	-13945
icus	-13946
▁pile	-13947
▁indisp	-13948
▁sector	-13949
December	-13950
▁channels	-13951
_."	-13952
▁Ghost	-13953
▁Wallace	-13954
▁cav	-13955
▁2007.	-13956
▁layer	-13957
▁Gospel	-13958
▁incons	-13959
bin	-13960
▁ny	-13961
Asian	-13962
▁Owen	-13963
forced	-13964
▁Griff	-13965
▁χ	-13966
sor	-13967
illet	-13968
ordinate	-13969
▁dependent	-13970
▁Eve	-13971
▁Duchess	-13972
▁estimate	-13973
▁personne	-13974
chel	-13975
even	-13976
▁Hob	-13977
▁Larry	-13978
▁gloomy	-13979
▁Alberta	-13980
▁première	-13981
jer	-13982
▁Ult	-13983
TGGGG	-13984
▁Evans	-13985
▁domain	-13986
▁brethren	-13987
▁disappointment	-13988
Big	-13989
bas	-13990
▁beam	-13991
▁rays	-13992
▁tremendous	-13993
ongs	-13994
scar	-13995
cluded	-13996
issant	-13997
▁warrant	-13998
▁Environment	-13999
voc	-14000
▁EP	-14001
▁ami	-14002
▁Side	-14003
▁facil	-14004
married	-14005
▁sailor	-14006
▁Delaware	-14007
▁reserved	-14008
▁Orchestra	-14009
▁transform	-14010
▁67	-14011
xton	-14012
otism	-14013
▁Miami	-14014
▁tyran	-14015
▁expert	-14016
▁furnish	-14017
▁tragedy	-14018
▁répondit	-14019
▁comprehend	-14020
▁cin	-14021
idade	-14022
▁flav	-14023
▁Taiwan	-14024
▁welfare	-14025
▁1944	-14026
panish	-14027
▁2010.	-14028
▁mould	-14029
district	-14030
▁decades	-14031
▁vengeance	-14032
▁Ages	-14033
▁Were	-14034
▁feud	-14035
▁Adela	-14036
▁nouve	-14037
▁Return	-14038
▁exhaust	-14039
▁installed	-14040
▁cultivated	-14041
URE	-14042
duct	-14043
heur	-14044
▁Kle	-14045
▁fairy	-14046
▁promptly	-14047
▁contributions	-14048
▁dw	-14049
▁gou	-14050
Canada	-14051
▁Rights	-14052
tra	-14053
▁spin	-14054
▁2008.	-14055
▁Rangers	-14056
▁disappear	-14057
(\	-14058
UE	-14059
alie	-14060
ontal	-14061
▁losses	-14062
▁separation	-14063
ATH	-14064
osse	-14065
igate	-14066
▁misc	-14067
▁Nancy	-14068
▁unity	-14069
▁starts	-14070
▁upward	-14071
him	-14072
Tran	-14073
▁deme	-14074
▁risen	-14075
▁propose	-14076
▁attempting	-14077
aca	-14078
▁sta	-14079
pherd	-14080
▁Prof	-14081
▁Online	-14082
▁conform	-14083
▁Marriage	-14084
▁detailed	-14085
:17	-14086
–10	-14087
Polit	-14088
ancer	-14089
▁makeup	-14090
▁costume	-14091
▁wherein	-14092
oons	-14093
▁enn	-14094
▁wag	-14095
▁Dallas	-14096
▁feeble	-14097
▁resent	-14098
▁Gregory	-14099
▁struggling	-14100
.).	-14101
Ser	-14102
Tur	-14103
olics	-14104
▁Bright	-14105
▁wounds	-14106
▁thither	-14107
▁swimming	-14108
τά	-14109
neur	-14110
▁Shaw	-14111
▁sill	-14112
▁cheval	-14113
▁superst	-14114
▁exclusively	-14115
stro	-14116
uela	-14117
employ	-14118
sis	-14119
▁Poly	-14120
▁burg	-14121
▁Could	-14122
▁Countess	-14123
▁þ	-14124
Les	-14125
took	-14126
▁Gren	-14127
umbled	-14128
▁stretch	-14129
▁fastened	-14130
▁requirements	-14131
000,	-14132
▁Jenn	-14133
African	-14134
▁hastened	-14135
▁overwhel	-14136
▁commanding	-14137
SON	-14138
iffe	-14139
qual	-14140
House	-14141
atern	-14142
clair	-14143
court	-14144
▁foul	-14145
▁sink	-14146
▁removal	-14147
▁franchise	-14148
▁aired	-14149
▁anniversary	-14150
▁Shah	-14151
▁nour	-14152
▁8/8/8/	-14153
▁essentially	-14154
▁transportation	-14155
ISH	-14156
▁Key	-14157
▁pero	-14158
/8/8/8	-14159
▁Storm	-14160
▁humour	-14161
▁Hav	-14162
owell	-14163
▁bere	-14164
▁puts	-14165
▁usage	-14166
▁submit	-14167
▁courses	-14168
:02	-14169
Del	-14170
▁1956	-14171
aparte	-14172
▁counc	-14173
▁unple	-14174
▁advers	-14175
▁interf	-14176
▁registered	-14177
OUR	-14178
–14	-14179
idding	-14180
▁fence	-14181
▁LINEAR	-14182
▁traces	-14183
▁Management	-14184
▁lip	-14185
▁εις	-14186
▁Sans	-14187
▁WILL	-14188
▁alas	-14189
▁bind	-14190
▁bust	-14191
▁hunger	-14192
AGAAG	-14193
TTATT	-14194
▁gegen	-14195
▁cooper	-14196
▁nerves	-14197
Mrs	-14198
▁76	-14199
▁Bun	-14200
▁Sold	-14201
▁roar	-14202
necess	-14203
▁flank	-14204
▁Springs	-14205
▁benefic	-14206
Es	-14207
obi	-14208
ucc	-14209
5,000	-14210
▁doubtful	-14211
▁Ferdinand	-14212
NT	-14213
▁enh	-14214
▁Code	-14215
▁craw	-14216
▁syll	-14217
▁indef	-14218
rowhead	-14219
▁quando	-14220
etz	-14221
||3	-14222
enda	-14223
ACCCC	-14224
▁curse	-14225
eln	-14226
free	-14227
▁candle	-14228
▁spaces	-14229
▁steamer	-14230
▁sustained	-14231
LB	-14232
一個	-14233
éon	-14234
▁Eh	-14235
Western	-14236
▁induce	-14237
▁milieu	-14238
▁motives	-14239
▁founding	-14240
▁boundaries	-14241
▁Lux	-14242
▁reun	-14243
▁2024,	-14244
▁carries	-14245
▁householder	-14246
▁gan	-14247
▁hub	-14248
▁veil	-14249
▁cycle	-14250
aku	-14251
▁72	-14252
▁Pay	-14253
▁Soft	-14254
▁esta	-14255
▁stirred	-14256
▁participated	-14257
.)</	-14258
▁Ath	-14259
igkeit	-14260
▁2001,	-14261
▁Niger	-14262
▁imperfect	-14263
▁documentary	-14264
▁02	-14265
idos	-14266
▁kam	-14267
▁rim	-14268
Green	-14269
▁Carib	-14270
▁dirty	-14271
▁borders	-14272
▁upright	-14273
▁breathing	-14274
▁1959	-14275
istical	-14276
eto	-14277
▁vin	-14278
death	-14279
indre	-14280
orgen	-14281
asters	-14282
▁crops	-14283
▁gravity	-14284
▁EX	-14285
▁(14	-14286
▁Cuba	-14287
▁Venez	-14288
▁sq	-14289
Line	-14290
▁Kap	-14291
▁coc	-14292
ersch	-14293
▁ridge	-14294
▁mischief	-14295
ichte	-14296
richt	-14297
▁anth	-14298
▁Naples	-14299
▁abundant	-14300
▁Lear	-14301
▁damaged	-14302
▁DVD	-14303
▁Josh	-14304
abilities	-14305
▁Brooklyn	-14306
▁Columbus	-14307
nä	-14308
wy	-14309
ák	-14310
▁bonn	-14311
bottom	-14312
▁harbour	-14313
▁mingled	-14314
▁reconna	-14315
anges	-14316
▁Hast	-14317
▁chiefs	-14318
▁expenses	-14319
▁1946	-14320
▁alph	-14321
urious	-14322
▁sphere	-14323
▁wander	-14324
heastern	-14325
▁enjoyment	-14326
▁exclusive	-14327
▁statistics	-14328
Fort	-14329
▁(12	-14330
▁dag	-14331
azines	-14332
hensive	-14333
▁Norfolk	-14334
Et	-14335
00.	-14336
unc	-14337
▁hö	-14338
ilde	-14339
▁Crow	-14340
uously	-14341
▁Clara	-14342
▁drops	-14343
oure	-14344
▁viewed	-14345
▁sailing	-14346
▁specifically	-14347
ugar	-14348
velt	-14349
▁28.	-14350
▁guilt	-14351
▁install	-14352
èce	-14353
itis	-14354
forth	-14355
▁Songs	-14356
▁shores	-14357
▁Presently	-14358
,)	-14359
▁Tru	-14360
▁Veg	-14361
▁Luke	-14362
▁Until	-14363
▁grands	-14364
Bra	-14365
Sim	-14366
▁openly	-14367
▁io	-14368
▁102	-14369
▁Hom	-14370
domin	-14371
▁flee	-14372
▁ovat	-14373
Italian	-14374
▁membership	-14375
Pat	-14376
▁ciel	-14377
▁Derby	-14378
▁enfin	-14379
▁Confederate	-14380
▁77	-14381
iped	-14382
▁Fut	-14383
▁gij	-14384
ieren	-14385
▁errors	-14386
▁emergency	-14387
Dan	-14388
rene	-14389
▁Mut	-14390
▁Cold	-14391
▁Fund	-14392
▁pref	-14393
Central	-14394
▁partie	-14395
▁Gabriel	-14396
▁goddess	-14397
ités	-14398
▁dix	-14399
▁Bess	-14400
▁Schl	-14401
▁basin	-14402
▁intern	-14403
▁operates	-14404
▁pressing	-14405
▁personally	-14406
▁69	-14407
▁yer	-14408
▁Somers	-14409
itionally	-14410
jen	-14411
thel	-14412
▁ouv	-14413
since	-14414
akened	-14415
▁Creat	-14416
▁Hindu	-14417
▁stake	-14418
sterdam	-14419
▁Glasgow	-14420
▁Economic	-14421
▁comrades	-14422
νε	-14423
TCAA	-14424
▁Cel	-14425
▁Lem	-14426
▁Rus	-14427
ilight	-14428
▁chase	-14429
▁conspic	-14430
ít	-14431
GGGG	-14432
▁Base	-14433
gomery	-14434
▁Youth	-14435
reation	-14436
▁occupy	-14437
▁trading	-14438
▁interval	-14439
-0	-14440
σι	-14441
▁Rab	-14442
▁kys	-14443
▁pes	-14444
Second	-14445
▁crept	-14446
▁ancestors	-14447
▁foe	-14448
▁Rank	-14449
▁sinä	-14450
ortable	-14451
▁burial	-14452
▁purely	-14453
▁Freedom	-14454
▁favorable	-14455
▁inevitable	-14456
TCG	-14457
bean	-14458
▁bru	-14459
▁jäl	-14460
▁sketch	-14461
▁publicly	-14462
gus	-14463
▁sä	-14464
unts	-14465
▁sap	-14466
opter	-14467
▁butt	-14468
▁joke	-14469
▁Athen	-14470
▁Stars	-14471
▁phenomena	-14472
▁intercourse	-14473
▁climb	-14474
rainian	-14475
▁abruptly	-14476
▁desirable	-14477
%,	-14478
▁ec	-14479
▁Mig	-14480
aisen	-14481
author	-14482
▁prophet	-14483
NC	-14484
▁PC	-14485
iset	-14486
▁siè	-14487
kward	-14488
▁1961	-14489
▁Kirk	-14490
▁acquire	-14491
▁backing	-14492
▁springs	-14493
▁Brunswick	-14494
lesiastical	-14495
BB	-14496
Ty	-14497
far	-14498
▁|1,	-14499
▁Celt	-14500
▁slee	-14501
▁doctr	-14502
Perhaps	-14503
▁Palmer	-14504
▁specimens	-14505
▁statements	-14506
================	-14507
▁raw	-14508
▁(198	-14509
▁1958	-14510
▁sect	-14511
▁allies	-14512
▁mitään	-14513
▁quiver	-14514
▁relating	-14515
say	-14516
ulum	-14517
ivals	-14518
▁lyrics	-14519
TTTTTTTT	-14520
▁Islamic	-14521
▁gallant	-14522
▁category	-14523
▁ministry	-14524
▁Archbishop	-14525
▁handkerchief	-14526
Take	-14527
▁Berg	-14528
▁Give	-14529
France	-14530
▁recept	-14531
▁thirteen	-14532
▁seulement	-14533
▁conversion	-14534
ME	-14535
dep	-14536
▁NY	-14537
/199	-14538
olle	-14539
pres	-14540
horse	-14541
mater	-14542
▁multi	-14543
▁thres	-14544
▁ashore	-14545
▁minist	-14546
▁proport	-14547
acker	-14548
▁memb	-14549
▁borough	-14550
▁nobility	-14551
▁Transportation	-14552
ected	-14553
▁crop	-14554
▁bewild	-14555
▁saving	-14556
▁scandal	-14557
▁encountered	-14558
▁Ener	-14559
▁Gust	-14560
▁bowl	-14561
▁parce	-14562
▁taxes	-14563
▁tries	-14564
▁entend	-14565
▁avoided	-14566
▁feathers	-14567
▁treacher	-14568
International	-14569
.:	-14570
racht	-14571
▁dangers	-14572
▁accurate	-14573
▁believing	-14574
atar	-14575
▁Visc	-14576
▁flashed	-14577
fol	-14578
kaa	-14579
▁|12	-14580
▁skull	-14581
▁Private	-14582
zie	-14583
Time	-14584
▁glow	-14585
▁loin	-14586
etition	-14587
▁surpass	-14588
▁attending	-14589
▁myst	-14590
onymous	-14591
▁funny	-14592
▁global	-14593
▁enforce	-14594
ATE	-14595
▁Dub	-14596
▁embark	-14597
▁exagger	-14598
▁Constantinople	-14599
--”	-14600
aze	-14601
isme	-14602
olin	-14603
uddy	-14604
grand	-14605
▁Days	-14606
▁Jess	-14607
ictory	-14608
▁Should	-14609
▁disgust	-14610
▁Cla	-14611
ATTAC	-14612
uality	-14613
▁charts	-14614
▁numbered	-14615
rière	-14616
▁scra	-14617
▁inval	-14618
▁Seattle	-14619
▁Observatory	-14620
Lab	-14621
boys	-14622
▁owe	-14623
▁Lock	-14624
▁brush	-14625
▁weekly	-14626
▁discern	-14627
▁submarine	-14628
ICE	-14629
AGAAC	-14630
▁2009.	-14631
▁champions	-14632
▁consumption	-14633
owl	-14634
blue	-14635
▁Vel	-14636
▁meets	-14637
ighting	-14638
▁simult	-14639
▁Location	-14640
▁concrete	-14641
▁frontier	-14642
▁expensive	-14643
▁manufacturing	-14644
/8/7	-14645
▁Nay	-14646
▁Tit	-14647
▁kes	-14648
eches	-14649
ector	-14650
▁Kind	-14651
▁stole	-14652
▁perplex	-14653
jar	-14654
ogg	-14655
▁doorway	-14656
▁Englishman	-14657
level	-14658
▁Magn	-14659
▁Opera	-14660
▁deploy	-14661
▁earthqu	-14662
ku	-14663
roc	-14664
idas	-14665
▁(10	-14666
Thank	-14667
▁resort	-14668
▁joining	-14669
▁penalty	-14670
▁advancing	-14671
▁settlements	-14672
▁gy	-14673
amic	-14674
oner	-14675
▁Cyr	-14676
▁eut	-14677
▁surn	-14678
boards	-14679
itarian	-14680
▁commod	-14681
▁porter	-14682
▁stopping	-14683
▁descendants	-14684
-15	-14685
▁SU	-14686
▁calc	-14687
▁Section	-14688
▁destined	-14689
▁ventured	-14690
▁vigorous	-14691
oat	-14692
▁Fro	-14693
hai	-14694
▁dol	-14695
▁Newton	-14696
▁betray	-14697
▁bushes	-14698
▁aspects	-14699
▁transition	-14700
Bu	-14701
ICH	-14702
sar	-14703
▁mond	-14704
▁Spart	-14705
▁insol	-14706
▁cunning	-14707
Life	-14708
ixon	-14709
▁nas	-14710
Short	-14711
izard	-14712
▁*200	-14713
▁Brah	-14714
▁Isle	-14715
▁1999,	-14716
▁engage	-14717
▁notably	-14718
▁historians	-14719
ulo	-14720
quoi	-14721
▁Dat	-14722
ashes	-14723
irent	-14724
▁alien	-14725
▁Guinea	-14726
▁extravag	-14727
▁tenderness	-14728
▁Kil	-14729
▁Action	-14730
▁luxury	-14731
▁maintenance	-14732
bone	-14733
▁Dum	-14734
▁rod	-14735
chten	-14736
▁Rico	-14737
▁Exper	-14738
▁uncon	-14739
anthrop	-14740
▁managers	-14741
chte	-14742
▁Sed	-14743
▁darling	-14744
▁rushing	-14745
▁preacher	-14746
▁Birmingham	-14747
AGE	-14748
lon	-14749
▁zw	-14750
amph	-14751
blance	-14752
▁jonka	-14753
▁coarse	-14754
▁trusted	-14755
–13	-14756
▁Curt	-14757
▁blows	-14758
▁Others	-14759
▁corrid	-14760
▁cathedral	-14761
▁encounter	-14762
▁ownership	-14763
esi	-14764
coll	-14765
icester	-14766
▁antagon	-14767
▁torment	-14768
government	-14769
▁SM	-14770
atra	-14771
AGGGC	-14772
▁erect	-14773
▁Officer	-14774
▁defensive	-14775
▁adaptation	-14776
▁proceeding	-14777
▁declaration	-14778
PL	-14779
arson	-14780
▁Bristol	-14781
▁leisure	-14782
▁Universal	-14783
▁messenger	-14784
▁entertained	-14785
▁29.	-14786
▁cod	-14787
▁kin	-14788
urring	-14789
website	-14790
▁surprising	-14791
ilet	-14792
ämän	-14793
▁Hab	-14794
chair	-14795
ighted	-14796
▁besch	-14797
▁items	-14798
▁Belgian	-14799
▁Cabinet	-14800
▁municipalities	-14801
▁61	-14802
uish	-14803
▁pall	-14804
▁Abs	-14805
iente	-14806
ushes	-14807
▁exer	-14808
▁idol	-14809
▁tamb	-14810
▁seize	-14811
▁yielded	-14812
▁graceful	-14813
▁accordance	-14814
ija	-14815
City	-14816
mdash	-14817
▁canvas	-14818
▁heroic	-14819
ependent	-14820
▁imposed	-14821
▁trouver	-14822
▁expressions	-14823
ogo	-14824
pie	-14825
rys	-14826
usa	-14827
▁gorge	-14828
▁paintings	-14829
▁unsuccess	-14830
▁GE	-14831
azon	-14832
▁30.	-14833
▁kas	-14834
▁engra	-14835
****	-14836
bably	-14837
▁Luis	-14838
▁intend	-14839
▁formally	-14840
▁reproach	-14841
▁Mis	-14842
▁Chen	-14843
▁agony	-14844
▁crest	-14845
▁Valent	-14846
▁faster	-14847
▁obeyed	-14848
ancouver	-14849
▁confession	-14850
nor	-14851
▁Auf	-14852
▁rak	-14853
▁Make	-14854
friend	-14855
▁Julian	-14856
▁destro	-14857
▁heroes	-14858
▁rhythm	-14859
19.	-14860
hon	-14861
rouw	-14862
▁Dow	-14863
▁Lan	-14864
▁Nazi	-14865
▁analy	-14866
▁formid	-14867
ICK	-14868
rov	-14869
atti	-14870
▁160	-14871
▁Byz	-14872
▁Late	-14873
person	-14874
ameless	-14875
▁quatre	-14876
▁transmission	-14877
ampa	-14878
▁fir	-14879
TCAGG	-14880
Victor	-14881
▁annex	-14882
▁tanto	-14883
▁Colomb	-14884
▁carved	-14885
▁shouldn	-14886
▁silently	-14887
▁salvation	-14888
▁misfortune	-14889
▁influential	-14890
Cor	-14891
Den	-14892
▁Ord	-14893
▁Type	-14894
▁reste	-14895
▁chaque	-14896
anka	-14897
▁1952	-14898
▁1957	-14899
▁Minor	-14900
▁walks	-14901
▁chairs	-14902
▁Din	-14903
▁lakes	-14904
Spanish	-14905
▁footst	-14906
▁frequency	-14907
▁PA	-14908
▁rég	-14909
▁1936	-14910
▁beau	-14911
▁Augen	-14912
▁flames	-14913
▁equipped	-14914
▁behaviour	-14915
▁sque	-14916
▁eighty	-14917
▁Trinity	-14918
▁awkward	-14919
inguished	-14920
▁continuing	-14921
ouss	-14922
tree	-14923
▁sano	-14924
▁sehr	-14925
second	-14926
▁etern	-14927
▁identical	-14928
Spe	-14929
enh	-14930
icity	-14931
▁bulk	-14932
▁ferv	-14933
▁tram	-14934
▁Gesch	-14935
November	-14936
▁Friends	-14937
▁Authority	-14938
Atl	-14939
opy	-14940
▁78	-14941
▁ske	-14942
▁bald	-14943
version	-14944
▁visual	-14945
dat	-14946
acted	-14947
▁LORD	-14948
▁Lloyd	-14949
▁fraud	-14950
▁folded	-14951
▁trials	-14952
▁Prussia	-14953
▁congrat	-14954
Act	-14955
Cer	-14956
seed	-14957
▁teh	-14958
▁2011.	-14959
▁frost	-14960
▁witnessed	-14961
▁indifference	-14962
eda	-14963
▁knights	-14964
elligence	-14965
▁undoubtedly	-14966
Sub	-14967
▁(;	-14968
▁Clare	-14969
▁offence	-14970
▁présent	-14971
-9	-14972
▁Brew	-14973
▁cler	-14974
▁spots	-14975
▁enters	-14976
▁wrapped	-14977
▁employees	-14978
▁spectacle	-14979
Louis	-14980
âteau	-14981
▁1955	-14982
▁sensitive	-14983
imi	-14984
▁Ton	-14985
▁kaj	-14986
ooker	-14987
▁Ryan	-14988
▁goin	-14989
▁calmly	-14990
▁Pittsburgh	-14991
né	-14992
igi	-14993
orem	-14994
▁Kor	-14995
▁Saf	-14996
▁Sri	-14997
▁1947	-14998
▁punish	-14999
▁efficient	-15000
_1	-15001
atur	-15002
▁NEW	-15003
▁tiet	-15004
▁Production	-15005
/8	-15006
πο	-15007
Irish	-15008
opedia	-15009
▁Homer	-15010
▁camera	-15011
▁patent	-15012
▁shares	-15013
▁radical	-15014
▁afforded	-15015
▁legislature	-15016
cup	-15017
▁LI	-15018
oten	-15019
▁Pick	-15020
asingly	-15021
▁leaped	-15022
▁Æ	-15023
aye	-15024
table	-15025
▁irre	-15026
▁Digital	-15027
▁restoration	-15028
–5	-15029
ithe	-15030
oker	-15031
After	-15032
ocity	-15033
▁cogn	-15034
▁Steel	-15035
▁coinc	-15036
▁Democrats	-15037
rais	-15038
▁Cand	-15039
▁doit	-15040
celand	-15041
minded	-15042
▁unjust	-15043
ribution	-15044
▁Edwards	-15045
▁literally	-15046
▁Eg	-15047
▁MAN	-15048
▁halted	-15049
▁harmon	-15050
▁Portland	-15051
▁receives	-15052
▁Literature	-15053
▁bonds	-15054
▁seinen	-15055
▁coaches	-15056
▁distract	-15057
▁wrestling	-15058
▁dép	-15059
▁appl	-15060
▁toen	-15061
▁Player	-15062
▁passer	-15063
▁Dest	-15064
▁Diam	-15065
▁Poll	-15066
levard	-15067
utting	-15068
▁Laure	-15069
▁maybe	-15070
▁guerre	-15071
ilo	-15072
onc	-15073
ardin	-15074
▁(2003	-15075
▁Girls	-15076
▁longest	-15077
▁endeavour	-15078
BI	-15079
Pre	-15080
arg	-15081
itals	-15082
▁Camb	-15083
adding	-15084
▁significantly	-15085
cut	-15086
omi	-15087
brand	-15088
quelle	-15089
▁canon	-15090
▁relax	-15091
▁timid	-15092
▁Warner	-15093
▁obscure	-15094
▁>	-15095
Mary	-15096
▁Mist	-15097
▁heap	-15098
▁tribut	-15099
isle	-15100
▁Len	-15101
▁MRS	-15102
▁glac	-15103
▁Wilhelm	-15104
▁faisait	-15105
▁disagree	-15106
icas	-15107
utton	-15108
▁boards	-15109
▁lecture	-15110
▁youngest	-15111
▁ashes	-15112
Eastern	-15113
▁decade	-15114
▁admired	-15115
▁neighbors	-15116
▁Professional	-15117
did	-15118
▁XVI	-15119
▁lac	-15120
birth	-15121
novel	-15122
▁Left	-15123
▁heed	-15124
▁morn	-15125
▁Polly	-15126
▁aimed	-15127
▁lunch	-15128
▁vigor	-15129
▁Fisher	-15130
▁tennis	-15131
▁elaborate	-15132
▁successive	-15133
cz	-15134
lang	-15135
1,000	-15136
▁Archite	-15137
▁Performance	-15138
/5	-15139
έν	-15140
unge	-15141
."--_	-15142
ersed	-15143
isive	-15144
▁Plot	-15145
▁Salt	-15146
▁mock	-15147
atorial	-15148
▁marine	-15149
▁fatigue	-15150
▁fox	-15151
▁Bir	-15152
▁Hem	-15153
ribly	-15154
▁400|	-15155
▁stam	-15156
itations	-15157
▁conject	-15158
▁reaches	-15159
▁spending	-15160
▁passionate	-15161
Hung	-15162
iated	-15163
▁silly	-15164
▁Athletic	-15165
▁reminded	-15166
▁worldwide	-15167
▁Petersburg	-15168
2}	-15169
ικ	-15170
/01	-15171
GGCC	-15172
maan	-15173
▁Dies	-15174
reated	-15175
▁Nevada	-15176
--'	-15177
▁Hig	-15178
▁logic	-15179
▁Flight	-15180
▁gracious	-15181
END	-15182
esen	-15183
▁maps	-15184
▁martyr	-15185
▁Spencer	-15186
▁quantities	-15187
▁toil	-15188
issent	-15189
▁Claud	-15190
▁parler	-15191
Australia	-15192
▁är	-15193
gard	-15194
kään	-15195
▁gef	-15196
ATCAC	-15197
▁1942	-15198
▁Minä	-15199
▁Devil	-15200
▁heels	-15201
▁accent	-15202
▁Economy	-15203
▁corners	-15204
▁gravely	-15205
▁threatening	-15206
rians	-15207
unken	-15208
▁Parish	-15209
▁Rivers	-15210
▁benefits	-15211
rowheaders	-15212
▁À	-15213
kar	-15214
▁$1	-15215
ogan	-15216
vait	-15217
▁bend	-15218
▁tang	-15219
▁bells	-15220
▁Hawaii	-15221
▁linked	-15222
▁Members	-15223
▁foi	-15224
agles	-15225
otype	-15226
▁wilt	-15227
▁categ	-15228
Television	-15229
eau	-15230
▁exh	-15231
aying	-15232
hammad	-15233
▁tourn	-15234
▁memories	-15235
▁unnecess	-15236
▁northwest	-15237
▁vag	-15238
ometer	-15239
▁Sweet	-15240
▁dense	-15241
▁subtle	-15242
▁Babylon	-15243
▁Welling	-15244
▁bitterly	-15245
▁medieval	-15246
».	-15247
▁Hir	-15248
▁Jar	-15249
cycle	-15250
▁Wayne	-15251
▁Holmes	-15252
▁introduce	-15253
▁footballers	-15254
▁plainrowheaders	-15255
Jim	-15256
Two	-15257
sson	-15258
▁Expl	-15259
▁sits	-15260
venant	-15261
▁Excell	-15262
▁Gerald	-15263
▁fortunes	-15264
▁garments	-15265
▁heartily	-15266
▁meantime	-15267
▁PH	-15268
▁lect	-15269
▁wohl	-15270
▁Syria	-15271
▁Agency	-15272
▁muscles	-15273
▁therein	-15274
▁policies	-15275
▁reconcil	-15276
Vol	-15277
▁ID	-15278
aupt	-15279
elde	-15280
▁118	-15281
▁Cant	-15282
▁NCAA	-15283
▁dove	-15284
▁Basil	-15285
▁prose	-15286
Because	-15287
▁shudder	-15288
▁suicide	-15289
imir	-15290
eting	-15291
design	-15292
▁Ridge	-15293
ressing	-15294
hematical	-15295
▁Airlines	-15296
sd	-15297
änä	-15298
▁IT	-15299
ieve	-15300
▁Doc	-15301
▁cham	-15302
pector	-15303
▁Nebraska	-15304
▁elevated	-15305
▁justified	-15306
▁Um	-15307
cker	-15308
▁kul	-15309
▁smallest	-15310
▁assurance	-15311
▁indifferent	-15312
▁85	-15313
▁Alm	-15314
igger	-15315
▁Frau	-15316
rolling	-15317
▁alcohol	-15318
▁confessed	-15319
=|	-15320
RC	-15321
kun	-15322
▁Exam	-15323
▁mask	-15324
▁breaks	-15325
▁markets	-15326
▁finishing	-15327
Our	-15328
opt	-15329
▁Giov	-15330
▁violin	-15331
▁Indonesia	-15332
▁discourse	-15333
▁strangely	-15334
▁neighboring	-15335
Est	-15336
VER	-15337
nik	-15338
▁zo	-15339
alis	-15340
orno	-15341
▁Seb	-15342
Every	-15343
keley	-15344
▁|----	-15345
▁capita	-15346
▁sunset	-15347
▁Defence	-15348
▁sinking	-15349
occo	-15350
▁loan	-15351
▁neighbouring	-15352
▁Communications	-15353
ding	-15354
Georg	-15355
▁damp	-15356
▁Trail	-15357
▁surve	-15358
▁amused	-15359
▁announ	-15360
stration	-15361
▁Raymond	-15362
▁actresses	-15363
▁Organization	-15364
▁Peru	-15365
▁vide	-15366
▁Singh	-15367
üll	-15368
5555	-15369
▁110	-15370
▁Feb	-15371
▁lég	-15372
▁sar	-15373
▁Trad	-15374
▁Scient	-15375
▁femmes	-15376
munition	-15377
▁promises	-15378
EY	-15379
▁600	-15380
frast	-15381
▁forc	-15382
▁exile	-15383
▁renov	-15384
▁Reform	-15385
▁prayed	-15386
▁reverse	-15387
▁certainty	-15388
▁searching	-15389
▁communications	-15390
▁Set	-15391
▁motto	-15392
▁Ernest	-15393
▁Letter	-15394
▁circular	-15395
)||	-15396
▁Ko	-15397
▁kw	-15398
▁Sah	-15399
▁gri	-15400
enson	-15401
▁witch	-15402
▁biggest	-15403
▁dissolved	-15404
▁witnesses	-15405
nez	-15406
game	-15407
▁Tow	-15408
▁Craw	-15409
▁Piet	-15410
▁navy	-15411
alogue	-15412
▁betrayed	-15413
▁:*	-15414
▁Cic	-15415
▁avez	-15416
▁completion	-15417
=7	-15418
⁄2	-15419
IAM	-15420
jos	-15421
why	-15422
neys	-15423
handed	-15424
▁2004.	-15425
▁Around	-15426
▁prevailed	-15427
Ay	-15428
_),	-15429
pread	-15430
▁conse	-15431
▁printing	-15432
▁vicinity	-15433
▁proclaimed	-15434
Mac	-15435
▁Bag	-15436
▁bug	-15437
mediate	-15438
▁yonder	-15439
▁Romania	-15440
▁longing	-15441
▁investment	-15442
Mc	-15443
atha	-15444
▁gehe	-15445
ATAAAA	-15446
orical	-15447
Russian	-15448
▁Medicine	-15449
:4	-15450
Val	-15451
▁74	-15452
▁ft	-15453
▁Jen	-15454
▁dent	-15455
▁Keith	-15456
▁cloak	-15457
▁venue	-15458
▁assess	-15459
▁directors	-15460
Sy	-15461
lé	-15462
ète	-15463
▁Cho	-15464
▁enl	-15465
▁Bobby	-15466
▁Serbia	-15467
▁compact	-15468
▁filling	-15469
▁varying	-15470
▁governed	-15471
▁Catholics	-15472
▁circulation	-15473
▁−	-15474
gang	-15475
▁CBS	-15476
▁Truth	-15477
▁ample	-15478
▁riches	-15479
▁answers	-15480
▁immortal	-15481
▁exquisite	-15482
▁pleasures	-15483
▁uno	-15484
ATGGC	-15485
▁golf	-15486
Little	-15487
▁steal	-15488
▁Similar	-15489
▁Vermont	-15490
▁flowing	-15491
▁abundance	-15492
▁indicates	-15493
▁orchestra	-15494
ρά	-15495
ieg	-15496
▁jail	-15497
▁injust	-15498
▁inward	-15499
▁electronic	-15500
IVE	-15501
▁Von	-15502
▁mul	-15503
▁Brid	-15504
ischer	-15505
▁index	-15506
▁Yellow	-15507
▁Leonard	-15508
▁corruption	-15509
rio	-15510
sche	-15511
▁pregn	-15512
national	-15513
▁compliment	-15514
aum	-15515
▁::	-15516
▁voit	-15517
▁zeer	-15518
▁Blake	-15519
▁specially	-15520
ORY	-15521
bank	-15522
▁user	-15523
▁chambre	-15524
▁enchant	-15525
▁believes	-15526
>.	-15527
ifs	-15528
psy	-15529
Rail	-15530
link	-15531
▁reck	-15532
▁geomet	-15533
Populated	-15534
▁contented	-15535
obs	-15536
rien	-15537
AGTTC	-15538
▁zelf	-15539
▁adequ	-15540
▁schoon	-15541
▁sciences	-15542
▁platforms	-15543
!」	-15544
acia	-15545
ACTGC	-15546
▁Alph	-15547
▁guid	-15548
▁olen	-15549
▁balls	-15550
▁boxes	-15551
▁flies	-15552
▁terminus	-15553
▁technique	-15554
elin	-15555
▁Vas	-15556
AGAGG	-15557
icker	-15558
▁Bomb	-15559
itched	-15560
ussion	-15561
▁dilig	-15562
▁Edmund	-15563
▁affirm	-15564
▁rebels	-15565
unciation	-15566
▁secretly	-15567
Int	-15568
▁Voy	-15569
retion	-15570
▁rigid	-15571
▁shallow	-15572
▁inscription	-15573
▁illustration	-15574
Cam	-15575
aub	-15576
tti	-15577
▁Tak	-15578
cises	-15579
▁pris	-15580
▁tests	-15581
▁Arabic	-15582
▁alarmed	-15583
▁plusieurs	-15584
▁describing	-15585
▁percentage	-15586
wi	-15587
zzo	-15588
▁Emb	-15589
▁Ian	-15590
▁dug	-15591
▁oct	-15592
AGTGC	-15593
faced	-15594
▁aven	-15595
▁mamma	-15596
▁Guild	-15597
Pacific	-15598
▁Martha	-15599
▁Climate	-15600
▁tool	-15601
▁(2006	-15602
▁chains	-15603
▁struggled	-15604
▁AF	-15605
▁bills	-15606
February	-15607
tar	-15608
anno	-15609
boro	-15610
uksi	-15611
▁Nam	-15612
▁Arena	-15613
▁wides	-15614
▁ruling	-15615
fois	-15616
riek	-15617
▁Dol	-15618
▁Crom	-15619
▁Sept	-15620
▁Terry	-15621
▁Clinton	-15622
▁Adelaide	-15623
▁invisible	-15624
▁missionary	-15625
bie	-15626
▁Ces	-15627
nesday	-15628
▁matin	-15629
emporary	-15630
▁estates	-15631
doc	-15632
▁Sent	-15633
▁lords	-15634
taa	-15635
▁Oil	-15636
▁sis	-15637
▁whirl	-15638
osevelt	-15639
▁Branch	-15640
▁concur	-15641
asha	-15642
ATTGC	-15643
▁Dragon	-15644
▁humili	-15645
▁bridges	-15646
▁heavenly	-15647
[...]
