<unk>	0
<s>	0
</s>	0
▁t	-0
he	-1
▁a	-2
in	-3
er	-4
▁the	-5
▁o	-6
▁s	-7
re	-8
en	-9
▁w	-10
on	-11
at	-12
an	-13
is	-14
it	-15
or	-16
ed	-17
es	-18
▁c	-19
▁b	-20
nd	-21
ou	-22
▁of	-23
ar	-24
▁f	-25
▁m	-26
▁d	-27
▁h	-28
▁p	-29
al	-30
▁and	-31
as	-32
▁in	-33
ing	-34
le	-35
▁to	-36
ic	-37
om	-38
▁l	-39
▁th	-40
▁n	-41
ion	-42
el	-43
▁|	-44
il	-45
ent	-46
▁T	-47
▁C	-48
st	-49
▁S	-50
ad	-51
▁e	-52
▁I	-53
▁he	-54
ot	-55
▁g	-56
▁A	-57
ro	-58
ut	-59
▁re	-60
et	-61
ac	-62
ig	-63
im	-64
ol	-65
id	-66
am	-67
ur	-68
▁be	-69
▁M	-70
ir	-71
ve	-72
ly	-73
ver	-74
ow	-75
▁u	-76
▁was	-77
▁on	-78
se	-79
▁B	-80
ay	-81
▁1	-82
▁wh	-83
▁for	-84
ch	-85
ter	-86
▁H	-87
▁that	-88
ith	-89
ce	-90
▁as	-91
▁st	-92
▁de	-93
▁P	-94
▁(	-95
ct	-96
▁The	-97
▁is	-98
▁y	-99
▁it	-100
▁with	-101
▁al	-102
and	-103
ation	-104
▁"	-105
ul	-106
qu	-107
ht	-108
▁v	-109
ri	-110
us	-111
▁his	-112
▁L	-113
▁F	-114
her	-115
▁R	-116
ld	-117
▁an	-118
▁W	-119
▁D	-120
th	-121
ra	-122
▁G	-123
est	-124
em	-125
▁at	-126
NN	-127
ate	-128
▁*	-129
ill	-130
ag	-131
un	-132
▁E	-133
od	-134
▁con	-135
▁se	-136
ist	-137
ain	-138
um	-139
--	-140
os	-141
if	-142
▁N	-143
▁k	-144
▁by	-145
▁2	-146
▁you	-147
rom	-148
ich	-149
ab	-150
▁not	-151
ers	-152
ess	-153
res	-154
ant	-155
▁r	-156
ak	-157
op	-158
▁had	-159
ore	-160
ie	-161
▁su	-162
ight	-163
▁ha	-164
▁com	-165
▁J	-166
all	-167
pp	-168
ard	-169
▁or	-170
▁le	-171
00	-172
▁from	-173
▁O	-174
iv	-175
ell	-176
▁sh	-177
art	-178
ould	-179
our	-180
ere	-181
▁her	-182
end	-183
nt	-184
AA	-185
ort	-186
TT	-187
▁which	-188
▁ne	-189
▁ex	-190
▁qu	-191
▁=	-192
ous	-193
ap	-194
ory	-195
▁19	-196
ity	-197
▁ch	-198
ust	-199
oc	-200
ge	-201
ast	-202
ies	-203
▁j	-204
▁me	-205
▁are	-206
oug	-207
▁pro	-208
▁him	-209
▁have	-210
▁were	-211
ong	-212
▁all	-213
ok	-214
▁sa	-215
pe	-216
ound	-217
▁but	-218
ure	-219
ame	-220
▁pl	-221
ber	-222
ia	-223
ive	-224
▁so	-225
ne	-226
ud	-227
te	-228
ian	-229
▁K	-230
ord	-231
hen	-232
ment	-233
▁en	-234
NNNN	-235
ine	-236
ome	-237
ign	-238
▁this	-239
▁we	-240
▁||	-241
ack	-242
ost	-243
ff	-244
ire	-245
out	-246
are	-247
▁man	-248
▁who	-249
▁she	-250
ip	-251
▁In	-252
ish	-253
▁they	-254
▁up	-255
av	-256
▁un	-257
ass	-258
▁U	-259
ik	-260
▁_	-261
ind	-262
ran	-263
▁la	-264
ry	-265
▁St	-266
ear	-267
▁their	-268
▁V	-269
▁one	-270
ep	-271
▁ar	-272
▁do	-273
▁ab	-274
▁my	-275
▁|-	-276
▁no	-277
to	-278
ary	-279
▁He	-280
▁go	-281
ateg	-282
ace	-283
TG	-284
ue	-285
ategory	-286
▁Ch	-287
▁Category	-288
CA	-289
19	-290
."	-291
ther	-292
="	-293
ough	-294
ated	-295
▁them	-296
age	-297
cc	-298
au	-299
og	-300
ial	-301
ence	-302
very	-303
ions	-304
ond	-305
ile	-306
one	-307
ide	-308
per	-309
pl	-310
hed	-311
▁been	-312
ount	-313
ice	-314
bl	-315
itt	-316
mer	-317
▁cl	-318
able	-319
ite	-320
ng	-321
▁ro	-322
▁would	-323
▁out	-324
▁Th	-325
ime	-326
pt	-327
sel	-328
own	-329
▁pr	-330
reat	-331
ens	-332
▁sp	-333
ll	-334
)|	-335
▁lo	-336
wn	-337
▁there	-338
▁It	-339
ew	-340
▁wor	-341
▁ad	-342
▁des	-343
sp	-344
ru	-345
▁said	-346
ect	-347
▁im	-348
..	-349
▁ag	-350
ang	-351
cl	-352
ose	-353
ib	-354
ks	-355
▁“	-356
▁has	-357
ft	-358
ake	-359
▁us	-360
▁per	-361
ade	-362
▁dis	-363
ical	-364
▁3	-365
ance	-366
01	-367
▁will	-368
▁other	-369
act	-370
ans	-371
▁when	-372
▁Y	-373
▁und	-374
▁tw	-375
old	-376
ress	-377
ach	-378
fter	-379
iz	-380
CC	-381
ven	-382
,"	-383
▁can	-384
▁kn	-385
▁part	-386
ree	-387
▁more	-388
ely	-389
▁gr	-390
fer	-391
▁cont	-392
▁comp	-393
▁tr	-394
▁app	-395
▁into	-396
here	-397
land	-398
▁am	-399
uc	-400
TA	-401
ood	-402
iss	-403
way	-404
▁its	-405
GG	-406
oy	-407
ath	-408
irst	-409
▁pre	-410
so	-411
▁sc	-412
we	-413
▁some	-414
ick	-415
man	-416
ult	-417
urn	-418
erv	-419
▁et	-420
ark	-421
▁over	-422
ied	-423
rit	-424
ings	-425
ces	-426
int	-427
ons	-428
▁pe	-429
ph	-430
▁br	-431
▁18	-432
ild	-433
ug	-434
ict	-435
self	-436
ction	-437
ious	-438
oll	-439
▁any	-440
ally	-441
▁Un	-442
▁time	-443
orn	-444
NNNNNNNN	-445
ait	-446
ater	-447
ations	-448
▁than	-449
▁if	-450
▁te	-451
ition	-452
ates	-453
▁bl	-454
▁200	-455
ward	-456
ont	-457
vers	-458
ike	-459
fore	-460
other	-461
▁first	-462
),	-463
▁Re	-464
▁after	-465
▁4	-466
ov	-467
▁comm	-468
▁could	-469
▁two	-470
▁!	-471
▁fl	-472
ors	-473
ited	-474
enter	-475
▁po	-476
tern	-477
red	-478
▁And	-479
orm	-480
ful	-481
▁res	-482
▁year	-483
▁off	-484
▁only	-485
gr	-486
▁also	-487
ife	-488
▁about	-489
row	-490
les	-491
tt	-492
▁what	-493
tain	-494
▁bec	-495
uch	-496
▁again	-497
ier	-498
yle	-499
amp	-500
xt	-501
ren	-502
▁fe	-503
▁under	-504
▁que	-505
hing	-506
ought	-507
▁your	-508
▁then	-509
ise	-510
ink	-511
▁very	-512
▁great	-513
▁co	-514
▁day	-515
▁z	-516
▁rec	-517
ase	-518
ail	-519
▁rem	-520
▁our	-521
ather	-522
TC	-523
ke	-524
▁now	-525
▁'	-526
▁ind	-527
▁made	-528
che	-529
igh	-530
▁did	-531
▁bet	-532
oss	-533
▁ra	-534
ents	-535
▁att	-536
ittle	-537
▁5	-538
ouse	-539
"|	-540
▁But	-541
ican	-542
▁may	-543
▁spe	-544
io	-545
▁such	-546
▁Mr	-547
ub	-548
▁upon	-549
▁imp	-550
oot	-551
ener	-552
▁know	-553
ss	-554
▁thr	-555
GA	-556
ubl	-557
▁cons	-558
▁hand	-559
▁-	-560
||	-561
▁acc	-562
▁Ar	-563
▁Le	-564
▁[	-565
ty	-566
02	-567
ople	-568
air	-569
▁where	-570
vel	-571
▁should	-572
▁before	-573
▁like	-574
▁see	-575
▁Al	-576
▁long	-577
ij	-578
▁est	-579
ational	-580
▁little	-581
up	-582
ec	-583
▁most	-584
ient	-585
ove	-586
oh	-587
▁men	-588
sh	-589
ah	-590
▁col	-591
▁pres	-592
▁Mar	-593
me	-594
iet	-595
▁bo	-596
ily	-597
align	-598
▁rep	-599
▁–	-600
▁say	-601
ock	-602
ob	-603
und	-604
ool	-605
▁201	-606
ness	-607
The	-608
der	-609
▁these	-610
lect	-611
▁6	-612
att	-613
ished	-614
ave	-615
ins	-616
▁sub	-617
8/	-618
▁inter	-619
▁par	-620
iel	-621
ale	-622
▁how	-623
▁sm	-624
▁ob	-625
?"	-626
rib	-627
▁à	-628
▁own	-629
▁look	-630
▁Wh	-631
▁0	-632
ett	-633
▁down	-634
▁She	-635
▁through	-636
als	-637
▁De	-638
ps	-639
▁op	-640
).	-641
▁well	-642
▁sur	-643
▁work	-644
▁New	-645
ix	-646
▁good	-647
▁el	-648
▁ear	-649
oth	-650
ww	-651
▁much	-652
▁new	-653
▁dist	-654
▁pass	-655
▁old	-656
▁style	-657
▁must	-658
▁back	-659
▁reg	-660
led	-661
▁em	-662
▁rel	-663
200	-664
▁ma	-665
▁Com	-666
ower	-667
ck	-668
▁every	-669
ters	-670
ton	-671
▁car	-672
▁being	-673
▁found	-674
ics	-675
▁call	-676
▁sl	-677
ince	-678
▁199	-679
▁gl	-680
ject	-681
▁sec	-682
----	-683
▁people	-684
▁play	-685
än	-686
▁Amer	-687
ms	-688
ved	-689
▁ret	-690
ien	-691
▁int	-692
▁This	-693
az	-694
▁years	-695
▁way	-696
▁act	-697
▁beg	-698
umb	-699
▁bel	-700
ull	-701
▁les	-702
uring	-703
form	-704
▁even	-705
▁Eng	-706
ual	-707
outh	-708
aw	-709
ner	-710
▁many	-711
▁ser	-712
▁count	-713
vent	-714
de	-715
▁ac	-716
ried	-717
▁Se	-718
ady	-719
▁life	-720
ause	-721
pr	-722
18	-723
▁As	-724
▁end	-725
ollow	-726
▁ass	-727
du	-728
▁(19	-729
▁char	-730
ible	-731
ason	-732
▁mar	-733
▁ter	-734
//	-735
ular	-736
ott	-737
ced	-738
://	-739
▁An	-740
▁those	-741
▁7	-742
vern	-743
_,	-744
ung	-745
▁tra	-746
▁never	-747
pect	-748
▁min	-749
ank	-750
▁inst	-751
ann	-752
▁came	-753
▁supp	-754
ision	-755
orth	-756
▁serv	-757
ared	-758
center	-759
ts	-760
ident	-761
AAA	-762
col	-763
ered	-764
ury	-765
▁--	-766
▁Sh	-767
co	-768
chool	-769
ern	-770
ote	-771
▁war	-772
▁form	-773
▁On	-774
▁es	-775
ween	-776
▁come	-777
▁just	-778
▁exp	-779
ature	-780
the	-781
com	-782
▁same	-783
ble	-784
▁sy	-785
▁é	-786
ased	-787
▁ent	-788
its	-789
clud	-790
que	-791
▁We	-792
ork	-793
▁pers	-794
▁follow	-795
▁8	-796
ohn	-797
▁United	-798
▁Ind	-799
▁They	-800
▁himself	-801
oun	-802
iam	-803
▁make	-804
ures	-805
▁States	-806
▁dif	-807
!"	-808
▁while	-809
den	-810
ever	-811
cy	-812
.”	-813
▁mon	-814
NNNNNNNNNNNNNNNN	-815
ral	-816
▁vo	-817
alk	-818
ities	-819
▁last	-820
oman	-821
▁might	-822
▁There	-823
▁che	-824
aut	-825
ope	-826
ted	-827
▁Z	-828
ative	-829
▁between	-830
▁three	-831
ivers	-832
ER	-833
ving	-834
}}	-835
ves	-836
ley	-837
ais	-838
ened	-839
▁ey	-840
▁Q	-841
rist	-842
enn	-843
▁head	-844
ined	-845
omet	-846
uss	-847
▁seem	-848
ines	-849
right	-850
ets	-851
cess	-852
▁right	-853
aking	-854
▁pol	-855
▁let	-856
▁word	-857
ames	-858
▁cap	-859
▁thought	-860
une	-861
cept	-862
▁think	-863
▁del	-864
uth	-865
ember	-866
▁&	-867
ilm	-868
ene	-869
▁here	-870
▁gener	-871
lish	-872
▁For	-873
ating	-874
▁cour	-875
▁bu	-876
▁met	-877
ific	-878
▁inc	-879
▁lar	-880
▁place	-881
▁er	-882
▁i	-883
▁wr	-884
ux	-885
▁Fran	-886
▁without	-887
▁child	-888
▁gu	-889
span	-890
riend	-891
▁9	-892
ret	-893
get	-894
▁Sp	-895
▁too	-896
imes	-897
inn	-898
▁shall	-899
▁Cl	-900
ground	-901
▁die	-902
▁fam	-903
ublic	-904
ield	-905
0,	-906
olog	-907
atter	-908
ash	-909
▁house	-910
ars	-911
▁il	-912
▁against	-913
ten	-914
▁son	-915
ism	-916
urch	-917
▁At	-918
▁still	-919
ants	-920
GC	-921
any	-922
▁ext	-923
ution	-924
ina	-925
inal	-926
▁der	-927
ement	-928
duc	-929
▁unt	-930
▁17	-931
less	-932
▁Pr	-933
▁av	-934
ys	-935
cial	-936
▁turn	-937
ives	-938
ged	-939
ball	-940
▁Sc	-941
org	-942
▁ed	-943
▁Col	-944
back	-945
▁Is	-946
▁went	-947
ired	-948
▁occ	-949
▁du	-950
▁198	-951
▁far	-952
ross	-953
▁American	-954
▁dep	-955
▁includ	-956
ments	-957
0.	-958
fl	-959
ived	-960
▁ver	-961
▁art	-962
▁near	-963
▁don	-964
ille	-965
▁ri	-966
▁pop	-967
▁add	-968
▁Pro	-969
ger	-970
▁John	-971
▁<	-972
▁File	-973
ai	-974
arl	-975
ric	-976
▁ph	-977
▁take	-978
▁ke	-979
▁rest	-980
▁dire	-981
▁away	-982
▁world	-983
rew	-984
▁cent	-985
ook	-986
▁tran	-987
▁Be	-988
▁used	-989
▁Gr	-990
hes	-991
._	-992
be	-993
sc	-994
▁poss	-995
▁eff	-996
▁left	-997
▁friend	-998
iver	-999
▁name	-1000
▁cer	-1001
hip	-1002
12	-1003
osed	-1004
▁Count	-1005
▁dem	-1006
son	-1007
ex	-1008
▁den	-1009
▁young	-1010
▁ev	-1011
my	-1012
ody	-1013
▁Con	-1014
TAA	-1015
,”	-1016
...	-1017
▁def	-1018
not	-1019
▁His	-1020
let	-1021
▁called	-1022
urs	-1023
▁ask	-1024
▁Br	-1025
▁show	-1026
ists	-1027
hat	-1028
inc	-1029
iew	-1030
▁point	-1031
ute	-1032
▁both	-1033
ences	-1034
ised	-1035
men	-1036
▁another	-1037
eter	-1038
nb	-1039
raph	-1040
▁God	-1041
</	-1042
▁high	-1043
15	-1044
aug	-1045
umber	-1046
ief	-1047
▁death	-1048
▁16	-1049
ta	-1050
wards	-1051
ird	-1052
▁Ex	-1053
ept	-1054
▁each	-1055
▁15	-1056
arch	-1057
text	-1058
1.	-1059
20	-1060
ulation	-1061
jp	-1062
.,	-1063
▁land	-1064
min	-1065
▁You	-1066
nbsp	-1067
▁ce	-1068
▁mod	-1069
▁cr	-1070
oup	-1071
▁somet	-1072
▁inv	-1073
▁present	-1074
▁during	-1075
▁put	-1076
mp	-1077
ages	-1078
▁aff	-1079
▁str	-1080
17	-1081
alf	-1082
▁return	-1083
ways	-1084
ister	-1085
omen	-1086
;"|	-1087
els	-1088
▁ele	-1089
med	-1090
▁fr	-1091
▁qui	-1092
1,	-1093
▁Ph	-1094
▁.	-1095
rown	-1096
TCA	-1097
▁197	-1098
ison	-1099
gg	-1100
▁eyes	-1101
▁Ge	-1102
jpg	-1103
8/8/	-1104
▁though	-1105
▁sw	-1106
▁took	-1107
iness	-1108
ither	-1109
▁sing	-1110
background	-1111
irl	-1112
▁Ger	-1113
of	-1114
▁const	-1115
201	-1116
▁}}	-1117
ians	-1118
usic	-1119
10	-1120
▁Christ	-1121
iving	-1122
▁King	-1123
▁four	-1124
arn	-1125
▁find	-1126
16	-1127
▁sent	-1128
II	-1129
▁lead	-1130
▁dec	-1131
▁202	-1132
TGA	-1133
▁water	-1134
▁night	-1135
▁light	-1136
ui	-1137
▁care	-1138
▁get	-1139
▁Bl	-1140
app	-1141
ience	-1142
▁loc	-1143
▁ever	-1144
▁home	-1145
▁small	-1146
eb	-1147
▁align	-1148
TTTT	-1149
▁conf	-1150
▁heart	-1151
▁sign	-1152
ek	-1153
▁known	-1154
▁var	-1155
sw	-1156
eng	-1157
▁few	-1158
▁once	-1159
▁until	-1160
osition	-1161
▁use	-1162
▁country	-1163
▁tell	-1164
▁contin	-1165
▁When	-1166
left	-1167
▁All	-1168
4,	-1169
▁sim	-1170
uro	-1171
ron	-1172
▁stud	-1173
by	-1174
▁prov	-1175
ats	-1176
▁person	-1177
▁father	-1178
▁cur	-1179
▁class	-1180
▁Or	-1181
irc	-1182
mber	-1183
▁because	-1184
ober	-1185
▁read	-1186
aj	-1187
use	-1188
▁ple	-1189
▁stre	-1190
aken	-1191
▁yet	-1192
és	-1193
▁second	-1194
aps	-1195
ural	-1196
ours	-1197
ster	-1198
▁Her	-1199
▁bre	-1200
atch	-1201
13	-1202
▁face	-1203
▁dra	-1204
ange	-1205
▁12	-1206
▁To	-1207
▁X	-1208
▁sk	-1209
ually	-1210
ched	-1211
▁mind	-1212
aster	-1213
ues	-1214
▁je	-1215
▁sever	-1216
www	-1217
▁want	-1218
iversity	-1219
▁mil	-1220
▁side	-1221
▁tre	-1222
li	-1223
ax	-1224
oon	-1225
▁Ad	-1226
ches	-1227
▁rece	-1228
▁fin	-1229
vernment	-1230
▁power	-1231
ze	-1232
elt	-1233
▁saw	-1234
ains	-1235
▁consid	-1236
▁hum	-1237
▁ref	-1238
4.	-1239
most	-1240
ple	-1241
▁desc	-1242
ony	-1243
▁ja	-1244
▁stand	-1245
▁cor	-1246
aint	-1247
▁mom	-1248
▁foot	-1249
▁pri	-1250
▁une	-1251
▁au	-1252
▁among	-1253
rict	-1254
▁adv	-1255
▁set	-1256
ling	-1257
angu	-1258
▁prop	-1259
ently	-1260
▁Pl	-1261
▁best	-1262
ized	-1263
ert	-1264
ane	-1265
▁bro	-1266
▁offic	-1267
orts	-1268
▁htt	-1269
▁differ	-1270
stem	-1271
ended	-1272
▁No	-1273
oul	-1274
▁order	-1275
br	-1276
elle	-1277
iven	-1278
▁#	-1279
▁mer	-1280
ained	-1281
thumb	-1282
▁tem	-1283
ograph	-1284
▁town	-1285
▁give	-1286
HE	-1287
▁si	-1288
3.	-1289
▁val	-1290
▁196	-1291
ense	-1292
aces	-1293
▁fact	-1294
▁law	-1295
▁Brit	-1296
▁Can	-1297
▁hist	-1298
▁dou	-1299
▁med	-1300
▁van	-1301
▁nothing	-1302
▁mem	-1303
▁ins	-1304
▁became	-1305
:#	-1306
new	-1307
▁County	-1308
▁later	-1309
▁hel	-1310
ode	-1311
3,	-1312
▁bus	-1313
▁If	-1314
▁kind	-1315
ica	-1316
ately	-1317
▁run	-1318
rop	-1319
▁di	-1320
bs	-1321
ma	-1322
▁certain	-1323
ued	-1324
uk	-1325
IN	-1326
▁happ	-1327
▁things	-1328
▁English	-1329
ON	-1330
eth	-1331
ctor	-1332
▁charac	-1333
thing	-1334
orld	-1335
▁main	-1336
▁pour	-1337
▁vis	-1338
2.	-1339
ility	-1340
▁prom	-1341
▁city	-1342
▁sil	-1343
na	-1344
50	-1345
TCC	-1346
▁always	-1347
TTA	-1348
ided	-1349
rench	-1350
▁number	-1351
▁book	-1352
▁How	-1353
aim	-1354
▁sat	-1355
▁York	-1356
▁school	-1357
000	-1358
aus	-1359
▁Car	-1360
▁Comm	-1361
▁having	-1362
14	-1363
GAA	-1364
▁half	-1365
▁since	-1366
▁dans	-1367
alt	-1368
ium	-1369
ee	-1370
▁10	-1371
▁appear	-1372
▁cle	-1373
urg	-1374
oint	-1375
▁War	-1376
▁days	-1377
▁trans	-1378
▁fell	-1379
▁ste	-1380
ipp	-1381
anc	-1382
ague	-1383
▁love	-1384
▁vol	-1385
▁large	-1386
5,	-1387
▁seen	-1388
ccess	-1389
akes	-1390
ides	-1391
▁began	-1392
yl	-1393
▁Will	-1394
AR	-1395
▁opp	-1396
amed	-1397
▁film	-1398
ices	-1399
▁moment	-1400
▁fore	-1401
velop	-1402
▁fa	-1403
ission	-1404
FF	-1405
ole	-1406
day	-1407
gen	-1408
unt	-1409
2,	-1410
▁estab	-1411
▁open	-1412
▁Then	-1413
resent	-1414
ada	-1415
5.	-1416
yn	-1417
▁series	-1418
ef	-1419
▁less	-1420
▁belie	-1421
ize	-1422
▁**	-1423
val	-1424
▁state	-1425
▁soon	-1426
aan	-1427
par	-1428
▁along	-1429
aced	-1430
_.	-1431
uck	-1432
dom	-1433
▁disc	-1434
▁pas	-1435
▁season	-1436
▁mother	-1437
▁orig	-1438
▁May	-1439
ured	-1440
gether	-1441
▁public	-1442
ée	-1443
....	-1444
selves	-1445
ude	-1446
▁hands	-1447
▁whole	-1448
ows	-1449
▁Par	-1450
▁German	-1451
cent	-1452
▁hard	-1453
ital	-1454
▁beh	-1455
▁Ed	-1456
▁prof	-1457
lev	-1458
ention	-1459
▁however	-1460
.]	-1461
con	-1462
▁quest	-1463
▁da	-1464
▁done	-1465
reen	-1466
ration	-1467
▁answ	-1468
oe	-1469
gy	-1470
▁feel	-1471
▁eng	-1472
▁El	-1473
▁going	-1474
▁enter	-1475
ery	-1476
▁room	-1477
oud	-1478
▁suff	-1479
▁polit	-1480
ius	-1481
ferences	-1482
▁whom	-1483
▁boy	-1484
▁leg	-1485
▁interest	-1486
▁wind	-1487
▁got	-1488
▁door	-1489
▁given	-1490
▁dev	-1491
▁dr	-1492
ably	-1493
▁Man	-1494
▁port	-1495
▁Mrs	-1496
▁thing	-1497
▁start	-1498
ham	-1499
ior	-1500
▁Aust	-1501
iety	-1502
▁woman	-1503
▁writ	-1504
▁hon	-1505
ering	-1506
▁does	-1507
▁several	-1508
6,	-1509
bum	-1510
▁That	-1511
rent	-1512
▁children	-1513
▁air	-1514
▁ann	-1515
▁20	-1516
▁La	-1517
▁better	-1518
atic	-1519
htt	-1520
▁told	-1521
mb	-1522
iber	-1523
ract	-1524
gan	-1525
▁South	-1526
▁asked	-1527
▁real	-1528
ois	-1529
ternal	-1530
ask	-1531
▁need	-1532
▁looked	-1533
ards	-1534
ales	-1535
ring	-1536
▁girl	-1537
▁pat	-1538
▁course	-1539
isc	-1540
Ch	-1541
ney	-1542
▁University	-1543
▁After	-1544
6.	-1545
▁Fl	-1546
▁ve	-1547
bers	-1548
ES	-1549
▁div	-1550
▁cre	-1551
▁area	-1552
▁194	-1553
CAA	-1554
▁seemed	-1555
You	-1556
px	-1557
▁Euro	-1558
▁Miss	-1559
▁family	-1560
▁often	-1561
▁England	-1562
ional	-1563
▁World	-1564
▁row	-1565
▁success	-1566
▁hor	-1567
style	-1568
▁Har	-1569
iter	-1570
▁bar	-1571
;"	-1572
cted	-1573
8,	-1574
ips	-1575
7.	-1576
duced	-1577
ilt	-1578
▁heard	-1579
▁langu	-1580
ata	-1581
7,	-1582
▁whe	-1583
8.	-1584
ances	-1585
▁sol	-1586
▁Te	-1587
▁French	-1588
color	-1589
▁oper	-1590
▁full	-1591
▁system	-1592
▁fre	-1593
▁next	-1594
▁—	-1595
▁By	-1596
▁partic	-1597
hern	-1598
30	-1599
▁ge	-1600
▁ty	-1601
▁elect	-1602
▁Go	-1603
▁record	-1604
▁enough	-1605
oci	-1606
▁taken	-1607
▁Lord	-1608
stand	-1609
for	-1610
▁Part	-1611
CTG	-1612
▁short	-1613
▁gave	-1614
▁almost	-1615
ette	-1616
▁general	-1617
199	-1618
af	-1619
▁THE	-1620
AN	-1621
▁line	-1622
ald	-1623
hy	-1624
▁repl	-1625
▁So	-1626
▁team	-1627
attle	-1628
uthor	-1629
▁Bar	-1630
▁keep	-1631
,--	-1632
▁rev	-1633
▁within	-1634
▁North	-1635
▁round	-1636
St	-1637
ken	-1638
▁early	-1639
inks	-1640
▁others	-1641
▁fall	-1642
9.	-1643
alth	-1644
▁knew	-1645
ceed	-1646
oney	-1647
▁References	-1648
▁equ	-1649
▁mean	-1650
ped	-1651
▁held	-1652
ths	-1653
▁words	-1654
ator	-1655
▁Rep	-1656
▁14	-1657
▁heav	-1658
▁expl	-1659
▁population	-1660
▁requ	-1661
▁stru	-1662
▁character	-1663
itle	-1664
▁produ	-1665
▁ide	-1666
▁something	-1667
itions	-1668
go	-1669
▁Gu	-1670
▁pur	-1671
",	-1672
ondon	-1673
ges	-1674
▁brought	-1675
▁age	-1676
ology	-1677
▁dé	-1678
▁tri	-1679
▁white	-1680
OR	-1681
ox	-1682
ament	-1683
EN	-1684
▁British	-1685
ached	-1686
▁With	-1687
▁National	-1688
▁sit	-1689
oke	-1690
▁result	-1691
It	-1692
oi	-1693
▁One	-1694
icht	-1695
▁music	-1696
▁exc	-1697
▁together	-1698
▁cond	-1699
▁ten	-1700
▁effect	-1701
▁former	-1702
fic	-1703
▁Per	-1704
▁around	-1705
aul	-1706
elf	-1707
▁School	-1708
▁whose	-1709
arm	-1710
▁mov	-1711
▁vi	-1712
▁soc	-1713
CTT	-1714
▁develop	-1715
ones	-1716
▁nat	-1717
por	-1718
9,	-1719
ically	-1720
▁Tr	-1721
▁fire	-1722
▁Cal	-1723
orning	-1724
▁Europe	-1725
▁Aug	-1726
▁spec	-1727
illed	-1728
▁En	-1729
▁Me	-1730
".	-1731
▁plus	-1732
idd	-1733
▁build	-1734
.--	-1735
▁Ju	-1736
▁Ab	-1737
?”	-1738
iment	-1739
▁ill	-1740
fect	-1741
▁sch	-1742
▁mag	-1743
▁beaut	-1744
ressed	-1745
▁non	-1746
▁king	-1747
idge	-1748
▁import	-1749
▁till	-1750
▁women	-1751
25	-1752
▁following	-1753
▁What	-1754
▁hold	-1755
▁13	-1756
ule	-1757
▁circ	-1758
▁Qu	-1759
▁Am	-1760
▁strong	-1761
▁case	-1762
ape	-1763
ship	-1764
▁quite	-1765
▁rather	-1766
ère	-1767
▁Jan	-1768
unic	-1769
▁grand	-1770
▁common	-1771
eed	-1772
haps	-1773
▁sum	-1774
ording	-1775
▁West	-1776
amb	-1777
GTG	-1778
▁list	-1779
▁spir	-1780
bt	-1781
▁turned	-1782
▁{	-1783
▁government	-1784
ha	-1785
▁themselves	-1786
▁Sch	-1787
ourn	-1788
empt	-1789
ality	-1790
▁different	-1791
ford	-1792
orge	-1793
▁fur	-1794
▁conc	-1795
▁author	-1796
▁song	-1797
▁London	-1798
▁City	-1799
▁adm	-1800
▁six	-1801
ler	-1802
▁appro	-1803
itten	-1804
▁Not	-1805
▁mark	-1806
ush	-1807
ying	-1808
▁vers	-1809
eder	-1810
▁wife	-1811
--------	-1812
▁My	-1813
CCA	-1814
▁det	-1815
▁prot	-1816
▁sold	-1817
▁Ste	-1818
though	-1819
▁tou	-1820
vered	-1821
▁post	-1822
▁body	-1823
▁appe	-1824
▁Pol	-1825
▁above	-1826
ries	-1827
▁times	-1828
▁II	-1829
▁eas	-1830
▁command	-1831
▁ét	-1832
ét	-1833
▁195	-1834
▁rele	-1835
fully	-1836
read	-1837
GGA	-1838
▁Co	-1839
▁morning	-1840
▁See	-1841
▁five	-1842
augh	-1843
va	-1844
▁State	-1845
.)	-1846
▁dest	-1847
▁exper	-1848
▁dri	-1849
▁sun	-1850
▁camp	-1851
ka	-1852
ining	-1853
ively	-1854
▁ground	-1855
ays	-1856
▁gra	-1857
itable	-1858
oor	-1859
▁subject	-1860
undred	-1861
ases	-1862
▁aut	-1863
ils	-1864
▁Ne	-1865
▁hän	-1866
▁voice	-1867
eneral	-1868
▁William	-1869
ified	-1870
itary	-1871
band	-1872
ternational	-1873
▁bir	-1874
▁Phil	-1875
iod	-1876
ots	-1877
wh	-1878
▁design	-1879
▁Je	-1880
now	-1881
▁dark	-1882
▁fort	-1883
▁het	-1884
▁hear	-1885
▁won	-1886
▁human	-1887
lished	-1888
▁poor	-1889
▁black	-1890
▁rowspan	-1891
▁sett	-1892
ript	-1893
▁$	-1894
24	-1895
▁ein	-1896
▁felt	-1897
▁comple	-1898
▁talk	-1899
ning	-1900
▁necess	-1901
uary	-1902
▁\	-1903
▁Su	-1904
__	-1905
▁jo	-1906
▁France	-1907
▁become	-1908
▁cannot	-1909
iers	-1910
▁meet	-1911
▁obs	-1912
▁infl	-1913
▁ir	-1914
ris	-1915
▁matter	-1916
ination	-1917
▁hab	-1918
off	-1919
▁abs	-1920
▁(200	-1921
▁including	-1922
▁lab	-1923
▁view	-1924
ored	-1925
▁Char	-1926
▁lay	-1927
▁nor	-1928
▁enc	-1929
ella	-1930
▁arri	-1931
▁station	-1932
reg	-1933
▁business	-1934
fr	-1935
.'	-1936
▁:	-1937
▁trou	-1938
▁Hist	-1939
ese	-1940
side	-1941
▁album	-1942
▁August	-1943
ama	-1944
▁move	-1945
▁ut	-1946
cer	-1947
GTT	-1948
▁vill	-1949
▁House	-1950
60	-1951
GCA	-1952
ado	-1953
▁received	-1954
▁language	-1955
▁help	-1956
23	-1957
80	-1958
ino	-1959
▁proper	-1960
onder	-1961
▁feet	-1962
lege	-1963
incip	-1964
▁hundred	-1965
▁red	-1966
11	-1967
▁thus	-1968
arent	-1969
▁mot	-1970
idence	-1971
▁Pe	-1972
▁organ	-1973
ams	-1974
IS	-1975
emy	-1976
In	-1977
▁gent	-1978
ivision	-1979
▁τ	-1980
ument	-1981
cil	-1982
▁true	-1983
owed	-1984
iously	-1985
▁mat	-1986
▁nature	-1987
ää	-1988
ara	-1989
itted	-1990
▁sure	-1991
▁brother	-1992
▁least	-1993
▁passed	-1994
▁sound	-1995
▁‘	-1996
Un	-1997
▁game	-1998
▁reason	-1999
ocr	-2000
▁means	-2001
▁pu	-2002
▁speak	-2003
ana	-2004
▁bes	-2005
▁pap	-2006
▁March	-2007
▁maj	-2008
▁service	-2009
▁Oct	-2010
▁stood	-2011
▁Sir	-2012
▁sort	-2013
▁deep	-2014
▁links	-2015
▁object	-2016
ampions	-2017
▁stat	-2018
▁century	-2019
▁Min	-2020
omm	-2021
fort	-2022
27	-2023
40	-2024
▁national	-2025
▁money	-2026
osp	-2027
iqu	-2028
▁Austral	-2029
▁history	-2030
▁Cap	-2031
▁grow	-2032
▁says	-2033
ready	-2034
▁publ	-2035
▁vous	-2036
asure	-2037
–19	-2038
stit	-2039
▁mill	-2040
eptember	-2041
▁itself	-2042
web	-2043
▁Comp	-2044
leg	-2045
▁walk	-2046
▁road	-2047
enty	-2048
▁mis	-2049
ste	-2050
▁decl	-2051
▁either	-2052
acy	-2053
▁lui	-2054
▁cal	-2055
▁Sw	-2056
▁Party	-2057
▁respect	-2058
▁regard	-2059
Th	-2060
▁ave	-2061
▁gen	-2062
▁ant	-2063
▁question	-2064
202	-2065
▁arm	-2066
but	-2067
aff	-2068
▁lost	-2069
ivil	-2070
ops	-2071
▁aw	-2072
pril	-2073
▁Gl	-2074
apan	-2075
uit	-2076
fe	-2077
▁wid	-2078
▁party	-2079
aves	-2080
▁bed	-2081
▁These	-2082
port	-2083
▁relig	-2084
rol	-2085
▁ep	-2086
bo	-2087
▁anim	-2088
▁alone	-2089
55	-2090
29	-2091
▁period	-2092
26	-2093
▁incre	-2094
unity	-2095
▁June	-2096
▁support	-2097
lands	-2098
http	-2099
▁mount	-2100
▁sle	-2101
▁stran	-2102
▁perform	-2103
inter	-2104
▁fig	-2105
▁Mc	-2106
▁consider	-2107
▁pract	-2108
HA	-2109
▁direct	-2110
▁Church	-2111
▁low	-2112
ories	-2113
ensus	-2114
▁myself	-2115
▁fav	-2116
▁1.	-2117
▁External	-2118
amm	-2119
▁learn	-2120
▁clear	-2121
▁past	-2122
▁possible	-2123
▁laug	-2124
GCC	-2125
▁High	-2126
ising	-2127
▁League	-2128
▁led	-2129
ploy	-2130
▁lik	-2131
ume	-2132
ression	-2133
▁making	-2134
▁Russ	-2135
utes	-2136
▁Dav	-2137
reet	-2138
▁super	-2139
rem	-2140
▁represent	-2141
▁ih	-2142
▁company	-2143
▁sea	-2144
▁wait	-2145
▁anything	-2146
▁Cor	-2147
ending	-2148
▁hy	-2149
▁inf	-2150
ique	-2151
▁Que	-2152
inning	-2153
▁story	-2154
ny	-2155
▁already	-2156
hold	-2157
oura	-2158
▁fem	-2159
▁Pres	-2160
▁established	-2161
▁Il	-2162
▁Sy	-2163
39	-2164
▁account	-2165
70	-2166
ousand	-2167
iful	-2168
▁disp	-2169
za	-2170
▁believe	-2171
rest	-2172
▁Ital	-2173
28	-2174
▁herself	-2175
▁ord	-2176
omb	-2177
uff	-2178
▁July	-2179
▁position	-2180
▁chang	-2181
pecial	-2182
▁exist	-2183
▁princip	-2184
▁Ang	-2185
▁members	-2186
ki	-2187
▁sus	-2188
cle	-2189
▁band	-2190
van	-2191
▁field	-2192
hel	-2193
olution	-2194
oir	-2195
▁een	-2196
epend	-2197
No	-2198
head	-2199
▁ap	-2200
ency	-2201
gin	-2202
▁fear	-2203
▁particular	-2204
ivid	-2205
▁diffic	-2206
tre	-2207
▁Dr	-2208
▁football	-2209
lic	-2210
oo	-2211
And	-2212
▁Soc	-2213
▁dead	-2214
▁wood	-2215
▁September	-2216
▁spirit	-2217
▁gold	-2218
▁Air	-2219
▁late	-2220
▁tot	-2221
35	-2222
airs	-2223
ville	-2224
▁offer	-2225
sequ	-2226
▁returned	-2227
▁sud	-2228
▁esc	-2229
▁Reg	-2230
▁bur	-2231
▁October	-2232
cember	-2233
ovember	-2234
▁stra	-2235
iled	-2236
▁cut	-2237
▁tro	-2238
ci	-2239
▁front	-2240
estern	-2241
road	-2242
▁top	-2243
TER	-2244
▁behind	-2245
▁jud	-2246
▁free	-2247
▁https	-2248
ae	-2249
▁bring	-2250
);	-2251
ength	-2252
▁April	-2253
▁earth	-2254
="2	-2255
ift	-2256
▁Do	-2257
aid	-2258
▁Em	-2259
pped	-2260
▁resp	-2261
▁mit	-2262
itude	-2263
▁January	-2264
burg	-2265
▁Ser	-2266
▁pain	-2267
▁thousand	-2268
▁bra	-2269
36	-2270
▁expect	-2271
▁Hen	-2272
ference	-2273
▁prev	-2274
US	-2275
▁due	-2276
ogn	-2277
▁fut	-2278
well	-2279
▁live	-2280
rying	-2281
▁disco	-2282
asion	-2283
▁letter	-2284
▁difficult	-2285
▁sudden	-2286
What	-2287
37	-2288
▁Park	-2289
▁Hol	-2290
▁George	-2291
▁From	-2292
Amer	-2293
▁stri	-2294
ades	-2295
▁lim	-2296
ante	-2297
▁http	-2298
ization	-2299
▁zu	-2300
34	-2301
▁River	-2302
rie	-2303
▁ang	-2304
▁dro	-2305
▁close	-2306
▁Mad	-2307
▁doubt	-2308
▁influ	-2309
▁single	-2310
▁thou	-2311
▁Ro	-2312
aughter	-2313
ico	-2314
▁gone	-2315
▁leave	-2316
used	-2317
▁except	-2318
gcolor	-2319
▁north	-2320
ager	-2321
▁1,	-2322
omin	-2323
▁Nor	-2324
▁Now	-2325
▁por	-2326
bor	-2327
▁dear	-2328
99	-2329
▁followed	-2330
▁died	-2331
▁soul	-2332
▁group	-2333
nder	-2334
▁prob	-2335
▁across	-2336
arr	-2337
▁stop	-2338
cher	-2339
▁able	-2340
ander	-2341
▁friends	-2342
▁Sec	-2343
born	-2344
▁pal	-2345
▁hope	-2346
fact	-2347
▁inform	-2348
▁attack	-2349
uted	-2350
▁2.	-2351
▁gentle	-2352
▁Lou	-2353
▁acqu	-2354
lo	-2355
!”	-2356
▁perhaps	-2357
▁Indian	-2358
▁hig	-2359
▁cast	-2360
▁Mon	-2361
38	-2362
▁force	-2363
ili	-2364
▁therefore	-2365
▁ni	-2366
▁purp	-2367
▁Med	-2368
▁ré	-2369
lection	-2370
▁cross	-2371
▁attempt	-2372
▁possess	-2373
▁General	-2374
==	-2375
▁zij	-2376
▁Was	-2377
▁major	-2378
irt	-2379
▁caus	-2380
▁thy	-2381
reek	-2382
He	-2383
ato	-2384
▁US	-2385
▁whether	-2386
▁priv	-2387
ès	-2388
▁understand	-2389
▁living	-2390
▁continued	-2391
▁observ	-2392
cul	-2393
aving	-2394
aring	-2395
▁pay	-2396
▁fail	-2397
▁appeared	-2398
▁Ant	-2399
▁November	-2400
▁los	-2401
▁wall	-2402
Oh	-2403
▁December	-2404
tained	-2405
ios	-2406
▁Ber	-2407
▁describ	-2408
ills	-2409
levision	-2410
▁fun	-2411
▁further	-2412
erson	-2413
▁hour	-2414
▁occup	-2415
ouncil	-2416
ros	-2417
irm	-2418
▁sal	-2419
ita	-2420
ampionship	-2421
chn	-2422
ruction	-2423
▁named	-2424
▁0.	-2425
▁Sm	-2426
medi	-2427
▁fac	-2428
urb	-2429
ender	-2430
▁Japan	-2431
,'	-2432
ebru	-2433
ston	-2434
▁Of	-2435
▁fair	-2436
▁chief	-2437
American	-2438
▁tout	-2439
AAAA	-2440
▁25	-2441
▁educ	-2442
▁born	-2443
name	-2444
▁Cent	-2445
iddle	-2446
ään	-2447
▁das	-2448
▁Roman	-2449
anger	-2450
▁tu	-2451
▁towards	-2452
aught	-2453
▁Ass	-2454
75	-2455
▁indeed	-2456
aged	-2457
21	-2458
▁district	-2459
raft	-2460
▁Mary	-2461
ctions	-2462
lex	-2463
▁(18	-2464
owers	-2465
▁river	-2466
hem	-2467
90	-2468
▁church	-2469
▁avec	-2470
ilar	-2471
▁ye	-2472
▁trad	-2473
ested	-2474
▁Im	-2475
ography	-2476
GTA	-2477
iction	-2478
▁built	-2479
ky	-2480
▁quick	-2481
▁swe	-2482
pan	-2483
▁von	-2484
▁opened	-2485
▁south	-2486
▁Dist	-2487
ray	-2488
:19	-2489
▁written	-2490
▁mur	-2491
▁hus	-2492
uel	-2493
lected	-2494
ebruary	-2495
ears	-2496
▁profess	-2497
▁OF	-2498
yr	-2499
rag	-2500
iding	-2501
▁af	-2502
▁List	-2503
▁cause	-2504
▁cried	-2505
ival	-2506
orrow	-2507
CTA	-2508
▁Tw	-2509
▁Christian	-2510
▁San	-2511
▁election	-2512
LL	-2513
45	-2514
▁entire	-2515
▁ship	-2516
▁coming	-2517
line	-2518
▁fil	-2519
Yes	-2520
▁pie	-2521
key	-2522
▁manner	-2523
▁visit	-2524
over	-2525
▁perfect	-2526
▁|}	-2527
▁constit	-2528
field	-2529
▁length	-2530
▁eight	-2531
roy	-2532
▁lie	-2533
▁Jer	-2534
aa	-2535
iament	-2536
lin	-2537
▁squ	-2538
▁James	-2539
▁blood	-2540
iforn	-2541
▁Don	-2542
ords	-2543
▁remain	-2544
▁Er	-2545
▁comb	-2546
▁conne	-2547
cture	-2548
▁table	-2549
▁sie	-2550
aar	-2551
work	-2552
▁nous	-2553
▁sin	-2554
sem	-2555
▁bene	-2556
ão	-2557
▁Jack	-2558
▁11	-2559
▁truth	-2560
▁Dem	-2561
ua	-2562
ump	-2563
mon	-2564
AT	-2565
▁played	-2566
that	-2567
▁Some	-2568
▁Paul	-2569
▁hur	-2570
oral	-2571
kin	-2572
▁self	-2573
▁original	-2574
ror	-2575
▁,	-2576
66	-2577
▁kept	-2578
▁sometimes	-2579
▁anc	-2580
▁Paris	-2581
AS	-2582
gar	-2583
rel	-2584
▁employ	-2585
▁rail	-2586
▁scope	-2587
▁mo	-2588
acht	-2589
▁various	-2590
rary	-2591
conom	-2592
But	-2593
▁arms	-2594
Ar	-2595
▁intro	-2596
▁replied	-2597
cis	-2598
▁ran	-2599
▁third	-2600
lement	-2601
▁Port	-2602
ifornia	-2603
ledge	-2604
place	-2605
ii	-2606
▁Thom	-2607
ounded	-2608
▁progr	-2609
antly	-2610
▁remember	-2611
ream	-2612
▁draw	-2613
▁America	-2614
▁cult	-2615
yt	-2616
88	-2617
bert	-2618
▁arch	-2619
bb	-2620
Al	-2621
▁Rich	-2622
▁fight	-2623
2)	-2624
▁hat	-2625
▁wild	-2626
▁crit	-2627
▁{|	-2628
rey	-2629
riage	-2630
▁reached	-2631
▁looking	-2632
▁report	-2633
▁Rober	-2634
▁Oh	-2635
▁accom	-2636
onn	-2637
▁wish	-2638
▁claim	-2639
▁Cup	-2640
▁why	-2641
ught	-2642
▁answered	-2643
▁Great	-2644
▁else	-2645
▁sugg	-2646
▁«	-2647
vin	-2648
▁court	-2649
▁horse	-2650
ura	-2651
én	-2652
inct	-2653
▁24	-2654
ection	-2655
▁dut	-2656
▁natural	-2657
▁big	-2658
▁iss	-2659
▁Des	-2660
▁bit	-2661
▁Tom	-2662
1)	-2663
▁although	-2664
▁bad	-2665
▁However	-2666
▁change	-2667
ida	-2668
▁process	-2669
zen	-2670
ests	-2671
▁demand	-2672
ead	-2673
inary	-2674
▁compan	-2675
ige	-2676
▁individ	-2677
▁East	-2678
▁special	-2679
itting	-2680
umn	-2681
▁Val	-2682
▁really	-2683
▁February	-2684
wik	-2685
hr	-2686
0000	-2687
▁plan	-2688
body	-2689
▁important	-2690
ourt	-2691
▁husband	-2692
▁condu	-2693
ially	-2694
la	-2695
▁deter	-2696
pre	-2697
▁office	-2698
ey	-2699
chen	-2700
usion	-2701
▁added	-2702
▁carried	-2703
▁quar	-2704
ari	-2705
▁local	-2706
ires	-2707
uin	-2708
ample	-2709
▁Res	-2710
ora	-2711
▁sac	-2712
▁beautiful	-2713
85	-2714
▁excl	-2715
▁released	-2716
century	-2717
▁Ver	-2718
het	-2719
oph	-2720
22	-2721
bour	-2722
wood	-2723
ano	-2724
▁break	-2725
▁College	-2726
▁origin	-2727
▁idea	-2728
oute	-2729
▁Charles	-2730
▁ses	-2731
htm	-2732
77	-2733
▁mid	-2734
▁deg	-2735
▁fif	-2736
▁longer	-2737
▁History	-2738
▁Mich	-2739
bled	-2740
▁30	-2741
▁California	-2742
ät	-2743
▁sight	-2744
gu	-2745
▁Du	-2746
pro	-2747
hood	-2748
▁twenty	-2749
▁daughter	-2750
CTC	-2751
|19	-2752
▁Roy	-2753
▁sem	-2754
ging	-2755
artment	-2756
▁Mil	-2757
▁lady	-2758
64	-2759
▁step	-2760
▁published	-2761
imate	-2762
apt	-2763
▁host	-2764
▁neg	-2765
95	-2766
▁club	-2767
iff	-2768
▁soft	-2769
▁har	-2770
▁dat	-2771
night	-2772
▁prim	-2773
65	-2774
str	-2775
▁birth	-2776
▁sir	-2777
lem	-2778
▁works	-2779
▁dit	-2780
▁mater	-2781
▁desp	-2782
/8/8/	-2783
▁rad	-2784
▁village	-2785
▁seems	-2786
▁vict	-2787
▁liter	-2788
▁phys	-2789
▁fine	-2790
33	-2791
▁term	-2792
▁hours	-2793
▁Pal	-2794
▁oli	-2795
erve	-2796
▁sens	-2797
▁sense	-2798
▁political	-2799
▁thee	-2800
ustom	-2801
▁mais	-2802
ena	-2803
▁moved	-2804
▁necessary	-2805
▁Canada	-2806
▁wat	-2807
tered	-2808
uns	-2809
▁immedi	-2810
▁cost	-2811
▁recogn	-2812
ixed	-2813
▁om	-2814
▁Act	-2815
where	-2816
▁wonder	-2817
▁miles	-2818
arc	-2819
We	-2820
orthern	-2821
room	-2822
uation	-2823
▁Vir	-2824
pper	-2825
▁wrote	-2826
▁ou	-2827
RE	-2828
▁International	-2829
▁peace	-2830
▁taking	-2831
▁master	-2832
sec	-2833
▁event	-2834
order	-2835
▁evening	-2836
▁pict	-2837
▁accept	-2838
▁poet	-2839
bles	-2840
olic	-2841
umer	-2842
▁cold	-2843
TAAA	-2844
▁broad	-2845
▁CHA	-2846
ously	-2847
ria	-2848
▁faith	-2849
ishing	-2850
▁elle	-2851
▁bien	-2852
elled	-2853
hington	-2854
ando	-2855
▁viol	-2856
▁Rec	-2857
▁secret	-2858
▁histor	-2859
ociation	-2860
▁Street	-2861
▁Kingdom	-2862
▁army	-2863
itation	-2864
gress	-2865
98	-2866
▁»	-2867
▁rock	-2868
▁according	-2869
yond	-2870
▁based	-2871
foot	-2872
▁mist	-2873
44	-2874
pecially	-2875
ites	-2876
▁Championship	-2877
▁prison	-2878
aries	-2879
▁Mal	-2880
ér	-2881
▁Maj	-2882
ification	-2883
unk	-2884
enc	-2885
▁hot	-2886
▁deal	-2887
▁treat	-2888
lt	-2889
▁popular	-2890
Well	-2891
play	-2892
▁players	-2893
rupt	-2894
▁separ	-2895
hod	-2896
llust	-2897
▁worth	-2898
▁nearly	-2899
mi	-2900
aching	-2901
unn	-2902
▁imag	-2903
▁sen	-2904
▁ready	-2905
▁considered	-2906
wikitable	-2907
▁Henry	-2908
▁lad	-2909
ounced	-2910
icle	-2911
▁mus	-2912
▁Art	-2913
▁civil	-2914
ening	-2915
▁Louis	-2916
▁week	-2917
ores	-2918
oses	-2919
▁building	-2920
icient	-2921
cast	-2922
▁satis	-2923
▁fellow	-2924
▁comme	-2925
▁text	-2926
outhern	-2927
▁Pri	-2928
67	-2929
view	-2930
▁similar	-2931
TV	-2932
vi	-2933
▁Mart	-2934
▁title	-2935
AL	-2936
ael	-2937
like	-2938
ician	-2939
▁hom	-2940
▁sleep	-2941
ani	-2942
rap	-2943
▁Ag	-2944
▁Island	-2945
▁100	-2946
▁During	-2947
▁pen	-2948
▁Red	-2949
ho	-2950
▁mass	-2951
ago	-2952
▁Ac	-2953
▁streng	-2954
▁produced	-2955
▁parts	-2956
▁served	-2957
▁months	-2958
▁placed	-2959
▁nicht	-2960
▁CHAP	-2961
jo	-2962
ür	-2963
▁Bo	-2964
aval	-2965
lymp	-2966
▁modern	-2967
ja	-2968
▁bgcolor	-2969
▁neigh	-2970
▁Ma	-2971
▁action	-2972
▁compl	-2973
▁David	-2974
▁Hall	-2975
add	-2976
▁remained	-2977
▁remark	-2978
▁slow	-2979
▁started	-2980
▁District	-2981
/8/	-2982
68	-2983
▁military	-2984
▁Mont	-2985
▁member	-2986
▁forward	-2987
▁corn	-2988
▁Sen	-2989
▁danger	-2990
▁opin	-2991
itz	-2992
▁cop	-2993
▁Mer	-2994
▁sn	-2995
▁colspan	-2996
aient	-2997
▁Mag	-2998
▁answer	-2999
isl	-3000
isted	-3001
ises	-3002
▁concern	-3003
▁mut	-3004
▁+	-3005
▁aver	-3006
▁refer	-3007
olved	-3008
▁hast	-3009
si	-3010
ón	-3011
ety	-3012
rang	-3013
inner	-3014
3)	-3015
97	-3016
▁pet	-3017
▁addition	-3018
light	-3019
▁latter	-3020
▁trib	-3021
uis	-3022
▁Grand	-3023
ids	-3024
itte	-3025
▁eye	-3026
▁quiet	-3027
▁surpr	-3028
sey	-3029
elling	-3030
notes	-3031
ends	-3032
▁forg	-3033
.</	-3034
sport	-3035
type	-3036
▁Sam	-3037
itch	-3038
bre	-3039
▁ol	-3040
▁bas	-3041
▁cette	-3042
▁Ze	-3043
▁gard	-3044
▁creat	-3045
▁watch	-3046
itor	-3047
▁formed	-3048
mar	-3049
▁stay	-3050
inen	-3051
IT	-3052
är	-3053
▁occasion	-3054
▁appoint	-3055
ota	-3056
km	-3057
▁plain	-3058
cious	-3059
▁example	-3060
▁purpose	-3061
▁color	-3062
▁Off	-3063
▁Bel	-3064
▁engine	-3065
anish	-3066
atives	-3067
era	-3068
94	-3069
=2	-3070
▁hop	-3071
ias	-3072
▁press	-3073
▁race	-3074
sy	-3075
▁pray	-3076
▁hous	-3077
▁govern	-3078
▁Pat	-3079
ου	-3080
▁Acc	-3081
archive	-3082
▁battle	-3083
ND	-3084
▁Af	-3085
▁avait	-3086
ía	-3087
ingly	-3088
87	-3089
▁India	-3090
ellow	-3091
IC	-3092
▁fast	-3093
▁dog	-3094
▁frequ	-3095
acher	-3096
face	-3097
vo	-3098
▁President	-3099
▁exam	-3100
▁mal	-3101
▁especially	-3102
eg	-3103
▁Let	-3104
oted	-3105
what	-3106
▁married	-3107
itive	-3108
▁places	-3109
with	-3110
▁books	-3111
anced	-3112
berg	-3113
▁social	-3114
▁rose	-3115
▁CHAPTER	-3116
▁Ear	-3117
▁career	-3118
ables	-3119
▁Award	-3120
▁Union	-3121
--"	-3122
ete	-3123
▁entered	-3124
▁current	-3125
▁becom	-3126
▁mu	-3127
▁minutes	-3128
▁3.	-3129
▁sich	-3130
▁mention	-3131
unicip	-3132
kn	-3133
def	-3134
iant	-3135
ingu	-3136
igen	-3137
▁capt	-3138
ela	-3139
uten	-3140
▁liber	-3141
▁saying	-3142
An	-3143
▁toward	-3144
ité	-3145
▁bound	-3146
hib	-3147
▁novel	-3148
▁food	-3149
▁beyond	-3150
asc	-3151
▁knowledge	-3152
useum	-3153
▁ess	-3154
ators	-3155
▁Peter	-3156
istic	-3157
pond	-3158
rief	-3159
▁European	-3160
iden	-3161
iles	-3162
▁mult	-3163
▁Ter	-3164
▁fle	-3165
▁below	-3166
▁miss	-3167
|200	-3168
pid	-3169
▁hair	-3170
rab	-3171
▁material	-3172
teen	-3173
▁wel	-3174
LE	-3175
aine	-3176
▁Ir	-3177
▁comes	-3178
TCTT	-3179
▁Germany	-3180
▁x	-3181
▁final	-3182
illa	-3183
47	-3184
vert	-3185
ör	-3186
▁ven	-3187
arp	-3188
zz	-3189
▁test	-3190
▁games	-3191
▁Robert	-3192
▁lived	-3193
▁larg	-3194
▁inn	-3195
▁κ	-3196
ancy	-3197
▁First	-3198
adian	-3199
▁Fr	-3200
hab	-3201
sv	-3202
▁Men	-3203
mit	-3204
▁Dep	-3205
▁Town	-3206
ideo	-3207
▁million	-3208
▁als	-3209
acing	-3210
▁indust	-3211
▁emb	-3212
▁190	-3213
▁Cong	-3214
je	-3215
▁total	-3216
▁Washington	-3217
▁Thomas	-3218
arliament	-3219
▁forth	-3220
note	-3221
▁none	-3222
▁instead	-3223
reed	-3224
▁hu	-3225
▁Army	-3226
▁Here	-3227
▁fol	-3228
▁establish	-3229
▁clos	-3230
▁didn	-3231
▁Virgin	-3232
▁spoke	-3233
aux	-3234
ista	-3235
▁Cath	-3236
ême	-3237
▁Mac	-3238
▁distance	-3239
resh	-3240
▁obl	-3241
ocratic	-3242
▁occur	-3243
minist	-3244
▁Tran	-3245
▁sour	-3246
▁exec	-3247
iling	-3248
ava	-3249
▁Black	-3250
▁mad	-3251
▁feat	-3252
▁phil	-3253
▁generally	-3254
bsite	-3255
▁á	-3256
aded	-3257
tty	-3258
eks	-3259
▁lower	-3260
That	-3261
▁Australia	-3262
▁star	-3263
▁Court	-3264
▁circum	-3265
▁uns	-3266
▁Vol	-3267
rian	-3268
▁sweet	-3269
▁attention	-3270
▁Company	-3271
▁Captain	-3272
New	-3273
▁Mor	-3274
▁pot	-3275
▁était	-3276
▁jour	-3277
▁proceed	-3278
▁species	-3279
▁bird	-3280
▁everything	-3281
ero	-3282
▁probably	-3283
▁rul	-3284
▁belong	-3285
United	-3286
▁Law	-3287
▁makes	-3288
▁Sal	-3289
no	-3290
▁epis	-3291
▁...	-3292
48	-3293
▁male	-3294
▁(_	-3295
▁id	-3296
▁Che	-3297
roll	-3298
▁Olymp	-3299
▁coll	-3300
ula	-3301
▁Die	-3302
▁mir	-3303
▁conv	-3304
:「	-3305
▁ho	-3306
▁wanted	-3307
▁repe	-3308
▁auf	-3309
▁paper	-3310
▁level	-3311
▁While	-3312
pen	-3313
▁beginning	-3314
▁27	-3315
esse	-3316
▁board	-3317
▁Bra	-3318
▁heavy	-3319
▁impro	-3320
▁project	-3321
▁future	-3322
▁enemy	-3323
date	-3324
▁glad	-3325
▁qual	-3326
▁|19	-3327
▁leader	-3328
▁Lady	-3329
▁Frank	-3330
▁!!	-3331
utt	-3332
▁2,	-3333
▁ought	-3334
eds	-3335
Illust	-3336
etting	-3337
oved	-3338
▁located	-3339
AM	-3340
▁official	-3341
han	-3342
▁disapp	-3343
▁vast	-3344
ym	-3345
▁suddenly	-3346
▁laid	-3347
▁household	-3348
▁Tur	-3349
▁Sim	-3350
AC	-3351
OM	-3352
▁influence	-3353
gl	-3354
house	-3355
ishop	-3356
ech	-3357
▁plant	-3358
joy	-3359
▁Lat	-3360
▁breat	-3361
▁III	-3362
▁cru	-3363
▁Council	-3364
aled	-3365
▁feeling	-3366
▁Cr	-3367
▁hol	-3368
aker	-3369
▁pos	-3370
▁west	-3371
96	-3372
▁23	-3373
▁greater	-3374
▁cab	-3375
▁ren	-3376
hest	-3377
▁method	-3378
yal	-3379
do	-3380
▁television	-3381
▁blue	-3382
▁las	-3383
▁slight	-3384
▁/	-3385
▁ε	-3386
udd	-3387
Mar	-3388
▁include	-3389
▁Jew	-3390
▁relations	-3391
▁28	-3392
▁26	-3393
ndash	-3394
▁control	-3395
king	-3396
▁White	-3397
▁fat	-3398
▁Government	-3399
EE	-3400
▁god	-3401
▁cover	-3402
▁doing	-3403
äm	-3404
rance	-3405
▁arg	-3406
aik	-3407
▁space	-3408
▁included	-3409
Illustration	-3410
Sh	-3411
▁allow	-3412
▁Royal	-3413
svg	-3414
ming	-3415
▁strange	-3416
▁spl	-3417
▁Parliament	-3418
▁ful	-3419
tr	-3420
▁econom	-3421
TCTG	-3422
▁pun	-3423
ummer	-3424
▁green	-3425
ounds	-3426
▁ball	-3427
▁sister	-3428
▁usually	-3429
▁TV	-3430
▁©	-3431
▁note	-3432
▁Wil	-3433
atre	-3434
▁Rail	-3435
ING	-3436
▁appearance	-3437
▁trees	-3438
▁development	-3439
▁Just	-3440
ellig	-3441
▁ist	-3442
TATT	-3443
ées	-3444
ini	-3445
▁happy	-3446
ona	-3447
UR	-3448
▁lines	-3449
▁joy	-3450
▁tried	-3451
▁killed	-3452
▁mouth	-3453
──	-3454
▁mort	-3455
▁track	-3456
▁bear	-3457
32	-3458
▁crow	-3459
▁Mount	-3460
▁dam	-3461
▁Alex	-3462
atory	-3463
▁inj	-3464
ological	-3465
tä	-3466
▁22	-3467
▁cit	-3468
inger	-3469
▁activ	-3470
▁Cam	-3471
▁coun	-3472
▁gro	-3473
title	-3474
▁Cast	-3475
▁prep	-3476
division	-3477
▁health	-3478
▁Foot	-3479
▁chap	-3480
▁bran	-3481
aimed	-3482
▁seven	-3483
reland	-3484
▁condition	-3485
year	-3486
▁grad	-3487
▁boys	-3488
GAAA	-3489
▁Other	-3490
▁president	-3491
▁pleas	-3492
ga	-3493
▁21	-3494
▁outside	-3495
86	-3496
▁imm	-3497
▁study	-3498
ushed	-3499
▁cat	-3500
oured	-3501
ola	-3502
▁ago	-3503
▁described	-3504
▁convers	-3505
irty	-3506
▁2000	-3507
▁(201	-3508
▁education	-3509
▁independ	-3510
avy	-3511
part	-3512
▁Richard	-3513
▁mi	-3514
ples	-3515
ben	-3516
▁figure	-3517
89	-3518
BC	-3519
▁pi	-3520
ques	-3521
▁region	-3522
ider	-3523
▁mine	-3524
ournal	-3525
▁Arch	-3526
▁strength	-3527
▁Tra	-3528
ko	-3529
▁using	-3530
▁Bay	-3531
olit	-3532
▁suc	-3533
▁suppose	-3534
▁bank	-3535
ederal	-3536
84	-3537
▁assist	-3538
▁Old	-3539
▁east	-3540
▁Smith	-3541
▁value	-3542
▁enjoy	-3543
▁cho	-3544
utions	-3545
ensive	-3546
▁187	-3547
cts	-3548
uous	-3549
▁quel	-3550
▁Emp	-3551
▁island	-3552
aren	-3553
▁wit	-3554
▁ze	-3555
–0	-3556
▁private	-3557
▁Saint	-3558
isi	-3559
oria	-3560
____	-3561
antic	-3562
▁boat	-3563
osa	-3564
▁ancient	-3565
olf	-3566
▁Dan	-3567
known	-3568
▁determ	-3569
vey	-3570
1-	-3571
▁youth	-3572
mes	-3573
▁Prince	-3574
ST	-3575
▁bright	-3576
arrow	-3577
▁cell	-3578
odes	-3579
▁Rev	-3580
onel	-3581
▁produc	-3582
▁player	-3583
arily	-3584
▁Cont	-3585
▁Republic	-3586
ability	-3587
▁neither	-3588
ails	-3589
▁dom	-3590
▁ich	-3591
▁Jose	-3592
▁pretty	-3593
▁ident	-3594
▁pit	-3595
oups	-3596
▁aux	-3597
icles	-3598
mark	-3599
▁allowed	-3600
▁size	-3601
▁tal	-3602
▁inqu	-3603
▁burn	-3604
▁delight	-3605
iance	-3606
nes	-3607
▁Scot	-3608
▁bott	-3609
▁Les	-3610
▁events	-3611
▁version	-3612
▁rend	-3613
▁films	-3614
▁extra	-3615
▁reb	-3616
itar	-3617
▁san	-3618
▁rich	-3619
▁tree	-3620
▁indic	-3621
▁Scott	-3622
▁temper	-3623
ibrary	-3624
▁trust	-3625
▁Census	-3626
uer	-3627
▁direction	-3628
asket	-3629
och	-3630
▁circumst	-3631
▁immediately	-3632
enth	-3633
▁Bur	-3634
▁philos	-3635
▁succeed	-3636
▁Division	-3637
alle	-3638
▁chair	-3639
▁vot	-3640
ental	-3641
▁prevent	-3642
▁una	-3643
▁simple	-3644
raw	-3645
▁compet	-3646
ential	-3647
isk	-3648
edy	-3649
rica	-3650
azine	-3651
▁points	-3652
▁fit	-3653
▁env	-3654
▁summer	-3655
iar	-3656
▁Sl	-3657
▁fran	-3658
▁duty	-3659
https	-3660
peror	-3661
otal	-3662
illing	-3663
▁window	-3664
▁created	-3665
ca	-3666
▁base	-3667
="2"	-3668
▁information	-3669
time	-3670
▁opinion	-3671
31	-3672
▁loss	-3673
mo	-3674
▁Mark	-3675
▁parent	-3676
▁Cons	-3677
▁Ke	-3678
icket	-3679
under	-3680
icy	-3681
ription	-3682
frican	-3683
▁186	-3684
▁image	-3685
▁π	-3686
▁average	-3687
▁states	-3688
▁185	-3689
shire	-3690
αι	-3691
asp	-3692
▁rapid	-3693
▁mess	-3694
you	-3695
▁depart	-3696
▁Penn	-3697
orough	-3698
▁Del	-3699
▁earn	-3700
être	-3701
▁cases	-3702
▁changed	-3703
rad	-3704
▁Carol	-3705
▁Gold	-3706
▁raised	-3707
▁exact	-3708
▁Mex	-3709
▁cry	-3710
46	-3711
ergy	-3712
CACA	-3713
net	-3714
▁save	-3715
▁dress	-3716
▁regular	-3717
lying	-3718
sk	-3719
▁Club	-3720
▁closed	-3721
▁wide	-3722
▁purs	-3723
isions	-3724
exas	-3725
▁conce	-3726
▁log	-3727
▁wrong	-3728
▁movement	-3729
▁try	-3730
100	-3731
▁type	-3732
▁techn	-3733
▁Queen	-3734
iced	-3735
uments	-3736
De	-3737
olly	-3738
▁cand	-3739
▁defe	-3740
html	-3741
orses	-3742
aven	-3743
▁persons	-3744
▁names	-3745
▁announced	-3746
▁susp	-3747
▁presence	-3748
▁letters	-3749
▁working	-3750
▁zijn	-3751
▁guard	-3752
ende	-3753
eld	-3754
▁destroy	-3755
▁Vict	-3756
TGTG	-3757
bed	-3758
▁capital	-3759
dd	-3760
▁coast	-3761
▁surr	-3762
▁crowd	-3763
▁production	-3764
▁feature	-3765
ensity	-3766
otion	-3767
EF	-3768
▁anx	-3769
49	-3770
▁Land	-3771
ION	-3772
rowspan	-3773
▁Green	-3774
▁na	-3775
▁meant	-3776
▁Jes	-3777
▁consequ	-3778
▁Road	-3779
▁imposs	-3780
Le	-3781
ED	-3782
EL	-3783
anta	-3784
▁dies	-3785
ker	-3786
▁amb	-3787
ting	-3788
bar	-3789
▁net	-3790
ruit	-3791
aign	-3792
▁Rome	-3793
Foot	-3794
▁3,	-3795
▁chance	-3796
▁stone	-3797
rif	-3798
ön	-3799
rait	-3800
bling	-3801
inese	-3802
▁touch	-3803
▁Met	-3804
▁hall	-3805
▁mach	-3806
▁reading	-3807
wid	-3808
▁tour	-3809
▁desire	-3810
icked	-3811
OL	-3812
lied	-3813
ram	-3814
▁2006	-3815
uv	-3816
▁arrived	-3817
▁Well	-3818
▁personal	-3819
▁wis	-3820
▁higher	-3821
orks	-3822
▁services	-3823
▁express	-3824
▁Francis	-3825
▁forces	-3826
ights	-3827
▁certainly	-3828
▁Leg	-3829
▁standing	-3830
oes	-3831
▁Serv	-3832
astern	-3833
▁news	-3834
▁cred	-3835
ibility	-3836
▁dim	-3837
lich	-3838
atever	-3839
▁sufficient	-3840
▁custom	-3841
po	-3842
▁ban	-3843
▁decided	-3844
iner	-3845
▁shot	-3846
▁aud	-3847
▁Ireland	-3848
set	-3849
▁Spanish	-3850
▁society	-3851
▁officers	-3852
▁Ben	-3853
▁Why	-3854
▁Jud	-3855
▁experience	-3856
rid	-3857
▁affect	-3858
ala	-3859
▁Bill	-3860
ibly	-3861
ouv	-3862
▁pra	-3863
▁spring	-3864
III	-3865
▁pleasure	-3866
▁covered	-3867
▁Mass	-3868
▁App	-3869
▁writer	-3870
▁vess	-3871
aped	-3872
▁Ham	-3873
gypt	-3874
▁width	-3875
▁amount	-3876
ilies	-3877
▁typ	-3878
▁ces	-3879
▁invest	-3880
▁Day	-3881
4)	-3882
duction	-3883
▁trouble	-3884
▁fer	-3885
cht	-3886
▁hij	-3887
▁fait	-3888
▁giving	-3889
▁quickly	-3890
ares	-3891
▁According	-3892
▁Two	-3893
▁rate	-3894
lor	-3895
If	-3896
▁website	-3897
asons	-3898
erc	-3899
CAGG	-3900
ras	-3901
ify	-3902
▁para	-3903
▁charge	-3904
▁community	-3905
▁transl	-3906
RI	-3907
ya	-3908
▁center	-3909
▁perm	-3910
▁Pre	-3911
▁init	-3912
▁ru	-3913
▁Book	-3914
▁forms	-3915
ati	-3916
ittee	-3917
wer	-3918
abor	-3919
▁path	-3920
▁prec	-3921
▁broken	-3922
▁adop	-3923
▁fresh	-3924
▁etc	-3925
width	-3926
▁virt	-3927
▁street	-3928
▁stage	-3929
▁forest	-3930
▁rank	-3931
▁Virginia	-3932
▁leaving	-3933
▁silence	-3934
▁niet	-3935
▁Catholic	-3936
▁clot	-3937
▁ign	-3938
▁29	-3939
▁Fort	-3940
▁happened	-3941
▁α	-3942
▁foreign	-3943
▁Western	-3944
rible	-3945
ements	-3946
▁tradition	-3947
come	-3948
DF	-3949
▁roll	-3950
.|	-3951
My	-3952
▁Acad	-3953
/200	-3954
aten	-3955
▁seat	-3956
rd	-3957
▁religious	-3958
▁officer	-3959
inf	-3960
▁warm	-3961
▁middle	-3962
board	-3963
▁China	-3964
▁Their	-3965
utch	-3966
ception	-3967
▁discuss	-3968
xim	-3969
ito	-3970
▁Music	-3971
▁Sing	-3972
76	-3973
▁Hel	-3974
▁send	-3975
fess	-3976
▁sans	-3977
▁individual	-3978
▁sou	-3979
▁coup	-3980
▁box	-3981
▁Inter	-3982
ilities	-3983
▁Congress	-3984
hw	-3985
▁Fin	-3986
▁worked	-3987
hi	-3988
▁property	-3989
sch	-3990
▁comfort	-3991
met	-3992
▁weak	-3993
▁Lake	-3994
▁troops	-3995
CAAA	-3996
▁religion	-3997
▁Ol	-3998
▁attract	-3999
▁carry	-4000
▁Rob	-4001
aud	-4002
▁admir	-4003
igned	-4004
▁leading	-4005
▁beauty	-4006
▁Central	-4007
▁sel	-4008
ashion	-4009
Is	-4010
▁associ	-4011
▁role	-4012
▁Angel	-4013
TATA	-4014
▁grew	-4015
▁Hill	-4016
▁ik	-4017
John	-4018
▁program	-4019
▁joined	-4020
RO	-4021
▁leur	-4022
▁laugh	-4023
▁Pet	-4024
rael	-4025
▁era	-4026
ulated	-4027
▁Jim	-4028
uls	-4029
▁Association	-4030
ylvan	-4031
▁trade	-4032
Why	-4033
▁signific	-4034
▁travel	-4035
▁yes	-4036
▁straight	-4037
äh	-4038
▁cas	-4039
▁Society	-4040
▁favor	-4041
cont	-4042
▁science	-4043
film	-4044
mond	-4045
▁Jul	-4046
ido	-4047
oom	-4048
▁writing	-4049
hens	-4050
▁gentleman	-4051
▁terms	-4052
ás	-4053
0,000	-4054
▁ta	-4055
▁nation	-4056
ply	-4057
bon	-4058
▁Duke	-4059
▁sav	-4060
ez	-4061
▁wer	-4062
▁required	-4063
aper	-4064
▁Texas	-4065
▁filled	-4066
abel	-4067
ols	-4068
▁appointed	-4069
▁horses	-4070
▁train	-4071
▁believed	-4072
GAGA	-4073
▁Def	-4074
iller	-4075
▁avail	-4076
▁degree	-4077
▁numer	-4078
▁month	-4079
▁2010	-4080
▁impossible	-4081
▁marriage	-4082
rated	-4083
esty	-4084
▁paid	-4085
ourage	-4086
▁opport	-4087
▁laws	-4088
Sc	-4089
oid	-4090
▁drew	-4091
57	-4092
▁4.	-4093
aining	-4094
▁complete	-4095
▁;	-4096
There	-4097
▁scene	-4098
▁running	-4099
umed	-4100
▁oblig	-4101
agement	-4102
▁Wal	-4103
ban	-4104
oper	-4105
án	-4106
▁commer	-4107
▁trem	-4108
▁Thus	-4109
EC	-4110
▁shown	-4111
▁caught	-4112
1–	-4113
▁bill	-4114
iron	-4115
▁developed	-4116
▁showed	-4117
▁glass	-4118
▁proble	-4119
ione	-4120
aste	-4121
▁houses	-4122
▁Italian	-4123
▁Luc	-4124
▁census	-4125
▁Super	-4126
▁protect	-4127
▁noble	-4128
.[	-4129
▁expected	-4130
ospital	-4131
▁soldiers	-4132
alled	-4133
▁surface	-4134
ario	-4135
unch	-4136
sylvan	-4137
elles	-4138
▁Best	-4139
▁harm	-4140
da	-4141
▁Fer	-4142
▁vent	-4143
▁respons	-4144
▁introduced	-4145
▁strugg	-4146
▁murder	-4147
▁drink	-4148
▁entirely	-4149
▁firm	-4150
▁hung	-4151
▁girls	-4152
▁spread	-4153
▁bow	-4154
iger	-4155
Ind	-4156
▁throughout	-4157
▁groups	-4158
**	-4159
▁discovered	-4160
▁win	-4161
▁attend	-4162
▁Italy	-4163
▁appears	-4164
agn	-4165
▁bi	-4166
▁captain	-4167
isters	-4168
▁Australian	-4169
▁Stud	-4170
▁thick	-4171
▁alle	-4172
▁Greek	-4173
▁että	-4174
▁meeting	-4175
antage	-4176
vention	-4177
▁offered	-4178
icks	-4179
▁189	-4180
aily	-4181
▁date	-4182
▁ei	-4183
▁lives	-4184
▁likely	-4185
▁Year	-4186
▁cro	-4187
▁Ann	-4188
nce	-4189
▁um	-4190
▁piece	-4191
▁write	-4192
▁site	-4193
▁lips	-4194
----------------	-4195
▁caused	-4196
▁expression	-4197
book	-4198
="2"|	-4199
▁Brown	-4200
ufact	-4201
▁complet	-4202
▁Prov	-4203
▁gall	-4204
▁rights	-4205
▁Africa	-4206
▁Bro	-4207
reme	-4208
▁heaven	-4209
▁easy	-4210
▁Empire	-4211
▁honor	-4212
▁struck	-4213
GTC	-4214
▁elev	-4215
chie	-4216
▁2005	-4217
raid	-4218
IV	-4219
▁contrib	-4220
Pe	-4221
▁rule	-4222
▁Camp	-4223
annel	-4224
▁getting	-4225
colspan	-4226
▁vain	-4227
▁Net	-4228
▁meaning	-4229
eless	-4230
▁dig	-4231
▁AND	-4232
rug	-4233
sylvania	-4234
▁slowly	-4235
▁Den	-4236
ID	-4237
▁Joseph	-4238
▁instr	-4239
bury	-4240
▁doc	-4241
▁floor	-4242
▁easily	-4243
........	-4244
▁Life	-4245
▁evidence	-4246
▁cou	-4247
▁fund	-4248
▁Ev	-4249
▁diss	-4250
▁thinking	-4251
▁50	-4252
éd	-4253
69	-4254
▁authority	-4255
▁schools	-4256
comp	-4257
▁Are	-4258
▁yourself	-4259
▁female	-4260
lebr	-4261
▁pure	-4262
▁countries	-4263
▁Ep	-4264
▁Michael	-4265
▁territ	-4266
ension	-4267
▁reach	-4268
CATT	-4269
▁instit	-4270
▁fool	-4271
▁Fred	-4272
▁Georg	-4273
▁Spain	-4274
▁Egypt	-4275
semb	-4276
▁Irish	-4277
iring	-4278
====	-4279
ijk	-4280
▁iron	-4281
isher	-4282
west	-4283
▁snow	-4284
▁Every	-4285
▁market	-4286
▁hero	-4287
▁hardly	-4288
▁40	-4289
▁bless	-4290
▁contract	-4291
▁learned	-4292
orial	-4293
▁Russian	-4294
aches	-4295
▁exclaimed	-4296
rim	-4297
sembly	-4298
▁apparent	-4299
▁ships	-4300
How	-4301
▁highest	-4302
Eng	-4303
pop	-4304
▁furn	-4305
▁sharp	-4306
▁declared	-4307
▁Mo	-4308
▁Es	-4309
erved	-4310
▁mes	-4311
▁Bi	-4312
▁Canadian	-4313
▁Records	-4314
▁Bu	-4315
▁faire	-4316
▁Mel	-4317
▁winter	-4318
illy	-4319
▁content	-4320
respond	-4321
▁doll	-4322
urity	-4323
isen	-4324
▁afterwards	-4325
Col	-4326
▁shows	-4327
▁conditions	-4328
▁habit	-4329
▁stopped	-4330
ivat	-4331
éc	-4332
▁Who	-4333
▁grant	-4334
▁Edward	-4335
▁Up	-4336
▁range	-4337
▁births	-4338
▁smile	-4339
ira	-4340
▁Rad	-4341
▁Et	-4342
▁More	-4343
Footnote	-4344
ba	-4345
▁observed	-4346
rain	-4347
▁fal	-4348
otten	-4349
▁African	-4350
▁provided	-4351
▁illust	-4352
FFF	-4353
▁aan	-4354
idents	-4355
▁oppos	-4356
▁pros	-4357
▁mor	-4358
▁finished	-4359
▁greatest	-4360
ems	-4361
▁whis	-4362
▁188	-4363
▁Time	-4364
mas	-4365
▁μ	-4366
IL	-4367
▁Chinese	-4368
▁features	-4369
▁threat	-4370
▁spent	-4371
▁Football	-4372
uter	-4373
stant	-4374
▁native	-4375
▁IN	-4376
▁walked	-4377
78	-4378
▁data	-4379
▁somewhat	-4380
▁Mur	-4381
umbers	-4382
▁Awards	-4383
▁founded	-4384
▁Where	-4385
▁doctor	-4386
▁evident	-4387
TGTT	-4388
▁archite	-4389
▁anal	-4390
iana	-4391
▁characters	-4392
▁print	-4393
▁Good	-4394
▁communic	-4395
▁trav	-4396
▁absol	-4397
▁knows	-4398
chan	-4399
ublican	-4400
▁gun	-4401
ima	-4402
cks	-4403
ev	-4404
▁Spe	-4405
▁speed	-4406
▁nu	-4407
▁sand	-4408
enced	-4409
▁theory	-4410
!!	-4411
▁Tor	-4412
▁Bet	-4413
▁students	-4414
amber	-4415
▁Sat	-4416
▁merely	-4417
▁phot	-4418
▁Summer	-4419
iny	-4420
venue	-4421
▁quant	-4422
Cl	-4423
▁speech	-4424
Not	-4425
▁2004	-4426
Don	-4427
water	-4428
aland	-4429
▁goes	-4430
-1	-4431
▁Japanese	-4432
▁mel	-4433
TH	-4434
aur	-4435
▁distingu	-4436
▁silver	-4437
▁railway	-4438
ôt	-4439
▁Mus	-4440
ockey	-4441
▁Yet	-4442
ader	-4443
▁gives	-4444
▁tax	-4445
▁même	-4446
hered	-4447
asing	-4448
nen	-4449
▁usual	-4450
las	-4451
▁takes	-4452
uf	-4453
▁subdivision	-4454
rig	-4455
▁intellig	-4456
▁alt	-4457
icago	-4458
adow	-4459
AD	-4460
ocked	-4461
▁Many	-4462
▁blank	-4463
yd	-4464
▁Fore	-4465
wise	-4466
▁afraid	-4467
stitution	-4468
▁Museum	-4469
▁broke	-4470
79	-4471
▁Rock	-4472
onde	-4473
▁sex	-4474
▁Squ	-4475
▁inhab	-4476
▁2007	-4477
▁passion	-4478
▁leaves	-4479
▁narrow	-4480
andon	-4481
▁Carl	-4482
▁mountain	-4483
。」	-4484
▁evil	-4485
elve	-4486
▁pred	-4487
▁Hon	-4488
iments	-4489
ici	-4490
iting	-4491
ente	-4492
All	-4493
▁où	-4494
iin	-4495
▁administ	-4496
▁deux	-4497
56	-4498
▁Our	-4499
▁Ell	-4500
▁loved	-4501
footnotes	-4502
noon	-4503
▁Mem	-4504
74	-4505
▁4,	-4506
1_	-4507
▁Rom	-4508
▁rid	-4509
▁simply	-4510
▁thoughts	-4511
▁ku	-4512
▁dinner	-4513
▁situation	-4514
▁weeks	-4515
Can	-4516
IR	-4517
▁hang	-4518
▁labor	-4519
▁vie	-4520
▁gar	-4521
top	-4522
▁Sil	-4523
▁aus	-4524
▁storm	-4525
▁lu	-4526
▁distinct	-4527
alla	-4528
▁conduct	-4529
TGAA	-4530
▁match	-4531
area	-4532
ih	-4533
oken	-4534
istry	-4535
▁gaz	-4536
▁forced	-4537
ache	-4538
▁throw	-4539
▁rom	-4540
▁voc	-4541
58	-4542
▁picture	-4543
range	-4544
onne	-4545
▁sick	-4546
▁2019	-4547
TGGG	-4548
▁Cat	-4549
▁seeing	-4550
▁opening	-4551
59	-4552
iences	-4553
▁insp	-4554
▁purch	-4555
▁tru	-4556
▁Sur	-4557
▁circumstances	-4558
▁tor	-4559
ον	-4560
▁Even	-4561
▁existence	-4562
cean	-4563
ég	-4564
▁Int	-4565
utive	-4566
▁Olympics	-4567
▁whatever	-4568
▁saf	-4569
▁finally	-4570
▁Wood	-4571
▁ordered	-4572
▁distrib	-4573
▁particularly	-4574
▁cloud	-4575
▁citiz	-4576
▁Pennsylvania	-4577
▁remains	-4578
▁results	-4579
▁campaign	-4580
▁centre	-4581
▁Israel	-4582
char	-4583
▁deliver	-4584
▁dream	-4585
||0	-4586
▁progress	-4587
zt	-4588
▁older	-4589
▁philosop	-4590
urt	-4591
acific	-4592
ington	-4593
GAGG	-4594
▁playing	-4595
▁walls	-4596
▁tit	-4597
▁2008	-4598
▁practice	-4599
lier	-4600
ners	-4601
esc	-4602
ye	-4603
▁weight	-4604
▁Martin	-4605
▁critic	-4606
▁equal	-4607
▁height	-4608
▁Ap	-4609
>,	-4610
Bl	-4611
▁Major	-4612
▁contem	-4613
ipped	-4614
OS	-4615
yer	-4616
▁va	-4617
▁sad	-4618
ordin	-4619
oms	-4620
▁receive	-4621
▁tone	-4622
▁XX	-4623
▁km	-4624
stitute	-4625
▁determined	-4626
▁Airport	-4627
▁5.	-4628
▁spot	-4629
▁key	-4630
ading	-4631
aks	-4632
▁193	-4633
▁international	-4634
isp	-4635
▁aim	-4636
change	-4637
43	-4638
▁mentioned	-4639
▁Press	-4640
▁conqu	-4641
ferred	-4642
gment	-4643
hor	-4644
▁voy	-4645
▁rese	-4646
▁Film	-4647
▁tend	-4648
eness	-4649
▁journey	-4650
igan	-4651
▁access	-4652
–200	-4653
▁myster	-4654
▁Bob	-4655
▁lack	-4656
äl	-4657
fin	-4658
42	-4659
▁intended	-4660
▁rare	-4661
▁compos	-4662
As	-4663
▁Long	-4664
Do	-4665
▁Govern	-4666
▁Jac	-4667
▁Jesus	-4668
▁sont	-4669
▁memory	-4670
▁increased	-4671
▁mission	-4672
eur	-4673
▁Minister	-4674
oston	-4675
▁jok	-4676
▁Po	-4677
astic	-4678
▁celebr	-4679
OU	-4680
▁excell	-4681
umm	-4682
ocks	-4683
▁Series	-4684
▁escape	-4685
▁Academy	-4686
▁hill	-4687
utta	-4688
itä	-4689
1>	-4690
▁lif	-4691
▁imper	-4692
▁fro	-4693
▁garden	-4694
▁suggest	-4695
▁Der	-4696
▁CA	-4697
▁unto	-4698
▁directed	-4699
▁Inc	-4700
iation	-4701
▁Under	-4702
▁Liber	-4703
▁Dick	-4704
▁voor	-4705
.’	-4706
▁serve	-4707
class	-4708
▁|1	-4709
▁Out	-4710
hand	-4711
aret	-4712
▁mere	-4713
rant	-4714
asketball	-4715
▁passage	-4716
▁manufact	-4717
▁waiting	-4718
bec	-4719
vol	-4720
▁Its	-4721
▁presented	-4722
▁sor	-4723
▁recorded	-4724
▁laughed	-4725
▁Love	-4726
▁ens	-4727
▁Ah	-4728
▁pul	-4729
▁royal	-4730
asi	-4731
acc	-4732
▁dise	-4733
vis	-4734
▁reported	-4735
izing	-4736
▁drawn	-4737
abeth	-4738
▁previous	-4739
osen	-4740
▁Second	-4741
▁brief	-4742
▁correspond	-4743
▁batt	-4744
how	-4745
can	-4746
png	-4747
▁fixed	-4748
▁search	-4749
▁Boy	-4750
▁corner	-4751
acity	-4752
▁satisf	-4753
irk	-4754
▁rise	-4755
▁animal	-4756
▁os	-4757
▁bal	-4758
▁hath	-4759
▁symp	-4760
▁Jo	-4761
▁elected	-4762
▁Most	-4763
HL	-4764
▁larger	-4765
▁lord	-4766
stone	-4767
▁supposed	-4768
▁appre	-4769
▁Order	-4770
▁famous	-4771
bridge	-4772
lam	-4773
was	-4774
rier	-4775
▁areas	-4776
uman	-4777
▁ju	-4778
cho	-4779
allen	-4780
▁fish	-4781
▁largest	-4782
▁kne	-4783
rank	-4784
▁li	-4785
▁numerous	-4786
▁IV	-4787
▁doct	-4788
iano	-4789
▁orders	-4790
uses	-4791
UK	-4792
▁prem	-4793
él	-4794
▁repeated	-4795
rial	-4796
▁Public	-4797
▁fashion	-4798
▁flag	-4799
▁effort	-4800
She	-4801
▁Gra	-4802
wing	-4803
▁dry	-4804
▁measure	-4805
▁afternoon	-4806
▁utter	-4807
code	-4808
▁ast	-4809
adium	-4810
▁Prot	-4811
ieur	-4812
-19	-4813
▁Est	-4814
▁pack	-4815
ni	-4816
▁passing	-4817
umph	-4818
ircraft	-4819
odd	-4820
▁Nap	-4821
▁trying	-4822
Wh	-4823
ned	-4824
▁Center	-4825
May	-4826
▁grace	-4827
kins	-4828
▁consist	-4829
▁hun	-4830
▁corre	-4831
▁tender	-4832
inent	-4833
|201	-4834
ello	-4835
▁leaders	-4836
▁Him	-4837
▁address	-4838
agon	-4839
ancing	-4840
▁thirty	-4841
▁model	-4842
▁justice	-4843
▁video	-4844
To	-4845
▁shore	-4846
▁Sol	-4847
wo	-4848
▁fond	-4849
▁Britain	-4850
05	-4851
▁begin	-4852
icial	-4853
▁Line	-4854
▁ones	-4855
▁sail	-4856
arcely	-4857
▁reve	-4858
▁quarter	-4859
▁Father	-4860
▁construction	-4861
▁tears	-4862
▁Zealand	-4863
▁sitting	-4864
▁Although	-4865
FL	-4866
war	-4867
▁Jean	-4868
ogy	-4869
était	-4870
owing	-4871
▁ere	-4872
Pro	-4873
▁county	-4874
edd	-4875
▁RD	-4876
▁animals	-4877
07	-4878
▁completed	-4879
▁Flor	-4880
uated	-4881
▁parl	-4882
▁map	-4883
,000	-4884
▁esp	-4885
uts	-4886
aire	-4887
▁breath	-4888
▁ring	-4889
ansas	-4890
▁families	-4891
gent	-4892
▁deb	-4893
▁Carolina	-4894
▁Sub	-4895
una	-4896
win	-4897
▁heat	-4898
▁ice	-4899
▁confess	-4900
▁lot	-4901
▁Ill	-4902
▁speaking	-4903
lim	-4904
stood	-4905
RA	-4906
utenant	-4907
▁serious	-4908
vere	-4909
▁double	-4910
icans	-4911
gers	-4912
▁bod	-4913
zy	-4914
▁Play	-4915
▁grave	-4916
▁plat	-4917
thur	-4918
▁Group	-4919
▁prepared	-4920
▁beside	-4921
▁sides	-4922
ière	-4923
▁performed	-4924
pet	-4925
▁share	-4926
▁Columb	-4927
▁silent	-4928
▁commun	-4929
▁tim	-4930
uries	-4931
▁Tem	-4932
▁Tre	-4933
ishment	-4934
aked	-4935
:--	-4936
▁stated	-4937
▁songs	-4938
▁portion	-4939
▁notice	-4940
▁safe	-4941
▁AA	-4942
▁Since	-4943
▁magn	-4944
▁mas	-4945
Re	-4946
▁constitu	-4947
▁1990	-4948
▁exhib	-4949
▁fra	-4950
▁eat	-4951
een	-4952
▁cities	-4953
▁incl	-4954
▁prepar	-4955
▁Sund	-4956
agen	-4957
arts	-4958
▁Jersey	-4959
▁minute	-4960
▁wealth	-4961
▁coach	-4962
▁stream	-4963
▁Spr	-4964
▁bul	-4965
scope	-4966
▁moral	-4967
cel	-4968
page	-4969
▁favour	-4970
▁failed	-4971
▁Battle	-4972
▁artist	-4973
fit	-4974
▁proved	-4975
▁Ven	-4976
▁Department	-4977
▁Indians	-4978
▁parties	-4979
▁nur	-4980
▁Fe	-4981
▁advance	-4982
▁Mod	-4983
oit	-4984
▁police	-4985
size	-4986
▁numbers	-4987
▁motion	-4988
▁shout	-4989
porary	-4990
▁niin	-4991
▁farm	-4992
estival	-4993
anz	-4994
▁available	-4995
▁emp	-4996
▁Elect	-4997
This	-4998
adel	-4999
▁march	-5000
▁flowers	-5001
▁Swed	-5002
▁Mat	-5003
▁Wales	-5004
▁literature	-5005
2-	-5006
▁successful	-5007
▁daß	-5008
▁Arab	-5009
▁Nat	-5010
antry	-5011
▁conversation	-5012
êt	-5013
▁Such	-5014
▁hem	-5015
|199	-5016
▁minister	-5017
ware	-5018
▁Lie	-5019
▁subsequ	-5020
iro	-5021
TCAA	-5022
Se	-5023
inces	-5024
?'	-5025
▁award	-5026
thlet	-5027
aba	-5028
TS	-5029
look	-5030
▁freed	-5031
▁Van	-5032
olk	-5033
▁Secret	-5034
ador	-5035
▁Eliz	-5036
hist	-5037
culiar	-5038
▁meas	-5039
▁eager	-5040
▁collect	-5041
▁Lin	-5042
▁2003	-5043
GTGA	-5044
▁Sie	-5045
5)	-5046
▁dre	-5047
▁applic	-5048
▁crown	-5049
FC	-5050
▁nine	-5051
▁stations	-5052
▁Haw	-5053
▁2020	-5054
▁considerable	-5055
endo	-5056
uals	-5057
▁surv	-5058
oviet	-5059
▁tar	-5060
▁Profess	-5061
▁directly	-5062
▁sky	-5063
▁compar	-5064
▁Open	-5065
more	-5066
▁ways	-5067
▁peculiar	-5068
▁UK	-5069
▁scient	-5070
ulture	-5071
enes	-5072
:20	-5073
▁colon	-5074
▁instant	-5075
▁deaths	-5076
▁192	-5077
▁tall	-5078
▁performance	-5079
▁fully	-5080
Ph	-5081
▁paint	-5082
▁Russia	-5083
▁dism	-5084
▁Atl	-5085
CAGA	-5086
▁delic	-5087
▁Los	-5088
83	-5089
▁Cross	-5090
▁Democratic	-5091
▁kiss	-5092
▁opportunity	-5093
–18	-5094
▁active	-5095
▁wond	-5096
onsieur	-5097
▁importance	-5098
writ	-5099
bit	-5100
action	-5101
score	-5102
▁removed	-5103
▁valley	-5104
▁stock	-5105
▁tous	-5106
aft	-5107
▁8/8/	-5108
▁scarcely	-5109
▁Scotland	-5110
▁Sk	-5111
azz	-5112
uz	-5113
▁division	-5114
urd	-5115
File	-5116
▁entre	-5117
worth	-5118
▁grass	-5119
▁Hor	-5120
ipl	-5121
▁yellow	-5122
oma	-5123
▁unless	-5124
▁newsp	-5125
▁2009	-5126
63	-5127
▁accompl	-5128
▁Chicago	-5129
▁kun	-5130
▁resist	-5131
▁politician	-5132
▁Chap	-5133
▁advantage	-5134
▁rain	-5135
▁frequently	-5136
▁ü	-5137
54	-5138
▁Fur	-5139
▁square	-5140
▁obtained	-5141
▁honour	-5142
Pr	-5143
▁powers	-5144
▁Sand	-5145
▁People	-5146
▁dread	-5147
▁whisper	-5148
▁source	-5149
CH	-5150
▁Little	-5151
▁pan	-5152
▁univers	-5153
ads	-5154
▁clim	-5155
▁Tour	-5156
incess	-5157
formation	-5158
▁Women	-5159
▁Rel	-5160
▁opposite	-5161
acle	-5162
=2|	-5163
icated	-5164
▁peu	-5165
esh	-5166
▁wie	-5167
▁Dis	-5168
▁turning	-5169
▁nä	-5170
▁fifty	-5171
=#	-5172
▁Emperor	-5173
oles	-5174
unicipal	-5175
▁clean	-5176
▁central	-5177
▁witness	-5178
▁neck	-5179
▁Bre	-5180
▁becomes	-5181
rick	-5182
82	-5183
ruct	-5184
etts	-5185
▁twelve	-5186
▁hänen	-5187
▁()	-5188
▁pil	-5189
▁Mexico	-5190
comm	-5191
cons	-5192
▁release	-5193
sl	-5194
ucky	-5195
▁upper	-5196
▁instance	-5197
73	-5198
▁hit	-5199
rine	-5200
▁moon	-5201
▁encore	-5202
▁cup	-5203
idden	-5204
aby	-5205
▁energy	-5206
▁gew	-5207
quar	-5208
▁parents	-5209
ption	-5210
opp	-5211
72	-5212
▁route	-5213
IG	-5214
▁steps	-5215
▁Earl	-5216
▁cu	-5217
chant	-5218
▁buildings	-5219
fast	-5220
▁earlier	-5221
sen	-5222
▁transport	-5223
να	-5224
▁σ	-5225
CTCA	-5226
▁kä	-5227
▁|200	-5228
▁Image	-5229
achus	-5230
PG	-5231
▁page	-5232
▁matters	-5233
▁originally	-5234
▁agreed	-5235
▁ended	-5236
▁surprise	-5237
▁standard	-5238
▁achie	-5239
vely	-5240
▁Your	-5241
▁Northern	-5242
▁Class	-5243
▁commission	-5244
sq	-5245
▁writers	-5246
Ge	-5247
▁policy	-5248
gov	-5249
▁industry	-5250
▁terrible	-5251
▁proposed	-5252
▁difficulty	-5253
rate	-5254
▁radio	-5255
▁courage	-5256
▁spect	-5257
esp	-5258
istan	-5259
▁display	-5260
eller	-5261
oly	-5262
06	-5263
▁500	-5264
▁2002	-5265
▁produce	-5266
▁Early	-5267
▁wished	-5268
Will	-5269
OT	-5270
▁End	-5271
standing	-5272
ailed	-5273
▁dont	-5274
▁eine	-5275
▁episode	-5276
For	-5277
aling	-5278
ré	-5279
▁settled	-5280
▁questions	-5281
▁legisl	-5282
rat	-5283
▁ont	-5284
▁aid	-5285
▁engaged	-5286
▁pieces	-5287
▁repro	-5288
rees	-5289
▁Far	-5290
▁bread	-5291
▁marked	-5292
▁section	-5293
Ship	-5294
▁1999	-5295
▁Histor	-5296
uks	-5297
▁Charl	-5298
▁az	-5299
ources	-5300
▁stret	-5301
iliar	-5302
▁require	-5303
▁Latin	-5304
▁6.	-5305
agg	-5306
anda	-5307
▁companies	-5308
▁difference	-5309
▁principal	-5310
▁Over	-5311
▁Valley	-5312
mann	-5313
▁increase	-5314
icted	-5315
5%	-5316
▁1980	-5317
▁Mais	-5318
BA	-5319
hew	-5320
see	-5321
▁Southern	-5322
▁spoken	-5323
▁Kent	-5324
▁schol	-5325
▁dropped	-5326
▁weather	-5327
▁income	-5328
▁director	-5329
rand	-5330
▁beneath	-5331
▁Ox	-5332
▁Star	-5333
▁extrem	-5334
▁nom	-5335
▁emer	-5336
▁professional	-5337
▁possession	-5338
▁Philipp	-5339
▁northern	-5340
▁adj	-5341
▁succeeded	-5342
CCTT	-5343
▁pale	-5344
▁particip	-5345
▁holding	-5346
▁Represent	-5347
▁ideas	-5348
▁Sea	-5349
▁rough	-5350
quis	-5351
▁Sar	-5352
law	-5353
▁lies	-5354
▁advent	-5355
▁Portug	-5356
estic	-5357
People	-5358
▁shoot	-5359
▁forget	-5360
▁understood	-5361
41	-5362
rence	-5363
▁fier	-5364
amer	-5365
inet	-5366
▁exerc	-5367
▁Tim	-5368
▁suggested	-5369
▁Joe	-5370
▁college	-5371
▁Gree	-5372
▁bottom	-5373
CTGA	-5374
▁changes	-5375
state	-5376
▁heads	-5377
▁Boston	-5378
▁birds	-5379
▁invol	-5380
▁affairs	-5381
▁Ohio	-5382
▁culture	-5383
▁sought	-5384
!--	-5385
▁Commission	-5386
▁fortune	-5387
▁Another	-5388
▁satisfact	-5389
▁Gall	-5390
umes	-5391
oin	-5392
▁signed	-5393
CT	-5394
▁31	-5395
▁mountains	-5396
ourse	-5397
ila	-5398
▁gas	-5399
mont	-5400
▁Young	-5401
▁inside	-5402
kes	-5403
clock	-5404
info	-5405
ls	-5406
which	-5407
▁occupied	-5408
▁ignor	-5409
▁needed	-5410
▁code	-5411
rough	-5412
▁abandon	-5413
▁sports	-5414
▁Nov	-5415
▁Colonel	-5416
▁bridge	-5417
vement	-5418
▁structure	-5419
Sp	-5420
emic	-5421
ingham	-5422
▁function	-5423
▁ur	-5424
▁fruit	-5425
▁majority	-5426
don	-5427
▁judge	-5428
▁growing	-5429
▁victory	-5430
▁Bec	-5431
▁Force	-5432
▁pleasant	-5433
,’	-5434
▁drawing	-5435
ube	-5436
▁comment	-5437
▁Post	-5438
pping	-5439
iform	-5440
esch	-5441
▁prince	-5442
▁2001	-5443
yp	-5444
▁brown	-5445
▁Hug	-5446
ussi	-5447
▁contr	-5448
▁Cle	-5449
▁Loc	-5450
▁Before	-5451
▁Son	-5452
inder	-5453
Be	-5454
▁please	-5455
anto	-5456
▁Navy	-5457
▁Fre	-5458
▁efforts	-5459
nam	-5460
▁rob	-5461
▁Gi	-5462
▁och	-5463
ented	-5464
▁exped	-5465
Com	-5466
▁refused	-5467
arian	-5468
▁defin	-5469
ocket	-5470
▁Gal	-5471
▁review	-5472
organ	-5473
▁runs	-5474
CE	-5475
illes	-5476
Con	-5477
▁Master	-5478
▁Educ	-5479
assa	-5480
▁greatly	-5481
Pl	-5482
GCTT	-5483
▁related	-5484
▁concl	-5485
▁Governor	-5486
93	-5487
▁wine	-5488
▁represented	-5489
ironment	-5490
▁kuin	-5491
▁domin	-5492
6)	-5493
▁agree	-5494
roat	-5495
▁Dire	-5496
rs	-5497
pected	-5498
ooth	-5499
▁employed	-5500
▁inhabit	-5501
ieu	-5502
▁thank	-5503
kl	-5504
▁Di	-5505
▁Jones	-5506
▁Si	-5507
▁training	-5508
▁calm	-5509
▁commercial	-5510
▁edition	-5511
04	-5512
inem	-5513
▁regarded	-5514
▁conscious	-5515
▁ble	-5516
▁weap	-5517
▁investig	-5518
▁background	-5519
▁conclud	-5520
▁Jos	-5521
▁complex	-5522
▁Service	-5523
▁teacher	-5524
▁actually	-5525
ût	-5526
▁interesting	-5527
IA	-5528
Ah	-5529
62	-5530
ellect	-5531
▁occurred	-5532
usc	-5533
inois	-5534
▁Elizabeth	-5535
▁recon	-5536
TAAAA	-5537
="#	-5538
▁becoming	-5539
olt	-5540
_)	-5541
▁Rog	-5542
▁southern	-5543
while	-5544
▁cook	-5545
edu	-5546
▁solid	-5547
▁ben	-5548
ortion	-5549
isse	-5550
▁Dutch	-5551
▁wear	-5552
alls	-5553
▁cool	-5554
▁independent	-5555
▁Corn	-5556
▁Madame	-5557
▁Angeles	-5558
achusetts	-5559
▁guess	-5560
▁Johnson	-5561
English	-5562
istics	-5563
rose	-5564
▁daily	-5565
▁follows	-5566
▁physical	-5567
▁reply	-5568
burgh	-5569
▁Florida	-5570
▁enem	-5571
▁δ	-5572
03	-5573
▁perce	-5574
orter	-5575
▁designed	-5576
▁pron	-5577
▁stories	-5578
▁TO	-5579
/2	-5580
▁park	-5581
amente	-5582
imp	-5583
▁Lu	-5584
▁blind	-5585
▁aircraft	-5586
▁uncle	-5587
iques	-5588
▁Sun	-5589
▁sevent	-5590
▁Jun	-5591
▁pret	-5592
▁obtain	-5593
▁separate	-5594
ounding	-5595
morrow	-5596
mat	-5597
▁suffered	-5598
▁talking	-5599
she	-5600
▁Harry	-5601
▁Cur	-5602
▁Social	-5603
▁ii	-5604
▁65	-5605
Ex	-5606
▁kingdom	-5607
Ger	-5608
▁crew	-5609
▁lat	-5610
▁Hot	-5611
▁growth	-5612
▁som	-5613
▁operations	-5614
▁ordinary	-5615
▁1998	-5616
▁fourth	-5617
zil	-5618
▁looks	-5619
▁shut	-5620
▁("	-5621
▁unknown	-5622
.»	-5623
▁moi	-5624
hal	-5625
▁powerful	-5626
▁replaced	-5627
▁Notes	-5628
hus	-5629
verse	-5630
▁(17	-5631
▁guitar	-5632
ori	-5633
▁perfectly	-5634
ographics	-5635
▁border	-5636
▁Lee	-5637
▁como	-5638
▁tong	-5639
uge	-5640
igne	-5641
lar	-5642
sych	-5643
▁card	-5644
▁oil	-5645
▁confl	-5646
▁issue	-5647
▁bon	-5648
▁legal	-5649
unes	-5650
▁guns	-5651
▁notes	-5652
erk	-5653
▁ladies	-5654
▁withd	-5655
CCTG	-5656
▁hal	-5657
▁towns	-5658
CTCC	-5659
▁ourselves	-5660
GGAA	-5661
sit	-5662
▁System	-5663
atively	-5664
▁continue	-5665
▁wouldn	-5666
▁accepted	-5667
▁variety	-5668
mir	-5669
usted	-5670
▁edge	-5671
▁Max	-5672
▁Holy	-5673
▁Ly	-5674
▁mechan	-5675
▁uit	-5676
df	-5677
▁fallen	-5678
bro	-5679
aming	-5680
▁sympath	-5681
oration	-5682
▁stars	-5683
rend	-5684
ums	-5685
-2	-5686
uan	-5687
▁Gard	-5688
▁Pop	-5689
▁Americans	-5690
host	-5691
▁figures	-5692
ingers	-5693
anned	-5694
Brit	-5695
▁SEE	-5696
▁multip	-5697
▁suffer	-5698
unicipality	-5699
▁union	-5700
▁Pacific	-5701
▁fright	-5702
53	-5703
▁2011	-5704
▁moving	-5705
▁price	-5706
▁elections	-5707
1%	-5708
▁manif	-5709
▁lying	-5710
▁Institute	-5711
CATG	-5712
▁Pan	-5713
orpor	-5714
▁arrest	-5715
09	-5716
stra	-5717
||||	-5718
▁demon	-5719
▁includes	-5720
▁vig	-5721
ça	-5722
▁5,	-5723
ructed	-5724
gn	-5725
rich	-5726
▁pp	-5727
▁bell	-5728
Go	-5729
urally	-5730
Aust	-5731
▁splend	-5732
▁Eastern	-5733
They	-5734
▁Wind	-5735
▁catch	-5736
utation	-5737
▁provide	-5738
▁collection	-5739
▁Pers	-5740
▁pens	-5741
chester	-5742
▁vor	-5743
▁breast	-5744
▁otherwise	-5745
issa	-5746
▁promise	-5747
▁highly	-5748
▁spite	-5749
▁7.	-5750
▁Yes	-5751
zer	-5752
▁store	-5753
▁prove	-5754
▁dign	-5755
inity	-5756
▁kill	-5757
Now	-5758
▁sons	-5759
iser	-5760
>(	-5761
awa	-5762
▁été	-5763
▁Baron	-5764
▁altern	-5765
▁expressed	-5766
▁referred	-5767
▁accompan	-5768
▁2012	-5769
▁Ce	-5770
▁gate	-5771
Jan	-5772
▁league	-5773
▁Dor	-5774
▁research	-5775
Qu	-5776
▁colour	-5777
Then	-5778
▁consc	-5779
▁Senate	-5780
▁Water	-5781
▁divided	-5782
▁crim	-5783
erted	-5784
▁pleased	-5785
▁minor	-5786
▁drive	-5787
▁familiar	-5788
▁cy	-5789
▁cerem	-5790
▁threw	-5791
▁Mah	-5792
▁shel	-5793
▁exactly	-5794
ET	-5795
abb	-5796
▁belief	-5797
▁journal	-5798
▁Mas	-5799
▁proud	-5800
▁happiness	-5801
▁staff	-5802
▁citizens	-5803
▁false	-5804
▁systems	-5805
▁Assembly	-5806
ogue	-5807
▁mij	-5808
rison	-5809
oring	-5810
sten	-5811
vä	-5812
La	-5813
▁completely	-5814
▁volume	-5815
▁Arthur	-5816
▁branch	-5817
ns	-5818
▁cheer	-5819
▁Kore	-5820
ulations	-5821
▁advanced	-5822
▁Three	-5823
!'	-5824
▁Marg	-5825
▁pair	-5826
▁candid	-5827
attered	-5828
▁|2	-5829
▁taught	-5830
rer	-5831
iti	-5832
asy	-5833
stä	-5834
▁involved	-5835
▁flight	-5836
▁stir	-5837
▁column	-5838
▁Broad	-5839
▁composed	-5840
▁musical	-5841
ault	-5842
lie	-5843
▁Soviet	-5844
▁couldn	-5845
▁sword	-5846
itter	-5847
isation	-5848
ede	-5849
EM	-5850
▁ende	-5851
GCAA	-5852
▁symb	-5853
▁attended	-5854
▁nerv	-5855
▁nos	-5856
▁fighting	-5857
▁article	-5858
▁neighbor	-5859
▁Massachusetts	-5860
▁cher	-5861
▁instrument	-5862
▁yield	-5863
▁worse	-5864
▁termin	-5865
▁shape	-5866
ulf	-5867
▁Bern	-5868
▁resem	-5869
▁lib	-5870
▁thorough	-5871
▁wonderful	-5872
▁roof	-5873
▁Sunday	-5874
▁Alexander	-5875
▁Further	-5876
▁units	-5877
/201	-5878
▁constitution	-5879
▁chose	-5880
▁Mic	-5881
vest	-5882
population	-5883
Ad	-5884
▁impl	-5885
ervative	-5886
▁Four	-5887
▁alto	-5888
▁spr	-5889
bra	-5890
orne	-5891
▁crime	-5892
At	-5893
sm	-5894
▁excellent	-5895
▁vote	-5896
▁Philip	-5897
▁forty	-5898
▁platform	-5899
–201	-5900
▁languages	-5901
▁intellect	-5902
▁apart	-5903
▁supply	-5904
1]	-5905
▁Bas	-5906
▁cam	-5907
osing	-5908
arks	-5909
▁Fam	-5910
▁affection	-5911
Man	-5912
0%	-5913
▁contains	-5914
▁connected	-5915
▁twice	-5916
wa	-5917
▁egg	-5918
▁network	-5919
▁streets	-5920
TCTA	-5921
nel	-5922
JPG	-5923
aved	-5924
▁sake	-5925
▁plans	-5926
▁bitter	-5927
▁sorrow	-5928
▁adopted	-5929
▁waters	-5930
7)	-5931
ties	-5932
▁1970	-5933
_;	-5934
▁superior	-5935
▁applied	-5936
▁previously	-5937
▁beat	-5938
▁maintain	-5939
otte	-5940
oli	-5941
eping	-5942
▁darkness	-5943
▁hills	-5944
▁western	-5945
▁35	-5946
▁Committee	-5947
▁Rose	-5948
▁ihm	-5949
▁nations	-5950
▁cous	-5951
IF	-5952
ennis	-5953
▁pictures	-5954
▁vu	-5955
▁sche	-5956
onse	-5957
GCTG	-5958
▁ears	-5959
▁empt	-5960
▁Bus	-5961
▁vel	-5962
iest	-5963
ntario	-5964
osc	-5965
▁clothes	-5966
▁gained	-5967
▁task	-5968
▁soldier	-5969
iga	-5970
08	-5971
▁location	-5972
▁province	-5973
alo	-5974
▁interview	-5975
▁fate	-5976
▁freedom	-5977
tainment	-5978
▁Route	-5979
▁quality	-5980
▁45	-5981
▁via	-5982
▁wise	-5983
kt	-5984
aseball	-5985
▁stro	-5986
▁----	-5987
▁arrang	-5988
pa	-5989
▁effects	-5990
▁Both	-5991
92	-5992
▁Pen	-5993
▁Gen	-5994
▁Oper	-5995
▁cruel	-5996
▁rang	-5997
urer	-5998
▁Stand	-5999
wart	-6000
▁rising	-6001
atus	-6002
ancial	-6003
=3	-6004
▁limited	-6005
hire	-6006
ENT	-6007
▁wounded	-6008
▁lean	-6009
▁dyn	-6010
▁reign	-6011
kon	-6012
▁bare	-6013
▁"'	-6014
▁Step	-6015
▁join	-6016
▁Islands	-6017
|[	-6018
▁discover	-6019
▁brand	-6020
▁ult	-6021
▁servant	-6022
▁loud	-6023
▁approach	-6024
▁Gar	-6025
▁Tri	-6026
zo	-6027
▁Dar	-6028
▁Earth	-6029
▁extent	-6030
enny	-6031
cles	-6032
▁elevation	-6033
▁Bow	-6034
ctic	-6035
ients	-6036
▁isn	-6037
▁recomm	-6038
▁preced	-6039
▁wa	-6040
▁Matt	-6041
▁eventually	-6042
▁Sus	-6043
ali	-6044
▁grat	-6045
▁machine	-6046
▁thin	-6047
irit	-6048
▁asc	-6049
▁lä	-6050
IM	-6051
="3	-6052
ischen	-6053
ilton	-6054
gs	-6055
▁Railway	-6056
▁trop	-6057
▁destroyed	-6058
▁lose	-6059
▁earnest	-6060
):	-6061
onia	-6062
▁accident	-6063
mans	-6064
▁cart	-6065
arest	-6066
▁Aut	-6067
total	-6068
▁extended	-6069
▁thrown	-6070
▁fields	-6071
ims	-6072
ormal	-6073
▁carefully	-6074
riff	-6075
▁Never	-6076
▁Fair	-6077
▁auch	-6078
ulous	-6079
▁seek	-6080
▁priest	-6081
pin	-6082
orious	-6083
▁Att	-6084
▁honest	-6085
anning	-6086
▁Illinois	-6087
▁watched	-6088
aly	-6089
urban	-6090
kk	-6091
▁XV	-6092
▁objects	-6093
▁rub	-6094
▁DE	-6095
▁lic	-6096
▁Bes	-6097
▁actor	-6098
▁plants	-6099
▁council	-6100
▁και	-6101
▁veh	-6102
▁artists	-6103
lets	-6104
αν	-6105
▁decision	-6106
▁Civil	-6107
▁Championships	-6108
▁brill	-6109
▁showing	-6110
▁explained	-6111
▁fault	-6112
▁dan	-6113
uing	-6114
▁principle	-6115
▁occas	-6116
▁Stan	-6117
▁Ca	-6118
▁episodes	-6119
rows	-6120
umni	-6121
British	-6122
▁curious	-6123
▁ST	-6124
▁1996	-6125
ushing	-6126
▁taste	-6127
▁Ros	-6128
▁helped	-6129
har	-6130
▁Middle	-6131
Or	-6132
▁smaller	-6133
▁Chief	-6134
On	-6135
endant	-6136
rane	-6137
TCCA	-6138
▁bold	-6139
▁associated	-6140
▁pa	-6141
▁elements	-6142
▁manager	-6143
wan	-6144
onic	-6145
▁dollars	-6146
olis	-6147
▁chem	-6148
▁2013	-6149
▁nach	-6150
▁pick	-6151
▁arran	-6152
▁Card	-6153
adelph	-6154
▁Dev	-6155
rec	-6156
▁element	-6157
▁singer	-6158
▁Minn	-6159
▁Doctor	-6160
▁Mot	-6161
▁184	-6162
imm	-6163
',	-6164
unting	-6165
omer	-6166
▁inhabitants	-6167
asse	-6168
ansa	-6169
stein	-6170
fle	-6171
▁smiled	-6172
▁murm	-6173
llä	-6174
▁Hand	-6175
▁job	-6176
▁CH	-6177
▁Arm	-6178
▁label	-6179
▁facts	-6180
IP	-6181
▁ca	-6182
▁hä	-6183
coln	-6184
▁Only	-6185
▁distant	-6186
aints	-6187
▁reco	-6188
:18	-6189
▁Big	-6190
▁vessel	-6191
▁Wall	-6192
▁endeav	-6193
▁Georgia	-6194
▁occupation	-6195
▁Lab	-6196
▁proof	-6197
▁disease	-6198
▁Dec	-6199
▁aber	-6200
▁foc	-6201
CCAA	-6202
ête	-6203
Te	-6204
▁noted	-6205
▁papers	-6206
▁Station	-6207
Per	-6208
▁organization	-6209
ères	-6210
▁triumph	-6211
▁inte	-6212
▁unf	-6213
▁ils	-6214
aron	-6215
▁document	-6216
eding	-6217
essa	-6218
▁faint	-6219
▁promised	-6220
▁feelings	-6221
▁burst	-6222
bell	-6223
▁Bul	-6224
▁Education	-6225
▁sole	-6226
then	-6227
iva	-6228
▁Had	-6229
▁Mid	-6230
▁Night	-6231
ishes	-6232
▁individuals	-6233
▁confidence	-6234
otes	-6235
▁depend	-6236
▁Revolution	-6237
▁lake	-6238
List	-6239
▁Kn	-6240
▁invent	-6241
▁Ty	-6242
▁Bank	-6243
▁Oxford	-6244
▁vic	-6245
▁recent	-6246
ierre	-6247
▁oll	-6248
▁significant	-6249
▁Like	-6250
▁viel	-6251
▁secure	-6252
▁entrance	-6253
nic	-6254
enger	-6255
▁exceed	-6256
vous	-6257
GATT	-6258
▁suspic	-6259
71	-6260
oa	-6261
acks	-6262
▁Blue	-6263
▁flat	-6264
▁perman	-6265
▁supported	-6266
▁sorry	-6267
usal	-6268
ultural	-6269
▁jam	-6270
▁ain	-6271
52	-6272
spe	-6273
uct	-6274
▁aston	-6275
▁Representatives	-6276
▁carrying	-6277
eli	-6278
▁Science	-6279
▁dwell	-6280
▁gi	-6281
▁bodies	-6282
▁sang	-6283
▁Michigan	-6284
aria	-6285
▁grown	-6286
long	-6287
▁tail	-6288
▁Games	-6289
asts	-6290
▁Rem	-6291
▁persu	-6292
▁shook	-6293
▁rapidly	-6294
▁principles	-6295
▁innoc	-6296
math	-6297
chief	-6298
▁remaining	-6299
▁hospital	-6300
▁uses	-6301
▁2014	-6302
▁hier	-6303
anks	-6304
Je	-6305
GE	-6306
▁interrupt	-6307
adelphia	-6308
▁operation	-6309
▁acquired	-6310
▁trial	-6311
▁races	-6312
▁sell	-6313
▁gle	-6314
▁debut	-6315
▁sig	-6316
iverse	-6317
▁1997	-6318
▁protection	-6319
onto	-6320
▁marry	-6321
▁blow	-6322
▁pointed	-6323
–199	-6324
▁shoulder	-6325
▁fleet	-6326
▁aussi	-6327
sub	-6328
▁keeping	-6329
▁rat	-6330
▁apparently	-6331
aka	-6332
1/	-6333
▁tele	-6334
▁della	-6335
▁Sav	-6336
▁8.	-6337
▁retired	-6338
▁Conf	-6339
amen	-6340
▁6,	-6341
500	-6342
▁stands	-6343
▁anxious	-6344
ieux	-6345
anguage	-6346
▁glory	-6347
▁unit	-6348
▁brain	-6349
CTAA	-6350
▁flo	-6351
▁’	-6352
ulate	-6353
▁constituency	-6354
▁sacrif	-6355
▁safety	-6356
▁Team	-6357
▁Francisco	-6358
team	-6359
cd	-6360
umble	-6361
▁Hard	-6362
▁besides	-6363
Oct	-6364
▁Andrew	-6365
▁relief	-6366
▁tea	-6367
▁Win	-6368
▁Wild	-6369
car	-6370
▁ded	-6371
▁companion	-6372
▁ric	-6373
▁Jackson	-6374
▁pride	-6375
auc	-6376
ogen	-6377
▁joka	-6378
▁shadow	-6379
▁É	-6380
▁estim	-6381
▁Ja	-6382
▁gest	-6383
▁additional	-6384
8)	-6385
▁yards	-6386
▁Among	-6387
▁glance	-6388
▁CO	-6389
▁Again	-6390
▁McC	-6391
certain	-6392
orted	-6393
▁subjects	-6394
▁Secretary	-6395
▁Ontario	-6396
▁Song	-6397
▁Enter	-6398
utely	-6399
present	-6400
▁leurs	-6401
ück	-6402
rog	-6403
▁propos	-6404
heid	-6405
▁frag	-6406
▁governor	-6407
▁Williams	-6408
ifying	-6409
▁obliged	-6410
BS	-6411
athered	-6412
▁τη	-6413
▁Creek	-6414
▁neighbour	-6415
▁faces	-6416
▁treatment	-6417
▁coat	-6418
▁Bell	-6419
ighter	-6420
theless	-6421
▁buried	-6422
▁Add	-6423
earch	-6424
▁Death	-6425
▁couple	-6426
▁soil	-6427
▁broadcast	-6428
ouri	-6429
▁über	-6430
▁connection	-6431
▁disturb	-6432
▁counter	-6433
▁Castle	-6434
▁remembered	-6435
fortun	-6436
3%	-6437
▁32	-6438
bgcolor	-6439
asta	-6440
▁Whe	-6441
▁peut	-6442
ervation	-6443
▁description	-6444
cs	-6445
GTAA	-6446
▁og	-6447
▁liberty	-6448
▁altogether	-6449
▁fly	-6450
▁£	-6451
▁Os	-6452
▁shell	-6453
▁tur	-6454
▁Asia	-6455
▁rejo	-6456
▁tä	-6457
▁economic	-6458
En	-6459
So	-6460
▁Arts	-6461
▁judgment	-6462
▁2015	-6463
▁dance	-6464
▁aqu	-6465
Let	-6466
▁reference	-6467
▁possibly	-6468
▁cow	-6469
▁reform	-6470
▁woods	-6471
value	-6472
alous	-6473
*,	-6474
▁VI	-6475
▁historical	-6476
▁spiritual	-6477
asty	-6478
▁finding	-6479
▁conflict	-6480
mag	-6481
▁hearts	-6482
▁slave	-6483
▁teams	-6484
▁Home	-6485
▁Short	-6486
▁patient	-6487
▁sous	-6488
ardon	-6489
National	-6490
▁producer	-6491
▁Dun	-6492
▁mighty	-6493
▁zich	-6494
Aug	-6495
▁aware	-6496
▁rear	-6497
▁1960	-6498
bu	-6499
▁unable	-6500
▁useful	-6501
▁recognized	-6502
▁rac	-6503
▁problem	-6504
▁Columbia	-6505
▁drag	-6506
mm	-6507
▁interp	-6508
▁2016	-6509
▁owner	-6510
icine	-6511
▁TA	-6512
heast	-6513
hers	-6514
▁liv	-6515
▁correct	-6516
!...	-6517
▁Federal	-6518
inners	-6519
▁worthy	-6520
omy	-6521
▁closely	-6522
81	-6523
▁score	-6524
El	-6525
▁coff	-6526
▁admitted	-6527
GTCA	-6528
")	-6529
▁Belg	-6530
▁Christmas	-6531
▁183	-6532
▁Though	-6533
▁poetry	-6534
aya	-6535
▁für	-6536
▁lands	-6537
_{	-6538
▁Ha	-6539
ucle	-6540
▁forgotten	-6541
uh	-6542
▁chosen	-6543
Rep	-6544
▁distinguished	-6545
map	-6546
▁Div	-6547
▁Bon	-6548
▁conven	-6549
▁monarch	-6550
▁golden	-6551
▁enemies	-6552
nat	-6553
▁student	-6554
cing	-6555
▁Lo	-6556
TTTTA	-6557
▁mont	-6558
▁noch	-6559
pass	-6560
▁dece	-6561
▁Field	-6562
wen	-6563
▁interests	-6564
olo	-6565
▁temps	-6566
ysis	-6567
▁eth	-6568
▁solem	-6569
urance	-6570
▁Child	-6571
▁duties	-6572
▁willing	-6573
▁Hung	-6574
▁gather	-6575
▁diam	-6576
▁CD	-6577
ungen	-6578
wick	-6579
▁clubs	-6580
esota	-6581
▁copy	-6582
-3	-6583
▁apr	-6584
▁Library	-6585
cknow	-6586
West	-6587
anch	-6588
▁aside	-6589
▁actress	-6590
▁Constitution	-6591
orous	-6592
▁Radio	-6593
▁fancy	-6594
▁territory	-6595
────	-6596
olitan	-6597
▁Jeff	-6598
▁remarkable	-6599
▁rules	-6600
▁gain	-6601
▁Det	-6602
▁fingers	-6603
▁Each	-6604
icians	-6605
▁owned	-6606
▁aspect	-6607
▁albums	-6608
▁kaik	-6609
▁dust	-6610
▁Pass	-6611
OW	-6612
itors	-6613
▁metal	-6614
▁Hy	-6615
▁salt	-6616
ilst	-6617
ión	-6618
South	-6619
▁Pope	-6620
▁classes	-6621
▁Maria	-6622
▁sz	-6623
ados	-6624
▁Rod	-6625
▁accompanied	-6626
▁arrival	-6627
▁Pap	-6628
▁Light	-6629
uri	-6630
lers	-6631
ropri	-6632
4%	-6633
▁windows	-6634
▁Victoria	-6635
èrent	-6636
▁calling	-6637
▁fought	-6638
▁ash	-6639
quarters	-6640
Ne	-6641
▁terror	-6642
Am	-6643
▁sag	-6644
esta	-6645
▁obst	-6646
▁solemn	-6647
▁Ret	-6648
onds	-6649
pton	-6650
ching	-6651
▁skin	-6652
▁acknow	-6653
▁knowing	-6654
oj	-6655
iot	-6656
▁lit	-6657
emp	-6658
▁(202	-6659
▁prompt	-6660
▁media	-6661
father	-6662
▁attrib	-6663
bel	-6664
▁gentlemen	-6665
umin	-6666
▁brave	-6667
▁Ray	-6668
._,	-6669
▁Mir	-6670
▁goals	-6671
CATA	-6672
▁Bishop	-6673
▁7,	-6674
▁cel	-6675
▁Bridge	-6676
▁causes	-6677
▁actual	-6678
illä	-6679
▁avoid	-6680
▁pressure	-6681
▁magazine	-6682
▁seats	-6683
hend	-6684
▁product	-6685
▁|201	-6686
▁capable	-6687
▁pocket	-6688
amin	-6689
▁Professor	-6690
▁electric	-6691
gest	-6692
▁aj	-6693
reement	-6694
CTTA	-6695
▁dangerous	-6696
▁tells	-6697
▁driven	-6698
▁proc	-6699
▁crossed	-6700
▁issued	-6701
▁Jews	-6702
▁alive	-6703
▁buy	-6704
isode	-6705
▁legs	-6706
INE	-6707
ksi	-6708
▁cra	-6709
▁saved	-6710
▁Township	-6711
ει	-6712
uj	-6713
61	-6714
▁establishments	-6715
▁Theatre	-6716
▁reasons	-6717
▁labour	-6718
▁Wilson	-6719
▁struggle	-6720
OD	-6721
obile	-6722
8%	-6723
▁studio	-6724
▁desired	-6725
erick	-6726
▁vert	-6727
▁UN	-6728
▁clearly	-6729
▁tap	-6730
▁gathered	-6731
acious	-6732
ref	-6733
▁être	-6734
occ	-6735
▁hyp	-6736
riv	-6737
▁bij	-6738
▁Lew	-6739
▁mile	-6740
▁households	-6741
dig	-6742
▁motor	-6743
▁pää	-6744
▁afford	-6745
▁deck	-6746
▁relationship	-6747
iday	-6748
▁delay	-6749
2%	-6750
▁formerly	-6751
▁"_	-6752
▁ride	-6753
▁tongue	-6754
▁encoura	-6755
▁Form	-6756
▁Come	-6757
▁creature	-6758
▁rocks	-6759
stance	-6760
▁300	-6761
▁cultiv	-6762
uting	-6763
▁bought	-6764
▁milk	-6765
hin	-6766
oto	-6767
poration	-6768
▁granted	-6769
appy	-6770
never	-6771
▁vari	-6772
▁Hän	-6773
ieder	-6774
▁absence	-6775
▁Bal	-6776
▁quietly	-6777
des	-6778
▁risk	-6779
encies	-6780
▁Care	-6781
▁Scottish	-6782
▁demanded	-6783
▁reduced	-6784
ombre	-6785
unched	-6786
▁ends	-6787
▁Tenn	-6788
▁palace	-6789
:00	-6790
▁needs	-6791
▁subs	-6792
▁dial	-6793
▁equally	-6794
|202	-6795
▁lev	-6796
▁divine	-6797
▁flower	-6798
▁reflect	-6799
▁servants	-6800
▁Lincoln	-6801
▁Vill	-6802
▁shoulders	-6803
▁jun	-6804
AY	-6805
▁ahead	-6806
sa	-6807
▁breakfast	-6808
▁slightly	-6809
sort	-6810
▁defeated	-6811
▁Country	-6812
eman	-6813
▁Jewish	-6814
▁settlement	-6815
▁remarked	-6816
▁interested	-6817
________	-6818
▁managed	-6819
7%	-6820
▁acts	-6821
▁contrary	-6822
▁mostly	-6823
▁studies	-6824
▁constant	-6825
▁Brazil	-6826
▁1992	-6827
inson	-6828
▁stranger	-6829
AND	-6830
hemat	-6831
▁Coll	-6832
▁possessed	-6833
dis	-6834
bi	-6835
▁About	-6836
▁Inf	-6837
▁seized	-6838
▁check	-6839
▁uniform	-6840
ournament	-6841
after	-6842
▁holy	-6843
▁Techn	-6844
▁intention	-6845
▁pattern	-6846
▁telling	-6847
rell	-6848
▁enthus	-6849
▁ο	-6850
▁1995	-6851
▁brothers	-6852
leep	-6853
ILL	-6854
oked	-6855
▁eastern	-6856
▁fart	-6857
▁younger	-6858
▁treated	-6859
uther	-6860
UN	-6861
▁opposition	-6862
▁naturally	-6863
▁gray	-6864
▁|199	-6865
▁surprised	-6866
post	-6867
▁suit	-6868
▁Circ	-6869
▁Jane	-6870
oche	-6871
ses	-6872
▁9.	-6873
▁intelligence	-6874
▁Alf	-6875
hedral	-6876
▁temple	-6877
▁choice	-6878
duce	-6879
▁Sa	-6880
▁goods	-6881
▁Office	-6882
▁compared	-6883
▁centuries	-6884
▁spirits	-6885
▁News	-6886
▁vir	-6887
ika	-6888
▁annual	-6889
▁Da	-6890
▁visited	-6891
▁claimed	-6892
|2	-6893
▁Person	-6894
▁Later	-6895
oped	-6896
▁Still	-6897
eling	-6898
urches	-6899
uen	-6900
▁Fa	-6901
▁Anne	-6902
▁consequence	-6903
▁pounds	-6904
▁sentiment	-6905
▁bore	-6906
▁islands	-6907
seen	-6908
▁sovere	-6909
▁Top	-6910
6%	-6911
ession	-6912
using	-6913
▁sacred	-6914
▁ox	-6915
mouth	-6916
▁hearing	-6917
force	-6918
▁1994	-6919
▁strike	-6920
▁gods	-6921
uper	-6922
▁calls	-6923
elijk	-6924
▁assem	-6925
▁largely	-6926
eren	-6927
▁Republican	-6928
▁Wat	-6929
▁plate	-6930
▁evidently	-6931
▁editor	-6932
▁Way	-6933
▁0000	-6934
▁concerning	-6935
▁Game	-6936
▁frame	-6937
German	-6938
eral	-6939
▁primary	-6940
▁ceased	-6941
▁fu	-6942
▁undert	-6943
▁Mill	-6944
▁capacity	-6945
▁basketball	-6946
aska	-6947
▁Somet	-6948
▁views	-6949
GCCA	-6950
▁caval	-6951
upright	-6952
▁selected	-6953
▁gradually	-6954
iece	-6955
▁Lar	-6956
▁commonly	-6957
▁necessity	-6958
uable	-6959
count	-6960
▁noticed	-6961
▁wants	-6962
hetic	-6963
▁tired	-6964
▁forb	-6965
▁expand	-6966
▁begun	-6967
▁walking	-6968
▁Exp	-6969
chi	-6970
▁scar	-6971
▁traditional	-6972
▁articles	-6973
▁branches	-6974
▁phr	-6975
▁Common	-6976
▁advice	-6977
▁suffering	-6978
▁lod	-6979
–1	-6980
▁Race	-6981
iste	-6982
▁sport	-6983
heim	-6984
five	-6985
▁Board	-6986
▁Tay	-6987
▁relation	-6988
▁Hal	-6989
phy	-6990
▁watching	-6991
▁discip	-6992
▁listen	-6993
▁Han	-6994
▁Str	-6995
▁university	-6996
▁Heaven	-6997
▁castle	-6998
ommes	-6999
taient	-7000
▁Coast	-7001
rage	-7002
▁teeth	-7003
▁Perhaps	-7004
▁Cy	-7005
▁Supp	-7006
▁hockey	-7007
▁contained	-7008
▁request	-7009
eries	-7010
ár	-7011
▁vac	-7012
▁signal	-7013
▁impression	-7014
▁dés	-7015
▁lett	-7016
▁Non	-7017
▁happen	-7018
▁Doug	-7019
▁Nature	-7020
rical	-7021
▁featured	-7022
NA	-7023
▁consult	-7024
eared	-7025
▁consists	-7026
▁containing	-7027
music	-7028
▁joint	-7029
itement	-7030
▁36	-7031
wed	-7032
ds	-7033
▁Marsh	-7034
▁rig	-7035
point	-7036
▁disappoint	-7037
▁rent	-7038
iens	-7039
▁detect	-7040
▁hurt	-7041
▁message	-7042
ugby	-7043
ivity	-7044
acon	-7045
lies	-7046
▁reject	-7047
▁Test	-7048
▁pages	-7049
▁statement	-7050
▁smoke	-7051
Hist	-7052
▁33	-7053
▁Tro	-7054
▁carriage	-7055
▁learning	-7056
oro	-7057
▁Fig	-7058
▁Ba	-7059
▁waited	-7060
▁Orig	-7061
ffic	-7062
estab	-7063
▁prayer	-7064
▁domestic	-7065
▁2017	-7066
▁noise	-7067
▁Elle	-7068
issance	-7069
▁sequ	-7070
label	-7071
▁channel	-7072
ος	-7073
▁agric	-7074
▁Independ	-7075
▁literary	-7076
?--	-7077
▁Anton	-7078
▁dare	-7079
▁library	-7080
Austral	-7081
▁wet	-7082
▁wasn	-7083
ERS	-7084
aging	-7085
▁basis	-7086
▁activity	-7087
GTTA	-7088
▁concept	-7089
▁|3	-7090
▁Point	-7091
▁Berlin	-7092
blank	-7093
cia	-7094
real	-7095
ipe	-7096
▁reven	-7097
▁Minnesota	-7098
▁block	-7099
▁estate	-7100
▁talked	-7101
▁haar	-7102
▁psych	-7103
▁huge	-7104
udes	-7105
9%	-7106
OC	-7107
TATG	-7108
▁narr	-7109
gency	-7110
▁hide	-7111
▁pull	-7112
▁wo	-7113
▁Province	-7114
▁Cop	-7115
▁Jr	-7116
▁empty	-7117
▁contact	-7118
▁han	-7119
2/	-7120
perial	-7121
▁touched	-7122
▁federal	-7123
▁experiment	-7124
▁Philadelphia	-7125
non	-7126
▁status	-7127
▁instinct	-7128
▁Brook	-7129
nde	-7130
▁8,	-7131
rolled	-7132
▁ax	-7133
/8/8/8/	-7134
▁kit	-7135
▁administration	-7136
▁understanding	-7137
▁Bru	-7138
▁falling	-7139
▁2018	-7140
iture	-7141
yan	-7142
▁angry	-7143
ainted	-7144
▁60	-7145
▁prisoners	-7146
▁durch	-7147
▁oh	-7148
▁conver	-7149
▁management	-7150
inking	-7151
▁returning	-7152
▁tied	-7153
▁rooms	-7154
agu	-7155
▁flood	-7156
▁lang	-7157
▁rien	-7158
CGG	-7159
ilding	-7160
▁hotel	-7161
▁là	-7162
▁Sup	-7163
▁Television	-7164
ellä	-7165
▁vision	-7166
▁Ram	-7167
boy	-7168
SS	-7169
quer	-7170
▁slaves	-7171
▁mixed	-7172
▁concerned	-7173
--_	-7174
▁newspaper	-7175
aver	-7176
GAAAA	-7177
ção	-7178
plic	-7179
▁od	-7180
▁satisfied	-7181
▁coal	-7182
His	-7183
▁practical	-7184
dess	-7185
▁bent	-7186
▁zoo	-7187
unte	-7188
▁dos	-7189
▁methods	-7190
▁Main	-7191
▁chamber	-7192
▁Stephen	-7193
▁nem	-7194
ograp	-7195
▁10.	-7196
▁setting	-7197
▁vessels	-7198
riz	-7199
abe	-7200
▁records	-7201
▁mig	-7202
▁tent	-7203
enden	-7204
▁10,	-7205
▁products	-7206
▁rout	-7207
▁politics	-7208
▁Jacob	-7209
▁starting	-7210
▁Budd	-7211
▁Once	-7212
▁Follow	-7213
].	-7214
ronic	-7215
arted	-7216
ashed	-7217
▁infin	-7218
white	-7219
▁sed	-7220
▁400	-7221
▁putting	-7222
from	-7223
▁acquaint	-7224
herlands	-7225
▁explain	-7226
:200	-7227
CCCA	-7228
ordinary	-7229
▁toute	-7230
▁Head	-7231
▁Tal	-7232
ulpt	-7233
itled	-7234
▁flesh	-7235
▁explan	-7236
rav	-7237
▁affair	-7238
▁Those	-7239
kä	-7240
North	-7241
▁1993	-7242
▁wand	-7243
UL	-7244
▁liqu	-7245
▁contro	-7246
▁mental	-7247
ampion	-7248
▁GA	-7249
TTAA	-7250
gram	-7251
▁Polit	-7252
▁median	-7253
who	-7254
▁34	-7255
▁today	-7256
ulla	-7257
ctures	-7258
down	-7259
eeee	-7260
▁Hind	-7261
▁gén	-7262
gel	-7263
▁contrast	-7264
▁Missouri	-7265
jours	-7266
ellen	-7267
engers	-7268
▁Project	-7269
▁bord	-7270
▁Nic	-7271
▁visible	-7272
▁circle	-7273
▁pill	-7274
▁consp	-7275
▁Walter	-7276
▁worship	-7277
ilms	-7278
▁singing	-7279
▁rode	-7280
▁proceeded	-7281
▁sein	-7282
▁Barb	-7283
agne	-7284
▁screen	-7285
▁worst	-7286
▁nin	-7287
▁του	-7288
▁ability	-7289
▁sym	-7290
▁drop	-7291
▁minä	-7292
▁Leon	-7293
▁cousin	-7294
▁Through	-7295
▁partly	-7296
▁ber	-7297
▁shop	-7298
iplom	-7299
▁surrounded	-7300
▁incident	-7301
▁BC	-7302
▁Corps	-7303
▁details	-7304
▁commander	-7305
▁busy	-7306
cell	-7307
▁autom	-7308
ische	-7309
▁Fox	-7310
imo	-7311
din	-7312
▁plays	-7313
▁concent	-7314
▁stick	-7315
/8/8/8/8/	-7316
illery	-7317
font	-7318
ounce	-7319
izes	-7320
anna	-7321
▁convent	-7322
▁Times	-7323
based	-7324
▁fifteen	-7325
kind	-7326
▁verd	-7327
amps	-7328
91	-7329
▁pity	-7330
▁dram	-7331
Dem	-7332
▁Fire	-7333
▁swift	-7334
▁voyage	-7335
etch	-7336
▁grande	-7337
upp	-7338
▁Hay	-7339
▁bearing	-7340
mosp	-7341
athan	-7342
▁precip	-7343
▁medical	-7344
▁wore	-7345
antes	-7346
roit	-7347
▁philosophy	-7348
▁throne	-7349
▁financial	-7350
Nov	-7351
oren	-7352
▁unh	-7353
át	-7354
▁*19	-7355
▁Bible	-7356
Mr	-7357
Fl	-7358
▁stones	-7359
▁assistance	-7360
greg	-7361
▁Dam	-7362
ules	-7363
▁Justice	-7364
▁Avenue	-7365
oster	-7366
▁approxim	-7367
▁Margaret	-7368
▁singles	-7369
0)	-7370
sex	-7371
mal	-7372
achel	-7373
▁arranged	-7374
▁response	-7375
▁pel	-7376
▁burning	-7377
UT	-7378
▁parish	-7379
▁thousands	-7380
▁captured	-7381
▁Show	-7382
▁security	-7383
rou	-7384
len	-7385
▁bringing	-7386
isa	-7387
oqu	-7388
▁tant	-7389
▁Kong	-7390
▁pré	-7391
▁dressed	-7392
▁moments	-7393
▁percent	-7394
▁Daniel	-7395
▁attached	-7396
▁ham	-7397
▁Jon	-7398
▁studied	-7399
vet	-7400
▁Brother	-7401
▁purposes	-7402
este	-7403
▁Turk	-7404
▁females	-7405
omp	-7406
▁teach	-7407
▁alumni	-7408
itzer	-7409
▁hurried	-7410
▁Ott	-7411
▁surely	-7412
aph	-7413
▁Majesty	-7414
▁gay	-7415
▁descent	-7416
ού	-7417
▁responsible	-7418
▁opt	-7419
▁dar	-7420
inction	-7421
▁proportion	-7422
▁Also	-7423
▁exercise	-7424
▁dir	-7425
▁emph	-7426
adron	-7427
▁Spirit	-7428
▁tort	-7429
UM	-7430
▁Imp	-7431
▁reader	-7432
▁claims	-7433
▁toutes	-7434
▁draft	-7435
otton	-7436
reck	-7437
▁queen	-7438
General	-7439
▁whispered	-7440
▁nice	-7441
acter	-7442
▁00000000	-7443
▁Ur	-7444
▁tum	-7445
bur	-7446
▁donc	-7447
ti	-7448
▁amongst	-7449
See	-7450
elly	-7451
▁mutta	-7452
▁attempted	-7453
stead	-7454
▁facult	-7455
=,	-7456
▁reality	-7457
▁armed	-7458
)</	-7459
asant	-7460
▁este	-7461
box	-7462
ordinates	-7463
▁cricket	-7464
5/	-7465
▁Mother	-7466
▁Op	-7467
▁consideration	-7468
▁Gre	-7469
▁anti	-7470
amming	-7471
ivät	-7472
▁iv	-7473
▁extreme	-7474
▁Festival	-7475
aman	-7476
Christ	-7477
▁Clark	-7478
Good	-7479
▁prior	-7480
▁truly	-7481
▁satisfaction	-7482
ropolitan	-7483
▁push	-7484
▁tod	-7485
▁lifted	-7486
▁unw	-7487
▁severe	-7488
iah	-7489
▁bag	-7490
▁Aff	-7491
▁hence	-7492
▁revealed	-7493
ieties	-7494
▁goal	-7495
▁virtue	-7496
▁density	-7497
▁Econom	-7498
▁ped	-7499
▁veget	-7500
▁farther	-7501
▁minds	-7502
▁regions	-7503
EA	-7504
▁Rh	-7505
▁Brig	-7506
▁calcul	-7507
atri	-7508
▁pouv	-7509
▁presently	-7510
▁Anth	-7511
▁miser	-7512
▁scientific	-7513
▁Tu	-7514
four	-7515
▁credit	-7516
fa	-7517
▁Conference	-7518
▁dozen	-7519
utter	-7520
When	-7521
▁settle	-7522
.=	-7523
tha	-7524
▁Turn	-7525
▁strict	-7526
▁informed	-7527
▁conducted	-7528
▁guide	-7529
insi	-7530
▁Av	-7531
▁shame	-7532
▁begins	-7533
▁climate	-7534
▁Girl	-7535
adows	-7536
▁sup	-7537
▁encoun	-7538
▁doors	-7539
ographic	-7540
▁bass	-7541
▁acad	-7542
▁immediate	-7543
arse	-7544
aro	-7545
▁yours	-7546
▁Greece	-7547
▁midst	-7548
▁signs	-7549
akers	-7550
▁flour	-7551
▁Mu	-7552
▁Vo	-7553
obe	-7554
ifications	-7555
▁fold	-7556
▁issues	-7557
▁infer	-7558
gro	-7559
▁cha	-7560
▁contain	-7561
▁quelque	-7562
▁Cab	-7563
essee	-7564
▁Sud	-7565
▁create	-7566
51	-7567
▁revolution	-7568
▁Ken	-7569
▁toujours	-7570
▁Hart	-7571
▁Golden	-7572
William	-7573
▁patri	-7574
zone	-7575
▁liked	-7576
▁quand	-7577
acles	-7578
▁genius	-7579
hu	-7580
▁Did	-7581
▁nose	-7582
▁architecture	-7583
▁expedition	-7584
▁sugar	-7585
▁viv	-7586
▁failure	-7587
▁resc	-7588
▁affected	-7589
▁Back	-7590
vy	-7591
▁wing	-7592
▁ki	-7593
▁meat	-7594
▁desper	-7595
▁generation	-7596
▁rival	-7597
auv	-7598
▁cord	-7599
▁laughing	-7600
▁Upon	-7601
density	-7602
▁appreci	-7603
érie	-7604
▁Temple	-7605
▁|4	-7606
▁faithful	-7607
▁Power	-7608
▁è	-7609
unning	-7610
panic	-7611
▁Work	-7612
icit	-7613
orado	-7614
▁singular	-7615
▁steel	-7616
▁audience	-7617
▁delivered	-7618
Come	-7619
▁maar	-7620
osta	-7621
▁tempt	-7622
▁condem	-7623
▁Stadium	-7624
terday	-7625
▁hopes	-7626
▁bay	-7627
▁Atlantic	-7628
▁smooth	-7629
▁Prem	-7630
▁butter	-7631
▁Som	-7632
7/	-7633
▁Centre	-7634
▁arts	-7635
rum	-7636
owder	-7637
▁homme	-7638
▁Desp	-7639
▁doesn	-7640
bourne	-7641
▁corps	-7642
irmed	-7643
▁cela	-7644
▁Sever	-7645
▁Sher	-7646
rative	-7647
▁consent	-7648
▁moins	-7649
▁hoped	-7650
▁deeply	-7651
▁Mess	-7652
CTTTT	-7653
εν	-7654
olas	-7655
▁steam	-7656
usive	-7657
▁wheel	-7658
▁faut	-7659
▁desert	-7660
▁Guard	-7661
▁flying	-7662
▁worn	-7663
▁handsome	-7664
▁devoted	-7665
eta	-7666
▁unus	-7667
▁prospect	-7668
▁dur	-7669
▁immen	-7670
▁sul	-7671
▁Down	-7672
▁Engine	-7673
9)	-7674
ffff	-7675
writer	-7676
-4	-7677
▁hatte	-7678
▁opposed	-7679
TTTG	-7680
▁companions	-7681
▁AN	-7682
enses	-7683
liest	-7684
izations	-7685
.;	-7686
▁Austria	-7687
▁sympathy	-7688
▁resol	-7689
▁jus	-7690
uty	-7691
▁drove	-7692
▁pulled	-7693
▁embr	-7694
▁parliament	-7695
▁actions	-7696
cha	-7697
▁environment	-7698
▁sources	-7699
▁violence	-7700
▁argument	-7701
▁Kenn	-7702
▁excited	-7703
▁stead	-7704
▁raise	-7705
▁18,	-7706
andy	-7707
jud	-7708
Par	-7709
▁alg	-7710
▁fairly	-7711
▁extraordinary	-7712
▁excitement	-7713
▁degrees	-7714
bli	-7715
▁cattle	-7716
▁equip	-7717
pson	-7718
▁voul	-7719
▁sinc	-7720
onym	-7721
ître	-7722
▁9,	-7723
▁stern	-7724
uto	-7725
▁compre	-7726
▁imagination	-7727
▁recently	-7728
just	-7729
iscons	-7730
uce	-7731
▁acid	-7732
▁Wel	-7733
ester	-7734
▁puis	-7735
▁districts	-7736
▁amid	-7737
▁absor	-7738
enz	-7739
uate	-7740
▁│	-7741
▁subm	-7742
▁fill	-7743
▁splendid	-7744
-18	-7745
▁destruction	-7746
▁launched	-7747
========	-7748
▁extremely	-7749
▁tower	-7750
osh	-7751
usement	-7752
▁abund	-7753
▁Ent	-7754
▁winning	-7755
▁[_	-7756
▁friendly	-7757
▁Syd	-7758
oti	-7759
uese	-7760
:2	-7761
elen	-7762
▁naar	-7763
▁rever	-7764
▁awarded	-7765
▁competition	-7766
▁Following	-7767
▁Gil	-7768
MS	-7769
▁procl	-7770
▁Ball	-7771
▁relie	-7772
▁acting	-7773
▁pover	-7774
ederation	-7775
▁Bad	-7776
▁link	-7777
▁inches	-7778
▁commanded	-7779
▁banks	-7780
velopment	-7781
▁Princess	-7782
▁Joh	-7783
▁hesit	-7784
▁Poland	-7785
ilty	-7786
▁dying	-7787
▁accord	-7788
▁syn	-7789
▁wisdom	-7790
▁11,	-7791
▁Var	-7792
ource	-7793
▁shr	-7794
ayer	-7795
▁exha	-7796
irs	-7797
▁descend	-7798
▁violent	-7799
GTTTT	-7800
▁keen	-7801
ém	-7802
alph	-7803
active	-7804
▁wret	-7805
▁Knight	-7806
▁très	-7807
amma	-7808
▁committed	-7809
▁combined	-7810
▁38	-7811
put	-7812
oni	-7813
▁Santa	-7814
ova	-7815
▁paus	-7816
club	-7817
▁baby	-7818
▁escaped	-7819
▁creation	-7820
▁atmosp	-7821
▁careful	-7822
wich	-7823
▁waar	-7824
▁dogs	-7825
owa	-7826
wide	-7827
▁Albert	-7828
▁notable	-7829
isconsin	-7830
▁tut	-7831
yo	-7832
▁whilst	-7833
▁resolved	-7834
▁Taylor	-7835
GATG	-7836
▁(1	-7837
▁department	-7838
▁spo	-7839
ossa	-7840
Who	-7841
▁prisoner	-7842
Gr	-7843
▁types	-7844
asm	-7845
τα	-7846
▁Album	-7847
▁conclusion	-7848
▁182	-7849
▁Gro	-7850
▁derived	-7851
▁mart	-7852
▁37	-7853
orporated	-7854
▁Ho	-7855
ingen	-7856
ecess	-7857
urday	-7858
▁friendship	-7859
▁integr	-7860
mill	-7861
▁skill	-7862
aki	-7863
▁authorities	-7864
▁assured	-7865
iration	-7866
▁tale	-7867
asti	-7868
▁ker	-7869
▁diff	-7870
looking	-7871
▁Found	-7872
ippi	-7873
▁defeat	-7874
lyn	-7875
▁Prix	-7876
▁problems	-7877
▁Cape	-7878
TTTA	-7879
idad	-7880
▁ancest	-7881
▁jamais	-7882
▁movements	-7883
Ed	-7884
eper	-7885
outs	-7886
angers	-7887
▁Ob	-7888
▁anch	-7889
▁duc	-7890
ensa	-7891
▁Cambridge	-7892
▁sortable	-7893
▁drama	-7894
▁Cer	-7895
▁exchange	-7896
▁accur	-7897
▁cloth	-7898
Living	-7899
▁painted	-7900
▁más	-7901
▁Fle	-7902
▁unfortun	-7903
▁hidden	-7904
rous	-7905
▁scale	-7906
=1	-7907
▁nyt	-7908
▁grey	-7909
▁Sin	-7910
▁Ross	-7911
▁Pict	-7912
▁Und	-7913
▁combat	-7914
▁sentence	-7915
▁widely	-7916
▁addressed	-7917
Of	-7918
▁votre	-7919
▁lovely	-7920
eme	-7921
▁listened	-7922
▁discovery	-7923
▁wholly	-7924
onies	-7925
▁curios	-7926
▁welcome	-7927
Euro	-7928
▁pist	-7929
▁Nations	-7930
ribed	-7931
▁privile	-7932
Min	-7933
EP	-7934
kee	-7935
isch	-7936
▁kon	-7937
OP	-7938
town	-7939
▁devil	-7940
▁Military	-7941
TCTC	-7942
ienced	-7943
▁hither	-7944
▁institutions	-7945
ordon	-7946
▁gloom	-7947
:01	-7948
▁positive	-7949
▁éc	-7950
▁respond	-7951
▁demographics	-7952
▁Napole	-7953
▁enf	-7954
▁seated	-7955
rors	-7956
song	-7957
▁MAR	-7958
▁mainly	-7959
▁Winter	-7960
▁materials	-7961
▁Ship	-7962
▁nearer	-7963
▁gel	-7964
▁impress	-7965
▁AR	-7966
▁haven	-7967
▁Lind	-7968
▁Lim	-7969
▁reward	-7970
▁nomin	-7971
▁Amb	-7972
ami	-7973
▁2024	-7974
▁valuable	-7975
▁ideal	-7976
▁serving	-7977
▁absolutely	-7978
▁Thou	-7979
otic	-7980
▁odd	-7981
▁behav	-7982
▁2022	-7983
Tr	-7984
▁Duc	-7985
▁sheep	-7986
obal	-7987
▁operated	-7988
▁Area	-7989
▁poem	-7990
ocation	-7991
▁prosper	-7992
his	-7993
▁ger	-7994
▁ä	-7995
▁Ford	-7996
▁indign	-7997
▁prominent	-7998
▁Cro	-7999
▁suis	-8000
▁despite	-8001
agan	-8002
▁horiz	-8003
▁torn	-8004
peare	-8005
▁Walk	-8006
▁Special	-8007
▁subsequently	-8008
▁(16	-8009
▁1950	-8010
▁Kh	-8011
ocracy	-8012
dro	-8013
||1	-8014
▁1988	-8015
▁Victor	-8016
idenote	-8017
ARD	-8018
▁nav	-8019
▁Netherlands	-8020
▁occasionally	-8021
▁sam	-8022
works	-8023
frac	-8024
▁après	-8025
▁retreat	-8026
▁actors	-8027
▁boats	-8028
▁batter	-8029
▁gran	-8030
▁trail	-8031
iche	-8032
earing	-8033
One	-8034
border	-8035
itan	-8036
nte	-8037
ront	-8038
▁ment	-8039
yes	-8040
AP	-8041
ytt	-8042
▁bew	-8043
▁sust	-8044
▁bat	-8045
▁application	-8046
anti	-8047
▁disappeared	-8048
▁fix	-8049
▁Having	-8050
▁wings	-8051
▁pup	-8052
etta	-8053
pes	-8054
▁supper	-8055
akin	-8056
▁fled	-8057
igo	-8058
▁transm	-8059
▁ton	-8060
▁grief	-8061
▁gal	-8062
▁prime	-8063
eck	-8064
emed	-8065
▁Bab	-8066
▁hate	-8067
▁24,	-8068
▁lux	-8069
▁increasing	-8070
ologist	-8071
Ste	-8072
▁Conne	-8073
▁imagine	-8074
▁00	-8075
▁quelques	-8076
▁prés	-8077
borough	-8078
▁chapter	-8079
▁inquir	-8080
▁choose	-8081
▁Publ	-8082
▁Sweden	-8083
▁profession	-8084
▁Ash	-8085
▁wave	-8086
ρα	-8087
umption	-8088
▁Kar	-8089
fld	-8090
▁moder	-8091
▁jur	-8092
anne	-8093
▁revol	-8094
▁chain	-8095
▁dischar	-8096
▁excess	-8097
▁Kansas	-8098
▁Id	-8099
▁strongly	-8100
ämä	-8101
capt	-8102
▁Ast	-8103
aga	-8104
▁colle	-8105
vat	-8106
rive	-8107
▁12,	-8108
teenth	-8109
▁owners	-8110
▁association	-8111
▁manifest	-8112
▁Burn	-8113
▁residence	-8114
ESS	-8115
otted	-8116
▁theatre	-8117
▁Sports	-8118
▁celebrated	-8119
▁measures	-8120
anut	-8121
▁Uncle	-8122
▁fais	-8123
▁horror	-8124
▁kinds	-8125
▁controvers	-8126
▁mistake	-8127
▁propri	-8128
▁fois	-8129
▁Islam	-8130
▁fellows	-8131
▁wicked	-8132
iat	-8133
agger	-8134
▁Spring	-8135
▁conscience	-8136
▁teaching	-8137
yard	-8138
▁printed	-8139
▁cos	-8140
quet	-8141
By	-8142
GTCC	-8143
rett	-8144
▁TH	-8145
▁phen	-8146
Sidenote	-8147
uma	-8148
▁Lieutenant	-8149
▁waste	-8150
anny	-8151
▁appeal	-8152
ît	-8153
▁Hamilton	-8154
▁Ele	-8155
eff	-8156
;–	-8157
3/	-8158
▁agent	-8159
aires	-8160
▁sacrifice	-8161
▁thoroughly	-8162
▁tom	-8163
igs	-8164
inton	-8165
idel	-8166
▁pare	-8167
▁***	-8168
▁agreement	-8169
ees	-8170
▁ole	-8171
▁resistance	-8172
▁doctrine	-8173
▁ka	-8174
istä	-8175
▁mic	-8176
ships	-8177
▁Flore	-8178
▁indif	-8179
▁1989	-8180
▁Pak	-8181
▁Mit	-8182
▁arose	-8183
▁Cub	-8184
▁retire	-8185
▁Lewis	-8186
▁tomb	-8187
▁Ocean	-8188
Best	-8189
▁kings	-8190
▁gets	-8191
▁specific	-8192
▁concluded	-8193
▁voices	-8194
▁exception	-8195
cies	-8196
▁sculpt	-8197
ureau	-8198
issippi	-8199
▁symbol	-8200
▁Tennessee	-8201
▁3:	-8202
▁Forest	-8203
▁permitted	-8204
▁pressed	-8205
▁Imperial	-8206
▁Sel	-8207
▁boot	-8208
▁scholar	-8209
▁constructed	-8210
▁Adam	-8211
▁mode	-8212
6/	-8213
onent	-8214
▁quantity	-8215
rayed	-8216
▁Ark	-8217
▁obsc	-8218
▁separated	-8219
▁temperature	-8220
▁maintained	-8221
Xpage	-8222
inch	-8223
▁frequent	-8224
▁municipal	-8225
▁sua	-8226
▁permanent	-8227
▁Sydney	-8228
▁Cas	-8229
▁smiling	-8230
▁attacked	-8231
oso	-8232
▁Look	-8233
▁Athlet	-8234
▁Family	-8235
keit	-8236
▁Low	-8237
▁interior	-8238
2019	-8239
▁comedy	-8240
▁Corporation	-8241
▁pardon	-8242
Char	-8243
▁ocean	-8244
▁Simon	-8245
▁ko	-8246
▁limit	-8247
Mon	-8248
▁Greg	-8249
angel	-8250
emeter	-8251
usalem	-8252
300	-8253
▁Supreme	-8254
▁Davis	-8255
▁independence	-8256
Sir	-8257
EST	-8258
▁einen	-8259
Port	-8260
equ	-8261
will	-8262
▁tul	-8263
▁Band	-8264
there	-8265
▁Polish	-8266
▁Bat	-8267
▁activities	-8268
▁abandoned	-8269
▁sounds	-8270
CCCC	-8271
▁insc	-8272
▁unex	-8273
▁guest	-8274
uy	-8275
ων	-8276
GCTA	-8277
ün	-8278
istered	-8279
▁fiction	-8280
▁assumed	-8281
bes	-8282
▁hole	-8283
.&	-8284
▁admit	-8285
▁Beach	-8286
▁dull	-8287
▁Mountain	-8288
▁departure	-8289
▁despair	-8290
▁tracks	-8291
master	-8292
▁inner	-8293
▁caut	-8294
▁lift	-8295
prise	-8296
▁architect	-8297
▁FR	-8298
sä	-8299
▁LE	-8300
▁bomb	-8301
▁finds	-8302
▁existing	-8303
▁2023	-8304
▁scheme	-8305
▁attitude	-8306
▁counten	-8307
▁fare	-8308
▁cabin	-8309
▁Stone	-8310
▁Besides	-8311
▁approached	-8312
▁rés	-8313
▁impat	-8314
▁Journal	-8315
CD	-8316
rij	-8317
▁defend	-8318
▁entitled	-8319
▁successor	-8320
▁15,	-8321
▁hen	-8322
▁obey	-8323
▁constantly	-8324
▁vocals	-8325
▁roads	-8326
LA	-8327
=4	-8328
▁renew	-8329
|1	-8330
▁Ten	-8331
▁improve	-8332
▁ages	-8333
▁maid	-8334
▁preserved	-8335
▁não	-8336
▁churches	-8337
▁)	-8338
▁holds	-8339
▁AM	-8340
▁14,	-8341
▁Research	-8342
▁Asian	-8343
▁determin	-8344
French	-8345
▁mercy	-8346
▁Hong	-8347
▁Transport	-8348
chang	-8349
bing	-8350
books	-8351
icken	-8352
Car	-8353
Where	-8354
▁Health	-8355
uster	-8356
phone	-8357
▁heavily	-8358
di	-8359
▁Aunt	-8360
rations	-8361
irth	-8362
▁Batt	-8363
▁VII	-8364
alty	-8365
apped	-8366
ntä	-8367
▁universal	-8368
▁cert	-8369
▁rendered	-8370
IE	-8371
▁instru	-8372
▁Trans	-8373
▁railroad	-8374
▁Dom	-8375
▁rein	-8376
emen	-8377
▁tight	-8378
▁seasons	-8379
▁folk	-8380
lan	-8381
▁remind	-8382
▁Ker	-8383
▁surrounding	-8384
▁Highway	-8385
▁professor	-8386
▁praise	-8387
heit	-8388
▁nou	-8389
lav	-8390
they	-8391
▁fired	-8392
▁femme	-8393
▁Free	-8394
▁Fra	-8395
▁kitchen	-8396
▁loose	-8397
▁Crown	-8398
▁mistress	-8399
▁Grant	-8400
nal	-8401
▁poverty	-8402
2_	-8403
weg	-8404
▁brig	-8405
▁IS	-8406
▁44	-8407
▁jet	-8408
▁AD	-8409
▁economy	-8410
▁rot	-8411
▁zur	-8412
▁magnific	-8413
arte	-8414
dist	-8415
▁för	-8416
:21	-8417
▁composition	-8418
▁abroad	-8419
embers	-8420
zech	-8421
▁shortly	-8422
▁Christianity	-8423
▁scenes	-8424
▁positions	-8425
▁critical	-8426
▁Gib	-8427
ouch	-8428
iac	-8429
▁inspired	-8430
▁approximately	-8431
▁communication	-8432
Comm	-8433
▁waren	-8434
▁Tar	-8435
sely	-8436
Jul	-8437
▁brilliant	-8438
▁picked	-8439
▁39	-8440
▁Human	-8441
▁Az	-8442
olph	-8443
▁11.	-8444
▁13,	-8445
▁Sax	-8446
ande	-8447
▁premier	-8448
▁Hur	-8449
immer	-8450
▁flow	-8451
▁convin	-8452
▁reputation	-8453
▁Protest	-8454
▁collected	-8455
▁Wisconsin	-8456
inging	-8457
▁craft	-8458
icip	-8459
AF	-8460
▁depos	-8461
ugg	-8462
weight	-8463
ép	-8464
▁Constant	-8465
seless	-8466
▁più	-8467
▁dish	-8468
▁Ren	-8469
▁essential	-8470
▁obv	-8471
▁tribes	-8472
▁eggs	-8473
▁Pot	-8474
anim	-8475
▁Because	-8476
▁Prime	-8477
abled	-8478
▁appropri	-8479
▁Us	-8480
ibus	-8481
ELL	-8482
aughters	-8483
▁Bart	-8484
ailing	-8485
▁ruin	-8486
pool	-8487
▁decor	-8488
▁weapons	-8489
▁Official	-8490
▁asking	-8491
▁waves	-8492
▁coffee	-8493
dale	-8494
▁Moh	-8495
▁benefit	-8496
▁distribution	-8497
▁Juan	-8498
vens	-8499
etic	-8500
▁sla	-8501
▁males	-8502
▁1991	-8503
Phil	-8504
öl	-8505
▁kindly	-8506
▁Marie	-8507
▁Roger	-8508
–2	-8509
▁dawn	-8510
▁Indust	-8511
▁foundation	-8512
▁Pa	-8513
▁sale	-8514
▁Regiment	-8515
▁Li	-8516
imately	-8517
▁mich	-8518
▁formation	-8519
ourable	-8520
hard	-8521
alion	-8522
unter	-8523
▁Roll	-8524
6;	-8525
▁clouds	-8526
▁inher	-8527
▁gift	-8528
▁mounted	-8529
▁delicate	-8530
ouses	-8531
▁knees	-8532
caption	-8533
▁depth	-8534
efef	-8535
▁(?	-8536
▁bud	-8537
▁villages	-8538
▁Marc	-8539
hol	-8540
▁fever	-8541
▁Nothing	-8542
▁ihn	-8543
▁Nich	-8544
via	-8545
orus	-8546
▁finger	-8547
▁Sem	-8548
struction	-8549
▁demonstr	-8550
▁Brun	-8551
▁Uk	-8552
ardo	-8553
▁guilty	-8554
▁kle	-8555
▁defence	-8556
▁elder	-8557
▁Mean	-8558
▁invited	-8559
▁anger	-8560
▁Defn	-8561
ication	-8562
oking	-8563
▁répond	-8564
▁Medal	-8565
Dec	-8566
▁(2	-8567
▁Kentucky	-8568
▁drug	-8569
▁Organ	-8570
▁Saturday	-8571
igg	-8572
burn	-8573
▁establishment	-8574
▁advert	-8575
eler	-8576
avan	-8577
▁tow	-8578
oz	-8579
esti	-8580
▁perpet	-8581
▁greet	-8582
▁Hospital	-8583
igt	-8584
rants	-8585
▁2021	-8586
itage	-8587
▁Toronto	-8588
▁Wars	-8589
'.	-8590
▁confusion	-8591
▁bron	-8592
▁να	-8593
▁alla	-8594
hl	-8595
fall	-8596
MA	-8597
▁planned	-8598
▁2:	-8599
rip	-8600
▁consol	-8601
▁lover	-8602
Did	-8603
τε	-8604
▁plenty	-8605
▁FC	-8606
▁8/	-8607
▁eu	-8608
▁earliest	-8609
▁Quebec	-8610
▁reports	-8611
ahr	-8612
▁attempts	-8613
people	-8614
▁Sab	-8615
▁avoir	-8616
abama	-8617
▁rib	-8618
bow	-8619
▁founder	-8620
▁regiment	-8621
▁Samuel	-8622
▁protest	-8623
▁Legisl	-8624
▁Have	-8625
ints	-8626
▁difficulties	-8627
▁driver	-8628
▁Last	-8629
▁Nob	-8630
▁enorm	-8631
var	-8632
▁dignity	-8633
▁contempt	-8634
vals	-8635
odox	-8636
GGGG	-8637
ustomed	-8638
▁multiple	-8639
▁stepped	-8640
▁Mike	-8641
▁industrial	-8642
▁wir	-8643
▁poison	-8644
leton	-8645
▁fifth	-8646
allel	-8647
▁amaz	-8648
▁accomp	-8649
▁chest	-8650
▁Douglas	-8651
▁trip	-8652
▁Helen	-8653
▁nodd	-8654
▁42	-8655
▁intent	-8656
apers	-8657
▁Pitt	-8658
uta	-8659
▁179	-8660
▁bos	-8661
▁wrest	-8662
▁notre	-8663
▁passes	-8664
ensions	-8665
▁horn	-8666
▁rapp	-8667
▁receiving	-8668
rac	-8669
▁ti	-8670
▁sees	-8671
▁immense	-8672
▁extensive	-8673
SP	-8674
▁cars	-8675
▁MA	-8676
▁spend	-8677
IST	-8678
▁piano	-8679
▁deliber	-8680
▁fulf	-8681
osis	-8682
atherine	-8683
▁listed	-8684
▁alongside	-8685
▁MP	-8686
CAAAA	-8687
▁ot	-8688
World	-8689
▁enjoyed	-8690
▁retain	-8691
Har	-8692
▁inse	-8693
▁communities	-8694
▁thinks	-8695
▁sovereign	-8696
▁Frederick	-8697
▁Brad	-8698
▁Six	-8699
bted	-8700
▁ihr	-8701
▁Eth	-8702
OV	-8703
:199	-8704
3-	-8705
▁Alb	-8706
▁normal	-8707
▁fatal	-8708
▁everybody	-8709
▁explanation	-8710
avid	-8711
▁Ta	-8712
▁Therefore	-8713
ewise	-8714
▁CON	-8715
▁committee	-8716
▁interpret	-8717
▁wound	-8718
▁Indiana	-8719
atta	-8720
▁recol	-8721
▁1:	-8722
="3"	-8723
▁museum	-8724
▁everywhere	-8725
▁resources	-8726
▁charged	-8727
ipping	-8728
▁punishment	-8729
alm	-8730
▁contre	-8731
▁acknowled	-8732
▁breaking	-8733
▁auth	-8734
▁turns	-8735
τι	-8736
▁Maur	-8737
ienne	-8738
▁BBC	-8739
▁Wy	-8740
▁formal	-8741
emetery	-8742
▁restrict	-8743
▁loyal	-8744
▁cig	-8745
▁partner	-8746
ping	-8747
▁striking	-8748
▁charm	-8749
chestra	-8750
5-	-8751
imming	-8752
▁yesterday	-8753
▁Mississippi	-8754
avait	-8755
▁Any	-8756
uclear	-8757
▁equipment	-8758
agues	-8759
▁hell	-8760
4/	-8761
▁resolution	-8762
formed	-8763
pit	-8764
xty	-8765
eni	-8766
tis	-8767
▁thanks	-8768
],	-8769
▁remov	-8770
;--	-8771
▁Dur	-8772
▁orn	-8773
▁Several	-8774
▁thrust	-8775
▁nobody	-8776
▁billion	-8777
Ant	-8778
▁verb	-8779
ospel	-8780
▁asleep	-8781
anton	-8782
▁wishes	-8783
▁fo	-8784
▁abst	-8785
▁grounds	-8786
▁Barn	-8787
▁medal	-8788
▁phenomen	-8789
▁×	-8790
▁presidential	-8791
▁continu	-8792
▁natives	-8793
power	-8794
▁souls	-8795
▁discussion	-8796
dy	-8797
atis	-8798
lessly	-8799
▁wij	-8800
throp	-8801
▁guer	-8802
▁wooden	-8803
▁nog	-8804
▁stuff	-8805
▁ceremony	-8806
▁executive	-8807
▁12.	-8808
12.	-8809
▁Author	-8810
ansion	-8811
▁pushed	-8812
eps	-8813
▁nam	-8814
▁stup	-8815
▁Indeed	-8816
▁contempl	-8817
ternet	-8818
▁alarm	-8819
▁maxim	-8820
onents	-8821
▁pod	-8822
▁execution	-8823
▁Gran	-8824
▁purchased	-8825
▁dynasty	-8826
▁effective	-8827
▁jealous	-8828
▁sooner	-8829
▁Front	-8830
▁prefer	-8831
▁finish	-8832
▁gently	-8833
▁το	-8834
▁perfor	-8835
▁Dou	-8836
▁fame	-8837
▁situated	-8838
▁experienced	-8839
▁restored	-8840
▁Friend	-8841
▁ecc	-8842
▁relative	-8843
▁diplom	-8844
▁Ra	-8845
▁Mutta	-8846
▁Ich	-8847
▁valign	-8848
-+	-8849
rons	-8850
▁|18	-8851
rin	-8852
usta	-8853
▁dil	-8854
jet	-8855
ials	-8856
}{	-8857
='	-8858
▁ook	-8859
idi	-8860
▁Norway	-8861
▁NHL	-8862
ateur	-8863
addle	-8864
plex	-8865
▁someone	-8866
wealth	-8867
▁seed	-8868
San	-8869
▁attacks	-8870
bey	-8871
▁rum	-8872
▁1987	-8873
▁Prim	-8874
▁sprang	-8875
▁compelled	-8876
▁summ	-8877
▁16,	-8878
agle	-8879
▁Jerusalem	-8880
▁absolute	-8881
▁Billy	-8882
TGTA	-8883
Her	-8884
▁computer	-8885
hum	-8886
▁painting	-8887
inations	-8888
▁VIII	-8889
▁occasions	-8890
▁falls	-8891
▁sufficiently	-8892
▁warri	-8893
▁contest	-8894
▁indul	-8895
,[	-8896
▁Ut	-8897
▁Books	-8898
▁Napoleon	-8899
▁1984	-8900
▁foolish	-8901
this	-8902
▁Information	-8903
▁intellectual	-8904
▁pier	-8905
▁divisions	-8906
▁recording	-8907
▁caps	-8908
pdf	-8909
▁|+	-8910
aille	-8911
dem	-8912
▁2006,	-8913
mad	-8914
iency	-8915
▁Holland	-8916
▁nun	-8917
▁regarding	-8918
offset	-8919
▁ainsi	-8920
GATA	-8921
▁Buck	-8922
▁lights	-8923
▁Tod	-8924
OH	-8925
▁programs	-8926
IX	-8927
▁déc	-8928
▁reaching	-8929
Count	-8930
▁font	-8931
▁riding	-8932
▁cet	-8933
▁2010,	-8934
▁lawyer	-8935
▁atmosphere	-8936
▁introduction	-8937
▁mix	-8938
Med	-8939
idän	-8940
▁wedd	-8941
▁geb	-8942
▁vice	-8943
chers	-8944
▁Miller	-8945
▁throat	-8946
▁bull	-8947
▁werden	-8948
▁operating	-8949
King	-8950
▁titles	-8951
ât	-8952
image	-8953
oused	-8954
▁rivers	-8955
150	-8956
▁countenance	-8957
ORD	-8958
▁Monsieur	-8959
▁residents	-8960
▁Square	-8961
▁uncertain	-8962
▁Argent	-8963
▁Anna	-8964
▁yeux	-8965
gi	-8966
▁ollut	-8967
▁convinced	-8968
Ang	-8969
ommen	-8970
zes	-8971
▁Sign	-8972
▁sets	-8973
▁Development	-8974
▁Maryland	-8975
▁refuge	-8976
▁precious	-8977
▁translation	-8978
▁secured	-8979
▁AL	-8980
▁await	-8981
▁Hamp	-8982
▁flu	-8983
akespeare	-8984
▁arrangement	-8985
▁Colorado	-8986
▁innocent	-8987
album	-8988
iveness	-8989
▁belonged	-8990
▁portrait	-8991
low	-8992
hn	-8993
▁poll	-8994
▁Christians	-8995
▁acted	-8996
▁Domin	-8997
ruits	-8998
▁ease	-8999
itated	-9000
▁ster	-9001
held	-9002
▁solution	-9003
▁vul	-9004
▁Commun	-9005
▁chiefly	-9006
▁meg	-9007
BER	-9008
▁subsequent	-9009
rot	-9010
▁Despite	-9011
▁clergy	-9012
▁voir	-9013
▁advoc	-9014
▁jusqu	-9015
▁interrupted	-9016
ulle	-9017
▁dismiss	-9018
▁bishop	-9019
abri	-9020
elli	-9021
Que	-9022
▁Police	-9023
ös	-9024
▁Mun	-9025
▁Ak	-9026
tem	-9027
▁Pur	-9028
ivan	-9029
▁pays	-9030
▁iii	-9031
▁Iran	-9032
▁AT	-9033
▁probable	-9034
ultan	-9035
▁Aud	-9036
Black	-9037
▁emphas	-9038
▁distinction	-9039
aws	-9040
▁guests	-9041
▁verse	-9042
▁corrupt	-9043
uß	-9044
▁mystery	-9045
▁awful	-9046
▁20,	-9047
emb	-9048
▁Bah	-9049
iß	-9050
mother	-9051
▁accomplished	-9052
gra	-9053
▁assigned	-9054
block	-9055
scape	-9056
▁Live	-9057
▁fee	-9058
▁alter	-9059
two	-9060
▁predecess	-9061
▁Administ	-9062
omot	-9063
▁specim	-9064
football	-9065
urent	-9066
olen	-9067
▁properly	-9068
ults	-9069
▁Pierre	-9070
▁workers	-9071
érit	-9072
▁|5	-9073
▁bou	-9074
▁gif	-9075
established	-9076
bst	-9077
▁Gordon	-9078
▁1986	-9079
▁driving	-9080
▁„	-9081
▁Space	-9082
rete	-9083
▁rushed	-9084
▁reckon	-9085
agers	-9086
othy	-9087
▁acquaintance	-9088
▁accounts	-9089
▁Naz	-9090
▁counsel	-9091
geon	-9092
▁debt	-9093
▁ges	-9094
▁mourn	-9095
▁regret	-9096
▁Ward	-9097
▁Sn	-9098
▁Philippines	-9099
▁headquarters	-9100
fare	-9101
▁étaient	-9102
▁Portugal	-9103
▁bree	-9104
bishop	-9105
rific	-9106
▁grie	-9107
▁analysis	-9108
▁shouted	-9109
irds	-9110
auf	-9111
▁Lam	-9112
▁Alice	-9113
▁leaf	-9114
_:	-9115
oco	-9116
apore	-9117
▁homes	-9118
▁Kat	-9119
▁publication	-9120
opher	-9121
▁defined	-9122
▁Mort	-9123
iy	-9124
▁Media	-9125
▁rust	-9126
▁Hans	-9127
ouver	-9128
▁Korea	-9129
▁select	-9130
▁Lanc	-9131
Br	-9132
▁einer	-9133
▁tribe	-9134
polit	-9135
▁Story	-9136
bler	-9137
▁divers	-9138
▁Obs	-9139
▁17,	-9140
RS	-9141
uscript	-9142
▁2007,	-9143
▁doch	-9144
▁movie	-9145
▁exposed	-9146
▁Howard	-9147
▁Bos	-9148
▁Place	-9149
▁Queens	-9150
ál	-9151
ifer	-9152
▁Age	-9153
▁chart	-9154
▁mainten	-9155
ogs	-9156
▁organized	-9157
ensch	-9158
▁Vers	-9159
▁sitä	-9160
▁newly	-9161
▁Alexand	-9162
▁currently	-9163
▁Prize	-9164
▁weary	-9165
▁Kl	-9166
▁losing	-9167
regon	-9168
▁injury	-9169
anes	-9170
▁géné	-9171
AB	-9172
▁championship	-9173
inding	-9174
▁meal	-9175
ssä	-9176
▁wenn	-9177
▁Ern	-9178
▁provides	-9179
▁cott	-9180
▁Episode	-9181
▁alc	-9182
▁Crit	-9183
▁landing	-9184
magazine	-9185
▁Herr	-9186
▁Command	-9187
White	-9188
lichen	-9189
▁bei	-9190
▁subt	-9191
▁luck	-9192
▁votes	-9193
▁instantly	-9194
▁Aber	-9195
▁gross	-9196
▁scored	-9197
Nor	-9198
raine	-9199
atin	-9200
▁criminal	-9201
▁empire	-9202
Sec	-9203
▁daar	-9204
▁fant	-9205
▁jew	-9206
EFA	-9207
▁clever	-9208
thodox	-9209
▁observation	-9210
cticut	-9211
................	-9212
▁fest	-9213
▁kat	-9214
▁knight	-9215
▁leads	-9216
Films	-9217
Gu	-9218
:1	-9219
zi	-9220
▁anxiety	-9221
▁pipe	-9222
▁monde	-9223
"--	-9224
▁characteristic	-9225
▁80	-9226
encia	-9227
▁Palace	-9228
▁feed	-9229
——	-9230
▁Alabama	-9231
iable	-9232
TE	-9233
igation	-9234
▁jot	-9235
lease	-9236
start	-9237
▁convey	-9238
▁existed	-9239
▁180	-9240
language	-9241
▁Baseball	-9242
▁functions	-9243
▁engineer	-9244
▁mand	-9245
amental	-9246
▁traffic	-9247
▁transferred	-9248
▁oder	-9249
▁emperor	-9250
alia	-9251
Canadian	-9252
▁hee	-9253
▁damage	-9254
▁Memorial	-9255
aration	-9256
▁né	-9257
▁Stock	-9258
ublin	-9259
hom	-9260
▁Balt	-9261
▁qualities	-9262
";	-9263
▁error	-9264
▁patron	-9265
▁abol	-9266
▁|0	-9267
▁perceived	-9268
ikk	-9269
:3	-9270
▁habits	-9271
▁legend	-9272
actor	-9273
▁phrase	-9274
▁Works	-9275
ussian	-9276
Was	-9277
▁offices	-9278
▁einem	-9279
▁él	-9280
>[	-9281
▁aunt	-9282
▁mood	-9283
▁Liberal	-9284
▁Allen	-9285
▁Kings	-9286
erg	-9287
Are	-9288
▁solo	-9289
▁Disc	-9290
▁officials	-9291
▁seldom	-9292
▁autre	-9293
▁Univers	-9294
sez	-9295
▁burned	-9296
fulness	-9297
▁48	-9298
GGTT	-9299
▁chez	-9300
▁Burg	-9301
iast	-9302
▁gli	-9303
▁Stat	-9304
iate	-9305
PS	-9306
▁hunting	-9307
▁Admir	-9308
▁technology	-9309
▁adapt	-9310
ña	-9311
▁mild	-9312
▁swept	-9313
amation	-9314
▁tournament	-9315
ainen	-9316
▁consec	-9317
▁Comics	-9318
upon	-9319
▁partners	-9320
rai	-9321
▁Steve	-9322
▁primarily	-9323
▁consisted	-9324
Europe	-9325
▁paused	-9326
First	-9327
▁25,	-9328
Star	-9329
▁substance	-9330
osure	-9331
▁Motor	-9332
▁2008,	-9333
rets	-9334
▁rhy	-9335
▁|&	-9336
vas	-9337
▁millions	-9338
||0||	-9339
▁mysterious	-9340
▁SC	-9341
▁anybody	-9342
▁roi	-9343
▁behold	-9344
▁slavery	-9345
▁Germans	-9346
CFC	-9347
▁Modern	-9348
▁admiration	-9349
▁creatures	-9350
▁entering	-9351
▁PR	-9352
uda	-9353
▁Ye	-9354
▁jou	-9355
▁sout	-9356
inals	-9357
▁kindness	-9358
▁ghost	-9359
▁initially	-9360
▁Grace	-9361
▁Liter	-9362
elson	-9363
▁Dig	-9364
ophy	-9365
allenge	-9366
itzerland	-9367
▁housing	-9368
▁Railroad	-9369
▁offers	-9370
▁uncons	-9371
resses	-9372
▁consciousness	-9373
isten	-9374
▁Treat	-9375
▁Territ	-9376
▁contemporary	-9377
▁ay	-9378
▁mayor	-9379
▁strateg	-9380
aths	-9381
="4	-9382
▁dimin	-9383
▁Lib	-9384
craft	-9385
▁ga	-9386
▁daughters	-9387
wall	-9388
▁quarters	-9389
▁treaty	-9390
▁Stra	-9391
▁oldest	-9392
▁Henri	-9393
acco	-9394
▁polic	-9395
même	-9396
▁plot	-9397
▁recovered	-9398
▁capit	-9399
idity	-9400
▁novels	-9401
▁adopt	-9402
GGCA	-9403
▁lon	-9404
▁concert	-9405
▁conj	-9406
▁Fame	-9407
▁priests	-9408
atures	-9409
ilia	-9410
mente	-9411
▁dict	-9412
isms	-9413
▁Cook	-9414
▁Relig	-9415
▁cris	-9416
▁substant	-9417
▁cavalry	-9418
▁penet	-9419
armed	-9420
▁provisions	-9421
ono	-9422
James	-9423
ikä	-9424
oire	-9425
▁models	-9426
Democratic	-9427
▁examples	-9428
apted	-9429
▁outer	-9430
▁seule	-9431
▁sexual	-9432
▁instruments	-9433
Here	-9434
▁internal	-9435
.—	-9436
DD	-9437
▁13.	-9438
▁|0.	-9439
raq	-9440
▁2009,	-9441
▁ridic	-9442
▁py	-9443
urre	-9444
▁Hu	-9445
resident	-9446
bus	-9447
aton	-9448
▁Bol	-9449
oping	-9450
▁Whit	-9451
▁crack	-9452
▁eleven	-9453
ensä	-9454
▁arrested	-9455
Cent	-9456
▁accustomed	-9457
▁jump	-9458
▁Tony	-9459
dam	-9460
ders	-9461
▁Wol	-9462
▁shock	-9463
▁Lang	-9464
▁comfortable	-9465
▁profit	-9466
▁aged	-9467
=6	-9468
▁Portuguese	-9469
▁ward	-9470
▁stairs	-9471
▁Het	-9472
usk	-9473
▁autres	-9474
CCTA	-9475
▁FOR	-9476
▁Historic	-9477
▁educated	-9478
▁describe	-9479
▁jeune	-9480
▁ly	-9481
▁inch	-9482
▁Director	-9483
DP	-9484
▁Community	-9485
▁Lawrence	-9486
▁43	-9487
▁cells	-9488
▁forming	-9489
▁vary	-9490
▁anyone	-9491
▁princes	-9492
▁confirmed	-9493
▁Cra	-9494
▁mie	-9495
▁wire	-9496
▁fel	-9497
▁neighborhood	-9498
▁observe	-9499
▁Alfred	-9500
▁emot	-9501
▁Shakespeare	-9502
▁opinions	-9503
▁baseball	-9504
▁Review	-9505
itate	-9506
▁fert	-9507
▁dreams	-9508
▁sixty	-9509
ρι	-9510
rans	-9511
▁LA	-9512
NE	-9513
lia	-9514
▁Anderson	-9515
▁Tok	-9516
orable	-9517
2]	-9518
bot	-9519
Roy	-9520
GT	-9521
▁string	-9522
▁Adams	-9523
▁temp	-9524
▁nervous	-9525
▁marks	-9526
▁xx	-9527
asted	-9528
▁Ve	-9529
Art	-9530
▁steep	-9531
----"	-9532
▁Meth	-9533
▁70	-9534
▁shelter	-9535
Roman	-9536
acer	-9537
hess	-9538
stairs	-9539
▁NFL	-9540
▁lamp	-9541
▁myth	-9542
▁structures	-9543
▁stayed	-9544
▁connect	-9545
uced	-9546
▁Nick	-9547
▁glorious	-9548
illo	-9549
▁institution	-9550
▁Gray	-9551
▁Ban	-9552
▁somewhere	-9553
?」	-9554
▁Cru	-9555
▁authors	-9556
▁unusual	-9557
▁equival	-9558
vation	-9559
▁courts	-9560
▁warning	-9561
▁affili	-9562
David	-9563
▁images	-9564
▁Plan	-9565
DST	-9566
▁inquired	-9567
▁awards	-9568
▁requires	-9569
▁painter	-9570
▁opera	-9571
▁toler	-9572
arth	-9573
▁belonging	-9574
Me	-9575
▁humanity	-9576
▁threatened	-9577
▁fierce	-9578
▁likewise	-9579
>(?	-9580
▁feared	-9581
died	-9582
▁brid	-9583
▁Tam	-9584
▁genre	-9585
▁crossing	-9586
▁donn	-9587
Jun	-9588
▁elsewhere	-9589
▁matches	-9590
Pop	-9591
▁rifle	-9592
▁Anthony	-9593
cester	-9594
▁Mexican	-9595
▁Ext	-9596
▁Ped	-9597
▁purchase	-9598
▁fanc	-9599
has	-9600
pent	-9601
▁Mann	-9602
gate	-9603
▁shield	-9604
ands	-9605
▁composer	-9606
▁estimated	-9607
▁bones	-9608
ranch	-9609
▁profound	-9610
hä	-9611
made	-9612
▁Thy	-9613
▁Conc	-9614
▁utterly	-9615
><	-9616
George	-9617
▁dedicated	-9618
life	-9619
▁|6	-9620
onial	-9621
inted	-9622
▁neighb	-9623
University	-9624
▁passengers	-9625
▁invasion	-9626
▁Bang	-9627
▁provinces	-9628
▁nest	-9629
▁Third	-9630
▁Network	-9631
▁personnel	-9632
agh	-9633
PW	-9634
▁hogy	-9635
lad	-9636
▁1985	-9637
▁graph	-9638
▁Vi	-9639
▁Take	-9640
rizona	-9641
▁eternal	-9642
Men	-9643
▁sind	-9644
▁approaching	-9645
▁(15	-9646
unct	-9647
▁anticip	-9648
rak	-9649
autre	-9650
▁imprison	-9651
Miss	-9652
▁medicine	-9653
erves	-9654
▁survey	-9655
Sep	-9656
▁Foreign	-9657
▁extract	-9658
▁scattered	-9659
▁fan	-9660
DE	-9661
ulse	-9662
▁zou	-9663
▁ard	-9664
oting	-9665
3]	-9666
GACA	-9667
▁script	-9668
icer	-9669
▁Peace	-9670
fty	-9671
▁Ot	-9672
uled	-9673
▁21,	-9674
rice	-9675
▁19,	-9676
▁vs	-9677
▁tables	-9678
oux	-9679
▁trois	-9680
▁191	-9681
▁gang	-9682
oric	-9683
▁grav	-9684
itely	-9685
▁stiff	-9686
fam	-9687
▁trains	-9688
▁wal	-9689
▁trace	-9690
▁recognition	-9691
▁external	-9692
>(?)</	-9693
▁sigh	-9694
▁knife	-9695
imal	-9696
▁nick	-9697
–17	-9698
▁BO	-9699
▁premi	-9700
▁178	-9701
▁ans	-9702
▁49	-9703
gal	-9704
tery	-9705
▁seeking	-9706
▁inclined	-9707
▁Viet	-9708
▁Sac	-9709
^{	-9710
▁uncom	-9711
istle	-9712
▁Native	-9713
▁offering	-9714
▁photograph	-9715
geant	-9716
▁assert	-9717
▁continues	-9718
▁missing	-9719
▁spark	-9720
▁softly	-9721
▁jum	-9722
▁historian	-9723
▁1983	-9724
▁flew	-9725
ummary	-9726
▁weakness	-9727
cient	-9728
▁hommes	-9729
▁Page	-9730
▁frightened	-9731
oen	-9732
▁curiosity	-9733
▁manners	-9734
▁rép	-9735
▁fishing	-9736
▁municipality	-9737
.]</	-9738
▁2005,	-9739
▁és	-9740
▁NE	-9741
aping	-9742
▁Moon	-9743
oples	-9744
▁Next	-9745
▁avo	-9746
ographical	-9747
rived	-9748
▁22,	-9749
Your	-9750
▁Silver	-9751
▁Meanwhile	-9752
▁1979	-9753
▁permission	-9754
▁listening	-9755
▁Hugh	-9756
▁blessed	-9757
▁Dal	-9758
going	-9759
▁approved	-9760
▁έ	-9761
▁handed	-9762
▁Arn	-9763
▁rage	-9764
▁appearances	-9765
▁tunn	-9766
▁shared	-9767
▁remove	-9768
:"	-9769
▁Connecticut	-9770
GGTG	-9771
▁candidate	-9772
▁resulted	-9773
▁landed	-9774
▁facilities	-9775
▁stim	-9776
lle	-9777
▁Ins	-9778
eline	-9779
▁split	-9780
Cal	-9781
▁Ein	-9782
▁ép	-9783
inated	-9784
▁	-9785
e	-9786
t	-9787
a	-9788
o	-9789
n	-9790
i	-9791
r	-9792
s	-9793
h	-9794
l	-9795
d	-9796
u	-9797
c	-9798
m	-9799
f	-9800
g	-9801
p	-9802
,	-9803
w	-9804
y	-9805
b	-9806
.	-9807
v	-9808
k	-9809
|	-9810
T	-9811
A	-9812
C	-9813
-	-9814
1	-9815
I	-9816
S	-9817
"	-9818
0	-9819
G	-9820
2	-9821
N	-9822
M	-9823
'	-9824
B	-9825
9	-9826
H	-9827
P	-9828
E	-9829
R	-9830
x	-9831
L	-9832
:	-9833
F	-9834
D	-9835
;	-9836
)	-9837
(	-9838
8	-9839
_	-9840
W	-9841
j	-9842
=	-9843
3	-9844
5	-9845
q	-9846
4	-9847
O	-9848
z	-9849
6	-9850
*	-9851
7	-9852
/	-9853
J	-9854
é	-9855
!	-9856
ä	-9857
K	-9858
U	-9859
V	-9860
?	-9861
Y	-9862
–	-9863
’	-9864
“	-9865
”	-9866
}	-9867
[	-9868
]	-9869
#	-9870
&	-9871
à	-9872
>	-9873
<	-9874
%	-9875
Q	-9876
—	-9877
è	-9878
á	-9879
X	-9880
Z	-9881
ö	-9882
α	-9883
ü	-9884
。	-9885
ο	-9886
ν	-9887
τ	-9888
{	-9889
\	-9890
ó	-9891
ê	-9892
ε	-9893
í	-9894
ι	-9895
+	-9896
»	-9897
ß	-9898
ç	-9899
$	-9900
ρ	-9901
ς	-9902
«	-9903
σ	-9904
‘	-9905
κ	-9906
π	-9907
不	-9908
υ	-9909
μ	-9910
â	-9911
η	-9912
λ	-9913
之	-9914
一	-9915
ã	-9916
æ	-9917
ô	-9918
å	-9919
ί	-9920
人	-9921
ά	-9922
ñ	-9923
了	-9924
ù	-9925
ό	-9926
î	-9927
「	-9928
」	-9929
道	-9930
έ	-9931
─	-9932
是	-9933
δ	-9934
有	-9935
ω	-9936
©	-9937
的	-9938
ú	-9939
^	-9940
û	-9941
É	-9942
來	-9943
γ	-9944
~	-9945
ò	-9946
子	-9947
也	-9948
以	-9949
、	-9950
ύ	-9951
θ	-9952
ή	-9953
ō	-9954
大	-9955
ő	-9956
我	-9957
ā	-9958
他	-9959
為	-9960
而	-9961
得	-9962
χ	-9963
上	-9964
說	-9965
ø	-9966
在	-9967
其	-9968
а	-9969
下	-9970
`	-9971
去	-9972
φ	-9973
見	-9974
°	-9975
個	-9976
ë	-9977
中	-9978
о	-9979
這	-9980
此	-9981
ώ	-9982
£	-9983
者	-9984
ì	-9985
你	-9986
日	-9987
и	-9988
×	-9989
曰	-9990
е	-9991
出	-9992
二	-9993
β	-9994
家	-9995
又	-9996
無	-9997
知	-9998
天	-9999
ï	-10000
三	-10001
事	-10002
如	-10003
》	-10004
《	-10005
到	-10006
十	-10007
那	-10008
·	-10009
ł	-10010
自	-10011
ć	-10012
│	-10013
生	-10014
可	-10015
š	-10016
時	-10017
公	-10018
小	-10019
將	-10020
於	-10021
¡	-10022
王	-10023
何	-10024
н	-10025
所	-10026
著	-10027
與	-10028
¿	-10029
年	-10030
要	-10031
œ	-10032
就	-10033
−	-10034
好	-10035
р	-10036
心	-10037
後	-10038
„	-10039
老	-10040
行	-10041
只	-10042
с	-10043
ð	-10044
ī	-10045
然	-10046
今	-10047
前	-10048
便	-10049
õ	-10050
т	-10051
י	-10052
相	-10053
看	-10054
言	-10055
兩	-10056
ו	-10057
ξ	-10058
回	-10059
ū	-10060
至	-10061
太	-10062
過	-10063
門	-10064
明	-10065
起	-10066
山	-10067
官	-10068
в	-10069
č	-10070
夫	-10071
已	-10072
Α	-10073
к	-10074
四	-10075
§	-10076
頭	-10077
正	-10078
⁄	-10079
ה	-10080
ζ	-10081
五	-10082
多	-10083
л	-10084
Æ	-10085
能	-10086
使	-10087
當	-10088
則	-10089
同	-10090
地	-10091
面	-10092
書	-10093
問	-10094
́	-10095
先	-10096
方	-10097
都	-10098
還	-10099
裡	-10100
ē	-10101
身	-10102
故	-10103
月	-10104
名	-10105
若	-10106
þ	-10107
Á	-10108
文	-10109
聽	-10110
等	-10111
馬	-10112
進	-10113
兒	-10114
未	-10115
州	-10116
用	-10117
兵	-10118
@	-10119
把	-10120
外	-10121
―	-10122
ı	-10123
軍	-10124
分	-10125
安	-10126
國	-10127
•	-10128
從	-10129
成	-10130
西	-10131
入	-10132
女	-10133
東	-10134
Κ	-10135
金	-10136
叫	-10137
Ä	-10138
ל	-10139
死	-10140
們	-10141
手	-10142
因	-10143
意	-10144
א	-10145
д	-10146
主	-10147
百	-10148
亦	-10149
君	-10150
走	-10151
→	-10152
À	-10153
南	-10154
乃	-10155
必	-10156
命	-10157
Ε	-10158
作	-10159
ă	-10160
†	-10161
處	-10162
Σ	-10163
即	-10164
м	-10165
్	-10166
ి	-10167
È	-10168
水	-10169
臣	-10170
Τ	-10171
士	-10172
才	-10173
Ö	-10174
ĝ	-10175
內	-10176
長	-10177
請	-10178
本	-10179
麼	-10180
聲	-10181
非	-10182
且	-10183
Ο	-10184
話	-10185
令	-10186
甚	-10187
眾	-10188
ు	-10189
Ü	-10190
卻	-10191
皆	-10192
做	-10193
	-10194
矣	-10195
白	-10196
打	-10197
у	-10198
爺	-10199
張	-10200
ר	-10201
定	-10202
花	-10203
ĉ	-10204
聞	-10205
親	-10206
ת	-10207
ŭ	-10208
及	-10209
高	-10210
想	-10211
開	-10212
路	-10213
′	-10214
న	-10215
李	-10216
ž	-10217
ב	-10218
再	-10219
平	-10220
城	-10221
口	-10222
玉	-10223
六	-10224
Π	-10225
師	-10226
笑	-10227
ę	-10228
萬	-10229
法	-10230
מ	-10231
少	-10232
數	-10233
ా	-10234
弟	-10235
世	-10236
沒	-10237
ś	-10238
幾	-10239
間	-10240
情	-10241
往	-10242
會	-10243
父	-10244
欲	-10245
里	-10246
坐	-10247
真	-10248
八	-10249
氣	-10250
立	-10251
酒	-10252
神	-10253
些	-10254
風	-10255
ń	-10256
ש	-10257
取	-10258
住	-10259
千	-10260
和	-10261
Μ	-10262
學	-10263
罷	-10264
朝	-10265
民	-10266
府	-10267
氏	-10268
位	-10269
ș	-10270
兄	-10271
北	-10272
江	-10273
元	-10274
謂	-10275
難	-10276
雲	-10277
黃	-10278
應	-10279
各	-10280
對	-10281
п	-10282
七	-10283
錢	-10284
字	-10285
德	-10286
石	-10287
雖	-10288
于	-10289
ψ	-10290
諸	-10291
遂	-10292
娘	-10293
原	-10294
發	-10295
姐	-10296
信	-10297
宗	-10298
禮	-10299
の	-10300
向	-10301
邊	-10302
ş	-10303
既	-10304
ا	-10305
九	-10306
敢	-10307
ą	-10308
母	-10309
Š	-10310
尚	-10311
通	-10312
房	-10313
武	-10314
吾	-10315
ం	-10316
守	-10317
第	-10318
喜	-10319
理	-10320
重	-10321
夜	-10322
г	-10323
教	-10324
Δ	-10325
縣	-10326
望	-10327
送	-10328
連	-10329
я	-10330
龍	-10331
帝	-10332
常	-10333
實	-10334
ű	-10335
歸	-10336
い	-10337
齊	-10338
寶	-10339
物	-10340
別	-10341
క	-10342
司	-10343
殺	-10344
合	-10345
被	-10346
‐	-10347
盡	-10348
光	-10349
經	-10350
詩	-10351
Ι	-10352
ý	-10353
吃	-10354
求	-10355
怎	-10356
思	-10357
直	-10358
己	-10359
乎	-10360
ע	-10361
נ	-10362
	-10363
報	-10364
早	-10365
放	-10366
た	-10367
ర	-10368
許	-10369
但	-10370
春	-10371
並	-10372
陽	-10373
し	-10374
半	-10375
й	-10376
з	-10377
衣	-10378
婦	-10379
動	-10380
б	-10381
清	-10382
帶	-10383
義	-10384
首	-10385
次	-10386
ŝ	-10387
Ç	-10388
餘	-10389
ə	-10390
或	-10391
差	-10392
待	-10393
拿	-10394
足	-10395
居	-10396
海	-10397
ř	-10398
倒	-10399
新	-10400
林	-10401
周	-10402
傳	-10403
色	-10404
香	-10405
ż	-10406
拜	-10407
Ó	-10408
善	-10409
受	-10410
京	-10411
ల	-10412
堂	-10413
告	-10414
計	-10415
忙	-10416
ě	-10417
隨	-10418
Ν	-10419
解	-10420
』	-10421
復	-10422
銀	-10423
史	-10424
古	-10425
功	-10426
『	-10427
力	-10428
曾	-10429
點	-10430
郎	-10431
卷	-10432
侯	-10433
莫	-10434
興	-10435
遠	-10436
領	-10437
初	-10438
舉	-10439
河	-10440
樂	-10441
忽	-10442
¶	-10443
流	-10444
賢	-10445
か	-10446
Λ	-10447
Η	-10448
客	-10449
Í	-10450
施	-10451
陳	-10452
ם	-10453
更	-10454
關	-10455
青	-10456
త	-10457
姓	-10458
歲	-10459
左	-10460
飛	-10461
全	-10462
服	-10463
€	-10464
急	-10465
漢	-10466
轉	-10467
裏	-10468
交	-10469
留	-10470
孫	-10471
כ	-10472
Å	-10473
語	-10474
樣	-10475
な	-10476
果	-10477
Ō	-10478
ד	-10479
云	-10480
食	-10481
部	-10482
と	-10483
罪	-10484
劉	-10485
管	-10486
卿	-10487
治	-10488
ğ	-10489
聖	-10490
う	-10491
失	-10492
眼	-10493
ח	-10494
右	-10495
秋	-10496
ч	-10497
火	-10498
賊	-10499
觀	-10500
వ	-10501
豈	-10502
奉	-10503
船	-10504
に	-10505
接	-10506
宮	-10507
收	-10508
は	-10509
節	-10510
田	-10511
后	-10512
目	-10513
誰	-10514
由	-10515
ప	-10516
勝	-10517
利	-10518
紅	-10519
論	-10520
ь	-10521
て	-10522
皇	-10523
病	-10524
空	-10525
耳	-10526
給	-10527
覺	-10528
ద	-10529
議	-10530
度	-10531
制	-10532
ే	-10533
近	-10534
深	-10535
仙	-10536
吳	-10537
ل	-10538
久	-10539
亂	-10540
Ø	-10541
性	-10542
封	-10543
貴	-10544
愛	-10545
戰	-10546
మ	-10547
竟	-10548
祖	-10549
稱	-10550
哥	-10551
恩	-10552
落	-10553
尋	-10554
焉	-10555
ʼ	-10556
Γ	-10557
謝	-10558
奏	-10559
任	-10560
備	-10561
Ρ	-10562
句	-10563
美	-10564
細	-10565
加	-10566
須	-10567
候	-10568
ы	-10569
恐	-10570
院	-10571
仁	-10572
反	-10573
總	-10574
答	-10575
趙	-10576
ん	-10577
呢	-10578
డ	-10579
容	-10580
怕	-10581
保	-10582
易	-10583
指	-10584
化	-10585
詔	-10586
秦	-10587
姑	-10588
遇	-10589
驚	-10590
肯	-10591
忠	-10592
Č	-10593
苦	-10594
చ	-10595
侍	-10596
惡	-10597
虎	-10598
鬼	-10599
快	-10600
引	-10601
木	-10602
始	-10603
終	-10604
妻	-10605
唐	-10606
止	-10607
提	-10608
殿	-10609
政	-10610
代	-10611
害	-10612
滿	-10613
С	-10614
宋	-10615
珠	-10616
似	-10617
俱	-10618
楊	-10619
舊	-10620
強	-10621
良	-10622
星	-10623
Ï	-10624
章	-10625
車	-10626
駅	-10627
凡	-10628
宜	-10629
商	-10630
伯	-10631
異	-10632
土	-10633
辭	-10634
改	-10635
ק	-10636
暗	-10637
致	-10638
步	-10639
Ž	-10640
פ	-10641
彼	-10642
樓	-10643
景	-10644
破	-10645
置	-10646
ἐ	-10647
退	-10648
志	-10649
絕	-10650
が	-10651
依	-10652
ʻ	-10653
變	-10654
廣	-10655
什	-10656
願	-10657
照	-10658
怪	-10659
英	-10660
草	-10661
刀	-10662
華	-10663
を	-10664
救	-10665
福	-10666
比	-10667
精	-10668
卒	-10669
輕	-10670
る	-10671
余	-10672
畢	-10673
每	-10674
幸	-10675
雙	-10676
疑	-10677
登	-10678
陰	-10679
刻	-10680
友	-10681
х	-10682
獨	-10683
晚	-10684
般	-10685
つ	-10686
惟	-10687
	-10688
奇	-10689
Β	-10690
ὶ	-10691
極	-10692
ر	-10693
鳳	-10694
台	-10695
ш	-10696
妹	-10697
念	-10698
ț	-10699
胡	-10700
స	-10701
孝	-10702
遣	-10703
修	-10704
婆	-10705
叔	-10706
飲	-10707
寫	-10708
雨	-10709
爾	-10710
僧	-10711
番	-10712
怒	-10713
猶	-10714
Ś	-10715
羅	-10716
記	-10717
尊	-10718
汝	-10719
Đ	-10720
表	-10721
吏	-10722
Ñ	-10723
賈	-10724
夢	-10725
ц	-10726
雄	-10727
哉	-10728
‖	-10729
件	-10730
算	-10731
鄉	-10732
員	-10733
Θ	-10734
約	-10735
ن	-10736
哭	-10737
曉	-10738
免	-10739
呼	-10740
	-10741
富	-10742
迎	-10743
く	-10744
散	-10745
م	-10746
素	-10747
亡	-10748
ట	-10749
除	-10750
楚	-10751
ἀ	-10752
號	-10753
省	-10754
息	-10755
ら	-10756
營	-10757
梁	-10758
飯	-10759
結	-10760
Ê	-10761
順	-10762
斷	-10763
ో	-10764
İ	-10765
賜	-10766
傷	-10767
私	-10768
ま	-10769
體	-10770
監	-10771
建	-10772
推	-10773
執	-10774
廟	-10775
視	-10776
蓋	-10777
郡	-10778
嘗	-10779
甲	-10780
య	-10781
承	-10782
犯	-10783
乘	-10784
宣	-10785
勢	-10786
降	-10787
	-10788
趕	-10789
離	-10790
も	-10791
丈	-10792
戶	-10793
朱	-10794
阿	-10795
完	-10796
臨	-10797
場	-10798
П	-10799
孔	-10800
複	-10801
招	-10802
越	-10803
●	-10804
顧	-10805
こ	-10806
ן	-10807
室	-10808
共	-10809
靈	-10810
徒	-10811
±	-10812
工	-10813
仍	-10814
و	-10815
識	-10816
ي	-10817
御	-10818
魏	-10819
丁	-10820
ṇ	-10821
Î	-10822
Φ	-10823
圖	-10824
跟	-10825
形	-10826
歡	-10827
密	-10828
屋	-10829
端	-10830
認	-10831
召	-10832
現	-10833
集	-10834
養	-10835
音	-10836
舍	-10837
條	-10838
買	-10839
賞	-10840
夏	-10841
茶	-10842
徐	-10843
ὸ	-10844
參	-10845
М	-10846
期	-10847
謀	-10848
ъ	-10849
權	-10850
ー	-10851
旨	-10852
К	-10853
店	-10854
莊	-10855
で	-10856
ж	-10857
Þ	-10858
懷	-10859
湖	-10860
ǣ	-10861
秀	-10862
男	-10863
設	-10864
き	-10865
講	-10866
ė	-10867
祇	-10868
伏	-10869
睡	-10870
消	-10871
敗	-10872
为	-10873
盜	-10874
А	-10875
奶	-10876
敬	-10877
益	-10878
đ	-10879
村	-10880
虛	-10881
休	-10882
微	-10883
藏	-10884
旁	-10885
గ	-10886
試	-10887
陣	-10888
感	-10889
┼	-10890
川	-10891
ḥ	-10892
追	-10893
寺	-10894
Υ	-10895
与	-10896
量	-10897
假	-10898
緣	-10899
あ	-10900
業	-10901
切	-10902
ṭ	-10903
持	-10904
該	-10905
腳	-10906
Ω	-10907
鐵	-10908
特	-10909
吉	-10910
奔	-10911
仲	-10912
刑	-10913
○	-10914
ȝ	-10915
霸	-10916
Ú	-10917
布	-10918
陵	-10919
班	-10920
職	-10921
升	-10922
奴	-10923
黑	-10924
禁	-10925
末	-10926
略	-10927
廷	-10928
勿	-10929
衛	-10930
讀	-10931
だ	-10932
ג	-10933
屬	-10934
Ł	-10935
撫	-10936
穿	-10937
曲	-10938
鼓	-10939
ז	-10940
替	-10941
厚	-10942
紀	-10943
藥	-10944
曹	-10945
佛	-10946
鎮	-10947
寒	-10948
攻	-10949
市	-10950
辦	-10951
宿	-10952
緊	-10953
צ	-10954
寧	-10955
存	-10956
園	-10957
固	-10958
最	-10959
り	-10960
案	-10961
Έ	-10962
〕	-10963
〔	-10964
Χ	-10965
包	-10966
ј	-10967
ĵ	-10968
況	-10969
投	-10970
列	-10971
鄭	-10972
校	-10973
В	-10974
造	-10975
兼	-10976
ン	-10977
壽	-10978
賣	-10979
樹	-10980
野	-10981
煙	-10982
і	-10983
畫	-10984
や	-10985
調	-10986
乾	-10987
閣	-10988
勸	-10989
韓	-10990
蘭	-10991
衙	-10992
蘇	-10993
牛	-10994
盛	-10995
永	-10996
ס	-10997
雪	-10998
敵	-10999
晉	-11000
儿	-11001
威	-11002
恨	-11003
遷	-11004
器	-11005
奈	-11006
妾	-11007
柳	-11008
童	-11009
靜	-11010
館	-11011
ῦ	-11012
ె	-11013
談	-11014
活	-11015
獻	-11016
咐	-11017
群	-11018
燈	-11019
席	-11020
延	-11021
隱	-11022
詞	-11023
ῖ	-11024
察	-11025
某	-11026
背	-11027
姊	-11028
單	-11029
洞	-11030
申	-11031
د	-11032
財	-11033
歌	-11034
ṣ	-11035
騎	-11036
料	-11037
玄	-11038
ب	-11039
紫	-11040
れ	-11041
務	-11042
題	-11043
ῶ	-11044
副	-11045
誠	-11046
弄	-11047
ĭ	-11048
臺	-11049
機	-11050
像	-11051
杯	-11052
筆	-11053
底	-11054
妙	-11055
運	-11056
燕	-11057
種	-11058
逃	-11059
さ	-11060
勞	-11061
考	-11062
狀	-11063
格	-11064
勇	-11065
按	-11066
盤	-11067
費	-11068
吩	-11069
魚	-11070
═	-11071
借	-11072
具	-11073
漸	-11074
爭	-11075
哪	-11076
丞	-11077
丹	-11078
っ	-11079
刺	-11080
ט	-11081
儀	-11082
蒙	-11083
‰	-11084
折	-11085
Н	-11086
昭	-11087
達	-11088
忘	-11089
疾	-11090
遍	-11091
討	-11092
讓	-11093
授	-11094
程	-11095
昌	-11096
来	-11097
象	-11098
ŏ	-11099
芳	-11100
訪	-11101
‡	-11102
梅	-11103
脫	-11104
類	-11105
ూ	-11106
智	-11107
慶	-11108
喝	-11109
禦	-11110
窮	-11111
決	-11112
す	-11113
希	-11114
Б	-11115
媽	-11116
అ	-11117
寨	-11118
賀	-11119
洋	-11120
慢	-11121
陛	-11122
	-11123
僕	-11124
า	-11125
ा	-11126
喚	-11127
濟	-11128
托	-11129
顏	-11130
亭	-11131
剛	-11132
血	-11133
役	-11134
圍	-11135
劍	-11136
松	-11137
Ĉ	-11138
巧	-11139
橫	-11140
Р	-11141
妖	-11142
孟	-11143
午	-11144
座	-11145
尉	-11146
干	-11147
Ş	-11148
Ý	-11149
負	-11150
巡	-11151
掌	-11152
載	-11153
疏	-11154
根	-11155
統	-11156
竹	-11157
遺	-11158
咱	-11159
補	-11160
Ã	-11161
祭	-11162
繼	-11163
臉	-11164
骨	-11165
ὐ	-11166
探	-11167
Ô	-11168
毛	-11169
沙	-11170
淚	-11171
孤	-11172
俗	-11173
閒	-11174
ˈ	-11175
Ό	-11176
淮	-11177
率	-11178
孩	-11179
索	-11180
罵	-11181
呂	-11182
Т	-11183
帳	-11184
揚	-11185
肉	-11186
尺	-11187
擊	-11188
遊	-11189
據	-11190
О	-11191
ź	-11192
牙	-11193
駕	-11194
昔	-11195
博	-11196
避	-11197
薄	-11198
防	-11199
皮	-11200
ὰ	-11201
喪	-11202
嚴	-11203
熱	-11204
游	-11205
陸	-11206
稟	-11207
憂	-11208
策	-11209
怨	-11210
移	-11211
橋	-11212
注	-11213
ち	-11214
旗	-11215
魯	-11216
角	-11217
帥	-11218
射	-11219
翁	-11220
忍	-11221
昨	-11222
湯	-11223
ː	-11224
س	-11225
痛	-11226
累	-11227
舟	-11228
ĕ	-11229
戒	-11230
辛	-11231
乞	-11232
供	-11233
嘉	-11234
付	-11235
枝	-11236
選	-11237
錯	-11238
禍	-11239
榮	-11240
ی	-11241
支	-11242
ʿ	-11243
壁	-11244
跡	-11245
征	-11246
速	-11247
聚	-11248
冠	-11249
辰	-11250
お	-11251
冷	-11252
泉	-11253
赤	-11254
棄	-11255
Д	-11256
逢	-11257
顯	-11258
邪	-11259
露	-11260
洪	-11261
界	-11262
そ	-11263
專	-11264
遲	-11265
戲	-11266
歎	-11267
斬	-11268
恭	-11269
訴	-11270
她	-11271
्	-11272
亮	-11273
納	-11274
翠	-11275
錄	-11276
И	-11277
康	-11278
鬧	-11279
督	-11280
術	-11281
停	-11282
誤	-11283
獲	-11284
ت	-11285
拾	-11286
片	-11287
雷	-11288
積	-11289
扶	-11290
戴	-11291
殷	-11292
惠	-11293
ὲ	-11294
わ	-11295
助	-11296
朋	-11297
赴	-11298
郭	-11299
ร	-11300
旦	-11301
站	-11302
患	-11303
滅	-11304
愚	-11305
谷	-11306
錦	-11307
ళ	-11308
葉	-11309
冤	-11310
眉	-11311
轎	-11312
擺	-11313
よ	-11314
俺	-11315
判	-11316
頂	-11317
ీ	-11318
听	-11319
溪	-11320
ŋ	-11321
奸	-11322
響	-11323
米	-11324
崇	-11325
み	-11326
倘	-11327
科	-11328
貌	-11329
影	-11330
資	-11331
適	-11332
跳	-11333
佳	-11334
哀	-11335
寡	-11336
環	-11337
換	-11338
惜	-11339
社	-11340
魂	-11341
ա	-11342
ɐ	-11343
歇	-11344
舞	-11345
委	-11346
贊	-11347
醉	-11348
杜	-11349
伐	-11350
典	-11351
溫	-11352
ῆ	-11353
岸	-11354
狄	-11355
翻	-11356
跪	-11357
甘	-11358
示	-11359
附	-11360
縱	-11361
ス	-11362
祿	-11363
煩	-11364
護	-11365
整	-11366
学	-11367
查	-11368
丫	-11369
桂	-11370
否	-11371
偏	-11372
貧	-11373
ὴ	-11374
√	-11375
Â	-11376
愈	-11377
抵	-11378
庭	-11379
井	-11380
諫	-11381
慌	-11382
寇	-11383
奪	-11384
峰	-11385
頓	-11386
么	-11387
拉	-11388
街	-11389
蔡	-11390
Ā	-11391
Г	-11392
垂	-11393
宰	-11394
紙	-11395
庶	-11396
耶	-11397
審	-11398
糧	-11399
跑	-11400
短	-11401
ů	-11402
喊	-11403
池	-11404
ư	-11405
抱	-11406
尤	-11407
燒	-11408
朕	-11409
寄	-11410
斯	-11411
沈	-11412
嘴	-11413
蓮	-11414
廳	-11415
仇	-11416
悲	-11417
充	-11418
麗	-11419
齋	-11420
र	-11421
憐	-11422
頗	-11423
Ά	-11424
獄	-11425
歷	-11426
廢	-11427
夷	-11428
薛	-11429
鐘	-11430
懼	-11431
予	-11432
耐	-11433
箭	-11434
ḍ	-11435
操	-11436
け	-11437
哩	-11438
允	-11439
族	-11440
窗	-11441
裝	-11442
段	-11443
捉	-11444
醒	-11445
賦	-11446
ه	-11447
危	-11448
覆	-11449
習	-11450
尹	-11451
ך	-11452
彩	-11453
桃	-11454
逆	-11455
搖	-11456
்	-11457
找	-11458
夕	-11459
欽	-11460
瞧	-11461
鳥	-11462
Ż	-11463
沉	-11464
牌	-11465
究	-11466
配	-11467
Œ	-11468
屈	-11469
誅	-11470
俊	-11471
印	-11472
仰	-11473
щ	-11474
贈	-11475
舅	-11476
排	-11477
醫	-11478
很	-11479
愁	-11480
捕	-11481
槍	-11482
渡	-11483
賓	-11484
嶺	-11485
爹	-11486
味	-11487
尾	-11488
冬	-11489
熟	-11490
低	-11491
娶	-11492
蕭	-11493
品	-11494
悉	-11495
昏	-11496
祥	-11497
簡	-11498
	-11499
瑞	-11500
遭	-11501
÷	-11502
篇	-11503
见	-11504
嫂	-11505
庵	-11506
輩	-11507
淨	-11508
幽	-11509
減	-11510
ع	-11511
国	-11512
鳴	-11513
廝	-11514
責	-11515
ю	-11516
熙	-11517
悔	-11518
偶	-11519
賤	-11520
Ð	-11521
紹	-11522
律	-11523
唱	-11524
癡	-11525
葬	-11526
唯	-11527
荷	-11528
乙	-11529
鄰	-11530
ạ	-11531
稍	-11532
局	-11533
浮	-11534
翰	-11535
盧	-11536
團	-11537
逐	-11538
ň	-11539
虧	-11540
羽	-11541
几	-11542
吟	-11543
雞	-11544
寬	-11545
嫁	-11546
雅	-11547
ệ	-11548
寸	-11549
幼	-11550
抬	-11551
ఆ	-11552
墨	-11553
廉	-11554
董	-11555
蔣	-11556
克	-11557
叩	-11558
仔	-11559
羊	-11560
籍	-11561
准	-11562
ひ	-11563
妃	-11564
儒	-11565
派	-11566
甫	-11567
隊	-11568
貞	-11569
隻	-11570
綠	-11571
島	-11572
慮	-11573
豐	-11574
陪	-11575
限	-11576
掛	-11577
吹	-11578
じ	-11579
时	-11580
殘	-11581
預	-11582
虞	-11583
雜	-11584
匹	-11585
ἰ	-11586
隔	-11587
塞	-11588
烏	-11589
恰	-11590
悄	-11591
腹	-11592
邑	-11593
增	-11594
牆	-11595
揮	-11596
鬥	-11597
劫	-11598
蜀	-11599
諭	-11600
豪	-11601
憑	-11602
珍	-11603
塊	-11604
波	-11605
并	-11606
啟	-11607
繡	-11608
季	-11609
・	-11610
擇	-11611
น	-11612
夾	-11613
陶	-11614
彭	-11615
擒	-11616
板	-11617
詳	-11618
壯	-11619
玩	-11620
釋	-11621
效	-11622
符	-11623
毒	-11624
絲	-11625
泰	-11626
源	-11627
宅	-11628
腰	-11629
祀	-11630
薦	-11631
賴	-11632
宴	-11633
َ	-11634
貢	-11635
述	-11636
紛	-11637
弱	-11638
荊	-11639
弗	-11640
臥	-11641
膽	-11642
姨	-11643
爵	-11644
ṃ	-11645
ÿ	-11646
罰	-11647
洗	-11648
貨	-11649
澤	-11650
‚	-11651
嚇	-11652
桌	-11653
驗	-11654
婚	-11655
困	-11656
壞	-11657
淫	-11658
せ	-11659
呀	-11660
傅	-11661
ɔ	-11662
狗	-11663
謙	-11664
偷	-11665
塵	-11666
ɛ	-11667
猛	-11668
值	-11669
媒	-11670
纔	-11671
農	-11672
ơ	-11673
毫	-11674
隆	-11675
ʔ	-11676
畏	-11677
另	-11678
ф	-11679
遞	-11680
惑	-11681
া	-11682
碧	-11683
బ	-11684
仕	-11685
產	-11686
係	-11687
貫	-11688
会	-11689
弓	-11690
Л	-11691
醜	-11692
閉	-11693
尼	-11694
敘	-11695
境	-11696
頃	-11697
庚	-11698
琴	-11699
狐	-11700
掩	-11701
无	-11702
幹	-11703
途	-11704
悟	-11705
拔	-11706
鹽	-11707
采	-11708
傑	-11709
朔	-11710
證	-11711
祠	-11712
檢	-11713
堅	-11714
含	-11715
險	-11716
式	-11717
荒	-11718
押	-11719
振	-11720
質	-11721
浪	-11722
ة	-11723
輪	-11724
苟	-11725
个	-11726
迷	-11727
霞	-11728
晁	-11729
麻	-11730
襲	-11731
貪	-11732
桓	-11733
標	-11734
ح	-11735
›	-11736
系	-11737
搭	-11738
屍	-11739
イ	-11740
凶	-11741
丘	-11742
‹	-11743
銅	-11744
ϊ	-11745
嗣	-11746
寅	-11747
说	-11748
ɑ	-11749
欺	-11750
展	-11751
ả	-11752
價	-11753
曆	-11754
材	-11755
架	-11756
圓	-11757
際	-11758
粉	-11759
ొ	-11760
ど	-11761
则	-11762
帖	-11763
伊	-11764
鋪	-11765
契	-11766
范	-11767
束	-11768
鄧	-11769
え	-11770
樞	-11771
辱	-11772
違	-11773
倚	-11774
辨	-11775
震	-11776
暫	-11777
巴	-11778
徑	-11779
燭	-11780
兮	-11781
戚	-11782
衹	-11783
ἔ	-11784
斗	-11785
ễ	-11786
妄	-11787
床	-11788
ּ	-11789
羞	-11790
項	-11791
ル	-11792
闕	-11793
暴	-11794
鶴	-11795
姪	-11796
佐	-11797
輔	-11798
菜	-11799
馮	-11800
Ḥ	-11801
慕	-11802
祝	-11803
冒	-11804
袖	-11805
≈	-11806
ふ	-11807
仗	-11808
芝	-11809
例	-11810
襄	-11811
呈	-11812
黨	-11813
】	-11814
【	-11815
ト	-11816
ラ	-11817
婿	-11818
瓊	-11819
ĸ	-11820
陷	-11821
堯	-11822
袁	-11823
̆	-11824
埋	-11825
ق	-11826
毋	-11827
ť	-11828
伸	-11829
竊	-11830
←	-11831
維	-11832
介	-11833
饒	-11834
序	-11835
懸	-11836
め	-11837
姻	-11838
狂	-11839
遵	-11840
ָ	-11841
扯	-11842
悶	-11843
堪	-11844
幫	-11845
丙	-11846
寓	-11847
ف	-11848
泣	-11849
徙	-11850
媳	-11851
旋	-11852
屯	-11853
藝	-11854
側	-11855
殊	-11856
湘	-11857
へ	-11858
勤	-11859
宇	-11860
卑	-11861
□	-11862
激	-11863
书	-11864
ろ	-11865
鎖	-11866
電	-11867
悅	-11868
階	-11869
न	-11870
催	-11871
搶	-11872
烈	-11873
¥	-11874
ὁ	-11875
岳	-11876
Е	-11877
ม	-11878
柏	-11879
衡	-11880
趨	-11881
突	-11882
慈	-11883
牧	-11884
腸	-11885
З	-11886
✔	-11887
壬	-11888
崖	-11889
損	-11890
柴	-11891
沖	-11892
痕	-11893
Ζ	-11894
勒	-11895
เ	-11896
焚	-11897
蕩	-11898
逼	-11899
妨	-11900
碗	-11901
鍾	-11902
謹	-11903
✓	-11904
将	-11905
伴	-11906
蒼	-11907
髮	-11908
吐	-11909
庫	-11910
ἄ	-11911
戊	-11912
飾	-11913
炮	-11914
伺	-11915
阻	-11916
ش	-11917
伙	-11918
缺	-11919
規	-11920
ր	-11921
扇	-11922
涼	-11923
靖	-11924
擁	-11925
均	-11926
添	-11927
彥	-11928
ˆ	-11929
嗎	-11930
挑	-11931
焦	-11932
卜	-11933
ȳ	-11934
繩	-11935
鸞	-11936
勉	-11937
嫌	-11938
閑	-11939
聘	-11940
署	-11941
ǎ	-11942
咸	-11943
屏	-11944
Ő	-11945
ば	-11946
棍	-11947
ج	-11948
超	-11949
寢	-11950
彈	-11951
¢	-11952
ẽ	-11953
編	-11954
อ	-11955
央	-11956
У	-11957
万	-11958
彌	-11959
循	-11960
津	-11961
蛇	-11962
鏡	-11963
忌	-11964
傾	-11965
ง	-11966
災	-11967
巳	-11968
秘	-11969
郊	-11970
饑	-11971
渾	-11972
茂	-11973
靠	-11974
衝	-11975
倉	-11976
淵	-11977
ն	-11978
占	-11979
牽	-11980
癸	-11981
眷	-11982
厲	-11983
伍	-11984
逾	-11985
惱	-11986
盈	-11987
ế	-11988
練	-11989
	-11990
赦	-11991
舜	-11992
獸	-11993
ṛ	-11994
杖	-11995
胸	-11996
	-11997
坡	-11998
邀	-11999
割	-12000
卯	-12001
姬	-12002
汗	-12003
ก	-12004
酉	-12005
款	-12006
浙	-12007
稽	-12008
慎	-12009
枉	-12010
續	-12011
Ξ	-12012
鼎	-12013
混	-12014
攜	-12015
ク	-12016
岑	-12017
趁	-12018
倫	-12019
戎	-12020
┬	-12021
崔	-12022
肅	-12023
慰	-12024
輸	-12025
ũ	-12026
冰	-12027
鑄	-12028
జ	-12029
禪	-12030
妝	-12031
巨	-12032
当	-12033
緩	-12034
輒	-12035
撥	-12036
層	-12037
衰	-12038
撞	-12039
क	-12040
趣	-12041
म	-12042
淡	-12043
盟	-12044
磨	-12045
祐	-12046
軒	-12047
憲	-12048
拳	-12049
勾	-12050
暮	-12051
ị	-12052
遙	-12053
隸	-12054
̄	-12055
婢	-12056
豹	-12057
鮮	-12058
ధ	-12059
霜	-12060
額	-12061
拍	-12062
柔	-12063
	-12064
ὑ	-12065
革	-12066
賽	-12067
倍	-12068
傍	-12069
套	-12070
釵	-12071
享	-12072
嬌	-12073
岩	-12074
齒	-12075
ك	-12076
峽	-12077
穆	-12078
ʾ	-12079
̓	-12080
訓	-12081
姚	-12082
匡	-12083
纏	-12084
默	-12085
э	-12086
涉	-12087
त	-12088
舒	-12089
敕	-12090
蠻	-12091
牢	-12092
擔	-12093
肚	-12094
戌	-12095
Ή	-12096
屢	-12097
韻	-12098
魔	-12099
翼	-12100
較	-12101
ほ	-12102
气	-12103
亥	-12104
呆	-12105
躲	-12106
巾	-12107
肩	-12108
桑	-12109
寂	-12110
披	-12111
榜	-12112
油	-12113
捨	-12114
葛	-12115
ि	-12116
棺	-12117
┴	-12118
♭	-12119
ַ	-12120
邦	-12121
リ	-12122
坊	-12123
昆	-12124
夠	-12125
晝	-12126
辟	-12127
沿	-12128
返	-12129
泥	-12130
ի	-12131
凌	-12132
廬	-12133
鞭	-12134
晨	-12135
普	-12136
模	-12137
	-12138
墓	-12139
ְ	-12140
聯	-12141
豆	-12142
慧	-12143
Ë	-12144
传	-12145
壺	-12146
馳	-12147
姜	-12148
鋒	-12149
恥	-12150
漏	-12151
ɪ	-12152
鼻	-12153
ħ	-12154
Ș	-12155
≤	-12156
俟	-12157
級	-12158
这	-12159
ว	-12160
黛	-12161
潛	-12162
簾	-12163
竇	-12164
牀	-12165
碎	-12166
舌	-12167
鹿	-12168
శ	-12169
ั	-12170
區	-12171
閃	-12172
飄	-12173
擾	-12174
	-12175
跌	-12176
柱	-12177
騰	-12178
徵	-12179
禹	-12180
貼	-12181
Ἀ	-12182
ǫ	-12183
雍	-12184
侵	-12185
毀	-12186
汪	-12187
吧	-12188
拘	-12189
斤	-12190
莽	-12191
内	-12192
स	-12193
狼	-12194
瞞	-12195
麟	-12196
拱	-12197
藩	-12198
↑	-12199
撰	-12200
菩	-12201
錫	-12202
洛	-12203
淺	-12204
詣	-12205
枕	-12206
閨	-12207
旅	-12208
閱	-12209
純	-12210
褚	-12211
酌	-12212
壇	-12213
挹	-12214
袍	-12215
ز	-12216
ド	-12217
冊	-12218
寵	-12219
擬	-12220
岡	-12221
淳	-12222
鴻	-12223
穀	-12224
扮	-12225
謁	-12226
掃	-12227
愧	-12228
揖	-12229
ո	-12230
優	-12231
削	-12232
搬	-12233
喫	-12234
宦	-12235
履	-12236
籠	-12237
捧	-12238
帛	-12239
詐	-12240
鬟	-12241
帽	-12242
ส	-12243
摸	-12244
穴	-12245
砍	-12246
↓	-12247
稷	-12248
丟	-12249
線	-12250
搜	-12251
韋	-12252
ћ	-12253
ἱ	-12254
簿	-12255
脈	-12256
ッ	-12257
ა	-12258
哈	-12259
驅	-12260
囚	-12261
棒	-12262
繞	-12263
ย	-12264
耕	-12265
厭	-12266
ե	-12267
基	-12268
ゐ	-12269
复	-12270
誓	-12271
輿	-12272
臂	-12273
̃	-12274
র	-12275
徽	-12276
粗	-12277
辯	-12278
俚	-12279
晏	-12280
股	-12281
導	-12282
朗	-12283
⁊	-12284
騙	-12285
ἡ	-12286
鉤	-12287
Û	-12288
ล	-12289
ὺ	-12290
犬	-12291
墜	-12292
援	-12293
睛	-12294
ọ	-12295
插	-12296
畜	-12297
娥	-12298
巢	-12299
ア	-12300
潘	-12301
輝	-12302
逕	-12303
鮑	-12304
ね	-12305
瓦	-12306
啼	-12307
腦	-12308
薩	-12309
ầ	-12310
弊	-12311
聰	-12312
透	-12313
ִ	-12314
闊	-12315
爽	-12316
Ì	-12317
演	-12318
矢	-12319
批	-12320
逸	-12321
彪	-12322
抽	-12323
囑	-12324
滾	-12325
嚷	-12326
囊	-12327
裁	-12328
্	-12329
磕	-12330
塗	-12331
ɨ	-12332
誦	-12333
築	-12334
偽	-12335
兆	-12336
叛	-12337
概	-12338
⟩	-12339
蟲	-12340
≥	-12341
甯	-12342
藍	-12343
捷	-12344
瓜	-12345
裳	-12346
马	-12347
Ч	-12348
腿	-12349
龜	-12350
壓	-12351
њ	-12352
倪	-12353
庸	-12354
拒	-12355
ồ	-12356
戀	-12357
肆	-12358
ท	-12359
呵	-12360
奮	-12361
ะ	-12362
佩	-12363
孰	-12364
พ	-12365
球	-12366
豬	-12367
鑒	-12368
⟨	-12369
哄	-12370
筵	-12371
耀	-12372
̍	-12373
ิ	-12374
黎	-12375
弦	-12376
斧	-12377
恃	-12378
ṅ	-12379
箱	-12380
糊	-12381
詠	-12382
酬	-12383
व	-12384
旱	-12385
塘	-12386
苗	-12387
Х	-12388
宝	-12389
่	-12390
撲	-12391
泊	-12392
綱	-12393
敏	-12394
漁	-12395
截	-12396
掉	-12397
浩	-12398
幕	-12399
稅	-12400
Ć	-12401
灰	-12402
着	-12403
ি	-12404
町	-12405
∞	-12406
弘	-12407
杭	-12408
圣	-12409
攔	-12410
潮	-12411
軟	-12412
Ŝ	-12413
冥	-12414
♯	-12415
ी	-12416
喬	-12417
ĩ	-12418
潤	-12419
警	-12420
க	-12421
バ	-12422
湊	-12423
欣	-12424
ʃ	-12425
ِ	-12426
恕	-12427
猜	-12428
繁	-12429
雁	-12430
豫	-12431
蹤	-12432
惹	-12433
遮	-12434
ल	-12435
浦	-12436
竭	-12437
グ	-12438
ё	-12439
敖	-12440
斜	-12441
崩	-12442
揭	-12443
準	-12444
躬	-12445
踏	-12446
堆	-12447
鞋	-12448
љ	-12449
育	-12450
茲	-12451
Ф	-12452
墳	-12453
熊	-12454
亞	-12455
祈	-12456
ͤ	-12457
两	-12458
拖	-12459
蓬	-12460
宏	-12461
咬	-12462
尖	-12463
ņ	-12464
廂	-12465
ி	-12466
覽	-12467
ġ	-12468
భ	-12469
ῳ	-12470
俄	-12471
健	-12472
巷	-12473
窺	-12474
拆	-12475
敝	-12476
耍	-12477
縛	-12478
タ	-12479
肖	-12480
賭	-12481
ک	-12482
鼠	-12483
ḫ	-12484
覓	-12485
ష	-12486
裹	-12487
頑	-12488
丸	-12489
陝	-12490
紂	-12491
妓	-12492
租	-12493
テ	-12494
屠	-12495
敲	-12496
े	-12497
禽	-12498
淑	-12499
疼	-12500
驛	-12501
疊	-12502
门	-12503
驢	-12504
ห	-12505
宛	-12506
諒	-12507
零	-12508
飽	-12509
拂	-12510
苑	-12511
蘆	-12512
鴛	-12513
♂	-12514
प	-12515
胤	-12516
ი	-12517
斂	-12518
͡	-12519
溜	-12520
む	-12521
撒	-12522
粟	-12523
⋅	-12524
刃	-12525
爲	-12526
衫	-12527
य	-12528
ु	-12529
訖	-12530
أ	-12531
丑	-12532
潔	-12533
̀	-12534
้	-12535
擢	-12536
渠	-12537
雕	-12538
乏	-12539
瑤	-12540
₹	-12541
歐	-12542
魁	-12543
ῷ	-12544
絳	-12545
嗟	-12546
炎	-12547
銜	-12548
啥	-12549
嗚	-12550
ィ	-12551
宵	-12552
抑	-12553
泄	-12554
遁	-12555
餓	-12556
ɾ	-12557
碑	-12558
ี	-12559
裴	-12560
顛	-12561
ף	-12562
捐	-12563
ȥ	-12564
狠	-12565
測	-12566
姿	-12567
挺	-12568
霧	-12569
脊	-12570
灌	-12571
態	-12572
嘻	-12573
祁	-12574
ǐ	-12575
厥	-12576
ఇ	-12577
侄	-12578
慘	-12579
俯	-12580
晌	-12581
樁	-12582
票	-12583
穩	-12584
諱	-12585
ন	-12586
ǔ	-12587
弔	-12588
漫	-12589
岐	-12590
长	-12591
ு	-12592
染	-12593
洲	-12594
網	-12595
హ	-12596
擅	-12597
་	-12598
廚	-12599
Ц	-12600
奎	-12601
暇	-12602
俠	-12603
挽	-12604
茅	-12605
暖	-12606
慣	-12607
憤	-12608
ด	-12609
ে	-12610
妥	-12611
藤	-12612
邵	-12613
ジ	-12614
姦	-12615
揀	-12616
諾	-12617
閻	-12618
叢	-12619
吊	-12620
幅	-12621
↔	-12622
措	-12623
斟	-12624
ص	-12625
ご	-12626
蔽	-12627
ὅ	-12628
Ш	-12629
咽	-12630
خ	-12631
ต	-12632
嘍	-12633
盆	-12634
課	-12635
̯	-12636
袋	-12637
孽	-12638
棋	-12639
創	-12640
庄	-12641
駱	-12642
觸	-12643
进	-12644
誘	-12645
们	-12646
枯	-12647
躍	-12648
憶	-12649
鄙	-12650
忿	-12651
挨	-12652
株	-12653
蕃	-12654
ఎ	-12655
旬	-12656
梳	-12657
殆	-12658
ゆ	-12659
港	-12660
豎	-12661
过	-12662
Ĝ	-12663
森	-12664
胥	-12665
ţ	-12666
媚	-12667
鬱	-12668
ʊ	-12669
擲	-12670
东	-12671
剿	-12672
硬	-12673
駭	-12674
ُ	-12675
द	-12676
シ	-12677
ミ	-12678
剩	-12679
恁	-12680
蒲	-12681
咎	-12682
鑽	-12683
ْ	-12684
秉	-12685
̧	-12686
爐	-12687
ぶ	-12688
甥	-12689
体	-12690
隙	-12691
簽	-12692
裂	-12693
ᾶ	-12694
朵	-12695
縮	-12696
ط	-12697
墮	-12698
巫	-12699
樸	-12700
爛	-12701
轅	-12702
̂	-12703
圈	-12704
昧	-12705
綿	-12706
遜	-12707
げ	-12708
欠	-12709
肥	-12710
膝	-12711
虜	-12712
遼	-12713
協	-12714
摩	-12715
阮	-12716
僚	-12717
匆	-12718
滑	-12719
灣	-12720
巖	-12721
誣	-12722
谓	-12723
̪	-12724
冀	-12725
嘆	-12726
濁	-12727
爬	-12728
‧	-12729
椅	-12730
衍	-12731
驕	-12732
潭	-12733
猴	-12734
砦	-12735
篤	-12736
刁	-12737
紗	-12738
ộ	-12739
募	-12740
坑	-12741
戮	-12742
稿	-12743
紳	-12744
耽	-12745
聊	-12746
訟	-12747
銷	-12748
ம	-12749
บ	-12750
鄒	-12751
凝	-12752
填	-12753
婉	-12754
攝	-12755
臭	-12756
鶯	-12757
マ	-12758
織	-12759
垣	-12760
晦	-12761
採	-12762
匠	-12763
柄	-12764
諡	-12765
遽	-12766
暢	-12767
睹	-12768
塢	-12769
廊	-12770
礙	-12771
த	-12772
乳	-12773
灑	-12774
涕	-12775
僅	-12776
盞	-12777
碰	-12778
¦	-12779
樊	-12780
ロ	-12781
榻	-12782
ं	-12783
ょ	-12784
卓	-12785
兇	-12786
污	-12787
緒	-12788
互	-12789
窩	-12790
经	-12791
ゝ	-12792
惊	-12793
滋	-12794
叟	-12795
堤	-12796
张	-12797
♀	-12798
戈	-12799
儉	-12800
霄	-12801
ह	-12802
ุ	-12803
吞	-12804
眠	-12805
晴	-12806
郝	-12807
奚	-12808
恤	-12809
抗	-12810
梨	-12811
瞻	-12812
ग	-12813
异	-12814
澗	-12815
艙	-12816
詢	-12817
贓	-12818
迫	-12819
頁	-12820
鴦	-12821
匪	-12822
怠	-12823
杰	-12824
臾	-12825
び	-12826
濕	-12827
範	-12828
貝	-12829
促	-12830
­	-12831
ץ	-12832
昂	-12833
隋	-12834
ர	-12835
跨	-12836
ʹ	-12837
徹	-12838
映	-12839
璧	-12840
罕	-12841
県	-12842
レ	-12843
掠	-12844
龐	-12845
Ț	-12846
ე	-12847
ὀ	-12848
⎪	-12849
宫	-12850
誇	-12851
獎	-12852
ս	-12853
声	-12854
滴	-12855
敷	-12856
ւ	-12857
ἑ	-12858
倦	-12859
坤	-12860
慚	-12861
滄	-12862
薨	-12863
鈔	-12864
魄	-12865
獵	-12866
肝	-12867
濃	-12868
餐	-12869
茫	-12870
植	-12871
艾	-12872
菊	-12873
銳	-12874
ῇ	-12875
弼	-12876
牲	-12877
卦	-12878
沛	-12879
評	-12880
Э	-12881
瓶	-12882
愿	-12883
挾	-12884
Я	-12885
浚	-12886
簇	-12887
蝶	-12888
銘	-12889
ो	-12890
稀	-12891
匈	-12892
抄	-12893
譬	-12894
貶	-12895
ణ	-12896
敦	-12897
確	-12898
萊	-12899
麥	-12900
濤	-12901
矩	-12902
剪	-12903
开	-12904
疆	-12905
償	-12906
擱	-12907
歹	-12908
駐	-12909
懂	-12910
技	-12911
暑	-12912
ἶ	-12913
堡	-12914
ʒ	-12915
槐	-12916
溺	-12917
譽	-12918
酸	-12919
毅	-12920
霍	-12921
♦	-12922
渴	-12923
ா	-12924
儲	-12925
ờ	-12926
众	-12927
絹	-12928
嬰	-12929
靡	-12930
ố	-12931
畝	-12932
礼	-12933
问	-12934
抓	-12935
拙	-12936
薪	-12937
漆	-12938
瘦	-12939
胜	-12940
叉	-12941
奠	-12942
旌	-12943
漕	-12944
繫	-12945
汉	-12946
猿	-12947
懿	-12948
贖	-12949
懇	-12950
戟	-12951
拐	-12952
曠	-12953
淒	-12954
澄	-12955
蓉	-12956
靴	-12957
̈	-12958
Ψ	-12959
雀	-12960
ব	-12961
■	-12962
ぎ	-12963
峻	-12964
鬚	-12965
幣	-12966
泛	-12967
訊	-12968
針	-12969
ֹ	-12970
惶	-12971
拋	-12972
攀	-12973
縫	-12974
ŷ	-12975
訂	-12976
匿	-12977
胎	-12978
ఏ	-12979
煉	-12980
邢	-12981
亟	-12982
彎	-12983
筋	-12984
间	-12985
鵬	-12986
箋	-12987
筠	-12988
ΐ	-12989
ज	-12990
版	-12991
ɣ	-12992
踐	-12993
ẹ	-12994
陀	-12995
从	-12996
辜	-12997
裙	-12998
鞍	-12999
◎	-13000
ず	-13001
喧	-13002
浸	-13003
煮	-13004
睜	-13005
秩	-13006
釘	-13007
极	-13008
Ж	-13009
կ	-13010
ক	-13011
ค	-13012
์	-13013
义	-13014
勘	-13015
劈	-13016
ম	-13017
ḳ	-13018
兔	-13019
处	-13020
弩	-13021
棲	-13022
皂	-13023
迴	-13024
鹹	-13025
溝	-13026
羨	-13027
塔	-13028
札	-13029
藉	-13030
僻	-13031
军	-13032
卞	-13033
慨	-13034
擋	-13035
欄	-13036
	-13037
¤	-13038
懶	-13039
競	-13040
鑿	-13041
哨	-13042
劾	-13043
师	-13044
匣	-13045
ப	-13046
ἴ	-13047
乖	-13048
佑	-13049
臧	-13050
融	-13051
®	-13052
ї	-13053
ぐ	-13054
皓	-13055
ল	-13056
フ	-13057
妒	-13058
綽	-13059
数	-13060
嫗	-13061
控	-13062
緡	-13063
脾	-13064
頸	-13065
☆	-13066
斥	-13067
障	-13068
Ò	-13069
头	-13070
姥	-13071
鬆	-13072
啊	-13073
悠	-13074
汴	-13075
离	-13076
腐	-13077
邁	-13078
ǒ	-13079
ช	-13080
勃	-13081
梯	-13082
械	-13083
爪	-13084
翔	-13085
偉	-13086
兀	-13087
檜	-13088
ѣ	-13089
✿	-13090
ャ	-13091
捆	-13092
枚	-13093
称	-13094
脂	-13095
ゃ	-13096
琪	-13097
诗	-13098
轄	-13099
潑	-13100
砂	-13101
褒	-13102
カ	-13103
咒	-13104
沾	-13105
齐	-13106
ى	-13107
Ṣ	-13108
抹	-13109
掙	-13110
种	-13111
禱	-13112
ῃ	-13113
哲	-13114
豔	-13115
燦	-13116
贏	-13117
頌	-13118
ֵ	-13119
ḷ	-13120
ắ	-13121
ɡ	-13122
乐	-13123
託	-13124
幻	-13125
禿	-13126
餅	-13127
Ù	-13128
孺	-13129
嶽	-13130
瑜	-13131
ὄ	-13132
剝	-13133
ざ	-13134
デ	-13135
撤	-13136
牡	-13137
酣	-13138
籌	-13139
이	-13140
距	-13141
്	-13142
杏	-13143
梧	-13144
膏	-13145
扣	-13146
戍	-13147
盒	-13148
许	-13149
週	-13150
请	-13151
餉	-13152
사	-13153
ত	-13154
梓	-13155
溢	-13156
誼	-13157
郵	-13158
盼	-13159
隴	-13160
گ	-13161
ậ	-13162
佞	-13163
艱	-13164
鈴	-13165
对	-13166
县	-13167
抖	-13168
煞	-13169
赫	-13170
স	-13171
喉	-13172
骸	-13173
จ	-13174
チ	-13175
棗	-13176
¬	-13177
∈	-13178
怯	-13179
雯	-13180
鴉	-13181
Ṭ	-13182
吒	-13183
它	-13184
汲	-13185
紮	-13186
阳	-13187
佈	-13188
唇	-13189
竄	-13190
咧	-13191
ウ	-13192
尸	-13193
翹	-13194
鈞	-13195
‿	-13196
づ	-13197
劇	-13198
℞	-13199
ป	-13200
ぬ	-13201
瞎	-13202
詰	-13203
ŵ	-13204
ֶ	-13205
倭	-13206
冕	-13207
勁	-13208
蔭	-13209
煎	-13210
璉	-13211
虔	-13212
裕	-13213
謫	-13214
鬢	-13215
━	-13216
蜂	-13217
握	-13218
々	-13219
勳	-13220
櫃	-13221
腔	-13222
邱	-13223
錘	-13224
ぼ	-13225
樵	-13226
炕	-13227
挂	-13228
掘	-13229
赶	-13230
釣	-13231
Ī	-13232
亲	-13233
コ	-13234
嵩	-13235
牒	-13236
絮	-13237
灵	-13238
鑑	-13239
齎	-13240
擠	-13241
غ	-13242
偕	-13243
塚	-13244
恍	-13245
浴	-13246
灼	-13247
猷	-13248
畔	-13249
发	-13250
綁	-13251
膳	-13252
裘	-13253
諧	-13254
馗	-13255
ブ	-13256
壑	-13257
宁	-13258
捏	-13259
綢	-13260
虹	-13261
讎	-13262
崎	-13263
隅	-13264
頤	-13265
श	-13266
ム	-13267
箕	-13268
褲	-13269
謬	-13270
难	-13271
頻	-13272
兜	-13273
繆	-13274
衆	-13275
̥	-13276
ứ	-13277
僮	-13278
潰	-13279
硯	-13280
芸	-13281
輯	-13282
叱	-13283
吸	-13284
棟	-13285
淹	-13286
竅	-13287
黜	-13288
ớ	-13289
偃	-13290
壘	-13291
簷	-13292
驟	-13293
綺	-13294
俾	-13295
旺	-13296
祷	-13297
セ	-13298
串	-13299
喘	-13300
研	-13301
キ	-13302
檄	-13303
渭	-13304
賠	-13305
್	-13306
旭	-13307
襟	-13308
陋	-13309
ђ	-13310
噴	-13311
棚	-13312
爱	-13313
ட	-13314
絡	-13315
軀	-13316
逵	-13317
〉	-13318
桶	-13319
檀	-13320
績	-13321
虐	-13322
譚	-13323
	-13324
囉	-13325
域	-13326
甄	-13327
ų	-13328
ἁ	-13329
緝	-13330
纖	-13331
韶	-13332
メ	-13333
喻	-13334
拈	-13335
涯	-13336
誕	-13337
傲	-13338
천	-13339
ῥ	-13340
桐	-13341
芬	-13342
ď	-13343
ấ	-13344
‛	-13345
オ	-13346
翟	-13347
誥	-13348
还	-13349
〈	-13350
彰	-13351
掣	-13352
禾	-13353
閭	-13354
ّ	-13355
蒸	-13356
隘	-13357
簪	-13358
簫	-13359
譜	-13360
齡	-13361
ぢ	-13362
べ	-13363
僱	-13364
鏢	-13365
吁	-13366
賺	-13367
撇	-13368
杨	-13369
歪	-13370
詭	-13371
리	-13372
販	-13373
顆	-13374
Ḫ	-13375
獅	-13376
羌	-13377
胃	-13378
胖	-13379
製	-13380
詫	-13381
ṯ	-13382
墩	-13383
恒	-13384
竿	-13385
黄	-13386
冶	-13387
彊	-13388
桀	-13389
気	-13390
皋	-13391
罗	-13392
ს	-13393
栽	-13394
淋	-13395
வ	-13396
暈	-13397
鋼	-13398
閩	-13399
տ	-13400
ல	-13401
却	-13402
搗	-13403
構	-13404
鷹	-13405
沐	-13406
緞	-13407
プ	-13408
債	-13409
奢	-13410
摘	-13411
譯	-13412
讒	-13413
珪	-13414
訣	-13415
风	-13416
ľ	-13417
掇	-13418
欒	-13419
≡	-13420
歟	-13421
祚	-13422
逞	-13423
郁	-13424
য	-13425
捲	-13426
逮	-13427
鍋	-13428
ু	-13429
☉	-13430
怀	-13431
朽	-13432
ニ	-13433
伶	-13434
扎	-13435
扭	-13436
耿	-13437
领	-13438
‒	-13439
仆	-13440
咨	-13441
播	-13442
攙	-13443
灘	-13444
糾	-13445
肺	-13446
謊	-13447
譏	-13448
エ	-13449
棧	-13450
穢	-13451
蹈	-13452
鑼	-13453
翅	-13454
躺	-13455
攢	-13456
貽	-13457
Ί	-13458
׳	-13459
嬸	-13460
尽	-13461
虽	-13462
մ	-13463
↳	-13464
兢	-13465
嫣	-13466
矯	-13467
賂	-13468
雌	-13469
掀	-13470
瀉	-13471
輦	-13472
∕	-13473
滯	-13474
诸	-13475
麓	-13476
晃	-13477
菱	-13478
蛟	-13479
讲	-13480
ब	-13481
悵	-13482
躁	-13483
億	-13484
扁	-13485
瑟	-13486
騷	-13487
်	-13488
勛	-13489
圭	-13490
核	-13491
脩	-13492
湧	-13493
灶	-13494
覷	-13495
飭	-13496
ツ	-13497
氈	-13498
褂	-13499
謗	-13500
貳	-13501
ன	-13502
ὡ	-13503
凰	-13504
柩	-13505
隍	-13506
च	-13507
别	-13508
症	-13509
脅	-13510
膠	-13511
閏	-13512
蕙	-13513
髯	-13514
麾	-13515
炀	-13516
蓄	-13517
琨	-13518
罔	-13519
芙	-13520
记	-13521
대	-13522
攪	-13523
珊	-13524
矜	-13525
紈	-13526
綴	-13527
ై	-13528
〃	-13529
夙	-13530
濮	-13531
疲	-13532
闖	-13533
飢	-13534
俞	-13535
劣	-13536
恣	-13537
攸	-13538
耗	-13539
迭	-13540
鎗	-13541
ׁ	-13542
吝	-13543
悼	-13544
荀	-13545
觴	-13546
แ	-13547
仿	-13548
贅	-13549
帆	-13550
梢	-13551
綾	-13552
რ	-13553
翩	-13554
肌	-13555
襖	-13556
̇	-13557
〵	-13558
サ	-13559
ノ	-13560
ョ	-13561
斛	-13562
訛	-13563
远	-13564
ċ	-13565
յ	-13566
蟠	-13567
蠲	-13568
蠶	-13569
话	-13570
夥	-13571
恢	-13572
擂	-13573
点	-13574
紋	-13575
ச	-13576
饋	-13577
ʽ	-13578
پ	-13579
Ἰ	-13580
侮	-13581
区	-13582
括	-13583
祗	-13584
粥	-13585
繳	-13586
膚	-13587
躊	-13588
剖	-13589
柯	-13590
殮	-13591
卸	-13592
瞿	-13593
语	-13594
̱	-13595
ὼ	-13596
パ	-13597
熬	-13598
秒	-13599
闻	-13600
霎	-13601
～	-13602
⏑	-13603
█	-13604
亨	-13605
懲	-13606
栗	-13607
酷	-13608
ศ	-13609
镇	-13610
撐	-13611
贵	-13612
闔	-13613
陈	-13614
Ա	-13615
吵	-13616
实	-13617
狹	-13618
ļ	-13619
₱	-13620
凜	-13621
瘡	-13622
♃	-13623
倆	-13624
函	-13625
睦	-13626
綏	-13627
宸	-13628
恆	-13629
樑	-13630
涇	-13631
╱	-13632
兴	-13633
冉	-13634
刊	-13635
幡	-13636
ض	-13637
প	-13638
ữ	-13639
炭	-13640
ƒ	-13641
Ю	-13642
党	-13643
廩	-13644
貓	-13645
錠	-13646
├	-13647
╲	-13648
頒	-13649
駁	-13650
ĥ	-13651
⁂	-13652
动	-13653
煌	-13654
肴	-13655
蕊	-13656
동	-13657
ȧ	-13658
∂	-13659
ナ	-13660
乡	-13661
倖	-13662
叨	-13663
啞	-13664
节	-13665
賄	-13666
醋	-13667
叮	-13668
嘯	-13669
拚	-13670
璃	-13671
穎	-13672
豁	-13673
Ē	-13674
્	-13675
ఒ	-13676
Ἐ	-13677
ὕ	-13678
揣	-13679
衾	-13680
鱗	-13681
娟	-13682
嬤	-13683
憚	-13684
沂	-13685
漲	-13686
漿	-13687
濫	-13688
ო	-13689
倡	-13690
禧	-13691
罩	-13692
羈	-13693
哼	-13694
ガ	-13695
昊	-13696
笛	-13697
粒	-13698
貸	-13699
适	-13700
ய	-13701
≠	-13702
倩	-13703
唔	-13704
寞	-13705
恙	-13706
懊	-13707
磚	-13708
饗	-13709
华	-13710
嗄	-13711
濱	-13712
臘	-13713
边	-13714
ẓ	-13715
琦	-13716
躇	-13717
阜	-13718
ɲ	-13719
夭	-13720
扳	-13721
朴	-13722
訝	-13723
鵲	-13724
	-13725
ǀ	-13726
ئ	-13727
丰	-13728
窟	-13729
糴	-13730
葫	-13731
龙	-13732
拴	-13733
拽	-13734
条	-13735
衷	-13736
蹄	-13737
鵝	-13738
기	-13739
侈	-13740
帕	-13741
濠	-13742
燥	-13743
聳	-13744
归	-13745
晋	-13746
థ	-13747
ビ	-13748
筒	-13749
屁	-13750
犹	-13751
縷	-13752
鬻	-13753
夔	-13754
碌	-13755
蕪	-13756
衢	-13757
軌	-13758
闌	-13759
僭	-13760
寐	-13761
煥	-13762
观	-13763
驍	-13764
দ	-13765
ụ	-13766
ダ	-13767
嗔	-13768
恪	-13769
殯	-13770
淘	-13771
漳	-13772
琶	-13773
舖	-13774
踢	-13775
黍	-13776
ṁ	-13777
湛	-13778
蠟	-13779
躥	-13780
乍	-13781
忖	-13782
棘	-13783
畿	-13784
耆	-13785
誨	-13786
輛	-13787
撮	-13788
笙	-13789
胄	-13790
萍	-13791
𝄇	-13792
Ľ	-13793
♄	-13794
戩	-13795
泗	-13796
偈	-13797
坦	-13798
ց	-13799
謨	-13800
棠	-13801
蟾	-13802
憎	-13803
挈	-13804
捱	-13805
袱	-13806
迂	-13807
나	-13808
𝄆	-13809
琵	-13810
痰	-13811
諷	-13812
逝	-13813
邸	-13814
陟	-13815
І	-13816
举	-13817
变	-13818
杳	-13819
潁	-13820
痴	-13821
Ŭ	-13822
〳	-13823
丐	-13824
徇	-13825
滔	-13826
藻	-13827
麒	-13828
ὖ	-13829
娼	-13830
巍	-13831
戦	-13832
撓	-13833
斑	-13834
析	-13835
汾	-13836
潼	-13837
ఖ	-13838
騾	-13839
勵	-13840
慟	-13841
의	-13842
ք	-13843
擦	-13844
机	-13845
沸	-13846
熒	-13847
论	-13848
ϋ	-13849
凳	-13850
券	-13851
涂	-13852
车	-13853
ข	-13854
ბ	-13855
咳	-13856
嫡	-13857
戾	-13858
沮	-13859
髻	-13860
Ḳ	-13861
梗	-13862
轟	-13863
ᾳ	-13864
ュ	-13865
傘	-13866
吶	-13867
没	-13868
浜	-13869
犀	-13870
硃	-13871
綬	-13872
ʕ	-13873
آ	-13874
ὔ	-13875
凍	-13876
桿	-13877
璋	-13878
羹	-13879
鈐	-13880
餞	-13881
ぜ	-13882
僥	-13883
娛	-13884
漱	-13885
蜜	-13886
蹇	-13887
∅	-13888
嗜	-13889
彬	-13890
画	-13891
疇	-13892
謠	-13893
ण	-13894
ध	-13895
杀	-13896
檻	-13897
苛	-13898
貯	-13899
忤	-13900
掖	-13901
斃	-13902
稻	-13903
需	-13904
Ј	-13905
ـ	-13906
ề	-13907
岁	-13908
糟	-13909
̞	-13910
彝	-13911
扈	-13912
篷	-13913
繇	-13914
饌	-13915
鴨	-13916
Õ	-13917
ை	-13918
殃	-13919
窄	-13920
艷	-13921
趟	-13922
号	-13923
篆	-13924
迅	-13925
Ħ	-13926
岂	-13927
峒	-13928
怖	-13929
盔	-13930
粵	-13931
駙	-13932
도	-13933
դ	-13934
ợ	-13935
瀆	-13936
ნ	-13937
ズ	-13938
肇	-13939
刮	-13940
峨	-13941
漂	-13942
襪	-13943
ไ	-13944
匾	-13945
怡	-13946
曼	-13947
跋	-13948
随	-13949
়	-13950
圃	-13951
婁	-13952
烹	-13953
瑩	-13954
ɫ	-13955
̵	-13956
写	-13957
坎	-13958
旧	-13959
贍	-13960
軾	-13961
โ	-13962
ハ	-13963
燃	-13964
褥	-13965
閔	-13966
麵	-13967
ლ	-13968
堙	-13969
庾	-13970
竺	-13971
葵	-13972
詹	-13973
თ	-13974
卵	-13975
壤	-13976
摧	-13977
雉	-13978
兗	-13979
狡	-13980
肢	-13981
駝	-13982
،	-13983
ู	-13984
軸	-13985
ธ	-13986
斌	-13987
独	-13988
躡	-13989
鈿	-13990
鹵	-13991
ἕ	-13992
刘	-13993
惇	-13994
攏	-13995
汀	-13996
瑕	-13997
甜	-13998
緻	-13999
賑	-14000
唬	-14001
漠	-14002
酋	-14003
ủ	-14004
★	-14005
併	-14006
媼	-14007
报	-14008
枷	-14009
汁	-14010
潞	-14011
腫	-14012
芒	-14013
萌	-14014
蟬	-14015
奩	-14016
拭	-14017
瘋	-14018
培	-14019
带	-14020
帷	-14021
弁	-14022
լ	-14023
僉	-14024
厄	-14025
横	-14026
稼	-14027
迪	-14028
ǃ	-14029
भ	-14030
ỳ	-14031
儼	-14032
彷	-14033
揪	-14034
襯	-14035
轡	-14036
釐	-14037
銓	-14038
ἢ	-14039
モ	-14040
俸	-14041
曳	-14042
玲	-14043
祟	-14044
蟻	-14045
银	-14046
馱	-14047
̲	-14048
ვ	-14049
愆	-14050
攬	-14051
柵	-14052
份	-14053
嫩	-14054
庇	-14055
廠	-14056
拗	-14057
鄂	-14058
ड	-14059
ष	-14060
ェ	-14061
俏	-14062
僖	-14063
匯	-14064
医	-14065
据	-14066
敞	-14067
炙	-14068
遏	-14069
丕	-14070
壹	-14071
鄆	-14072
鴇	-14073
ǁ	-14074
ә	-14075
ἦ	-14076
亢	-14077
咕	-14078
堵	-14079
蛋	-14080
ֲ	-14081
愕	-14082
樽	-14083
瀟	-14084
逛	-14085
ゅ	-14086
单	-14087
孚	-14088
焰	-14089
爷	-14090
腕	-14091
ث	-14092
ਾ	-14093
ํ	-14094
მ	-14095
茗	-14096
陌	-14097
頷	-14098
ट	-14099
ổ	-14100
⇒	-14101
妇	-14102
恬	-14103
洽	-14104
浣	-14105
磬	-14106
纓	-14107
贼	-14108
邇	-14109
钱	-14110
俘	-14111
孙	-14112
攘	-14113
郢	-14114
إ	-14115
员	-14116
弒	-14117
怏	-14118
魅	-14119
♠	-14120
关	-14121
场	-14122
奧	-14123
忒	-14124
拓	-14125
琅	-14126
皺	-14127
臬	-14128
讚	-14129
鉞	-14130
고	-14131
︎	-14132
ʌ	-14133
佔	-14134
宥	-14135
沽	-14136
葦	-14137
踞	-14138
鵑	-14139
昇	-14140
瑣	-14141
碟	-14142
薑	-14143
伎	-14144
喏	-14145
嫖	-14146
孕	-14147
寥	-14148
梵	-14149
শ	-14150
倏	-14151
泡	-14152
满	-14153
航	-14154
ὥ	-14155
矛	-14156
荼	-14157
蝦	-14158
赐	-14159
踵	-14160
Ȝ	-14161
ṉ	-14162
佚	-14163
奕	-14164
悖	-14165
歿	-14166
氐	-14167
璽	-14168
箸	-14169
糞	-14170
∴	-14171
拼	-14172
綻	-14173
膊	-14174
唾	-14175
擎	-14176
暉	-14177
縊	-14178
贤	-14179
鬍	-14180
ケ	-14181
图	-14182
应	-14183
扛	-14184
攛	-14185
杞	-14186
梟	-14187
萧	-14188
虢	-14189
輅	-14190
ذ	-14191
∨	-14192
徊	-14193
怜	-14194
悍	-14195
犒	-14196
盖	-14197
蹙	-14198
转	-14199
邯	-14200
鑰	-14201
ͣ	-14202
ḏ	-14203
俐	-14204
傻	-14205
癢	-14206
穹	-14207
缸	-14208
蘿	-14209
连	-14210
龔	-14211
지	-14212
仞	-14213
嵌	-14214
掄	-14215
涎	-14216
籃	-14217
闢	-14218
驥	-14219
Ř	-14220
媛	-14221
撩	-14222
다	-14223
დ	-14224
剔	-14225
啖	-14226
惚	-14227
曷	-14228
榷	-14229
爰	-14230
膀	-14231
鉛	-14232
韜	-14233
总	-14234
柬	-14235
瞪	-14236
鐸	-14237
须	-14238
ந	-14239
乱	-14240
渺	-14241
翳	-14242
鋤	-14243
駿	-14244
黯	-14245
ू	-14246
坳	-14247
棉	-14248
狎	-14249
磁	-14250
繪	-14251
终	-14252
贛	-14253
踱	-14254
辞	-14255
鉄	-14256
闈	-14257
鱉	-14258
अ	-14259
ื	-14260
佯	-14261
崑	-14262
滕	-14263
膺	-14264
莖	-14265
袞	-14266
觉	-14267
认	-14268
蹲	-14269
遐	-14270
馨	-14271
چ	-14272
ക	-14273
Ἑ	-14274
ㄨ	-14275
售	-14276
喲	-14277
嬉	-14278
尝	-14279
楞	-14280
歩	-14281
籬	-14282
綸	-14283
红	-14284
ఈ	-14285
ỹ	-14286
∧	-14287
亙	-14288
嘔	-14289
妍	-14290
岱	-14291
淪	-14292
睿	-14293
计	-14294
駒	-14295
হ	-14296
娃	-14297
歆	-14298
疫	-14299
蠡	-14300
逋	-14301
鑾	-14302
ள	-14303
兌	-14304
凱	-14305
广	-14306
瑚	-14307
粲	-14308
蛾	-14309
성	-14310
	-14311
̊	-14312
ἅ	-14313
ゑ	-14314
湍	-14315
炒	-14316
痊	-14317
辮	-14318
达	-14319
수	-14320
ʞ	-14321
冢	-14322
晶	-14323
杆	-14324
熏	-14325
琉	-14326
砌	-14327
綰	-14328
緋	-14329
纪	-14330
ী	-14331
ာ	-14332
ゞ	-14333
圜	-14334
峙	-14335
沢	-14336
瀛	-14337
胞	-14338
芻	-14339
鄴	-14340
산	-14341
嚼	-14342
徘	-14343
憫	-14344
轍	-14345
逍	-14346
🌑	-14347
ہ	-14348
ற	-14349
佃	-14350
吼	-14351
涓	-14352
眺	-14353
筮	-14354
罢	-14355
頹	-14356
ʁ	-14357
গ	-14358
◆	-14359
惰	-14360
憩	-14361
掏	-14362
矮	-14363
腎	-14364
迨	-14365
迸	-14366
鞠	-14367
傢	-14368
峭	-14369
戸	-14370
橐	-14371
熹	-14372
瞑	-14373
藹	-14374
跎	-14375
雇	-14376
飞	-14377
한	-14378
ǝ	-14379
估	-14380
摔	-14381
澀	-14382
碼	-14383
稚	-14384
给	-14385
賁	-14386
ἵ	-14387
慾	-14388
糖	-14389
缽	-14390
̔	-14391
জ	-14392
ㄧ	-14393
奄	-14394
挫	-14395
薰	-14396
蘊	-14397
輟	-14398
醴	-14399
靄	-14400
스	-14401
ˊ	-14402
强	-14403
描	-14404
杉	-14405
澶	-14406
藐	-14407
ས	-14408
∪	-14409
〜	-14410
嗽	-14411
惻	-14412
搏	-14413
朦	-14414
蠢	-14415
Ū	-14416
ἤ	-14417
努	-14418
屑	-14419
彿	-14420
曜	-14421
澆	-14422
皎	-14423
腮	-14424
荐	-14425
裔	-14426
裨	-14427
謖	-14428
设	-14429
霽	-14430
Ġ	-14431
ɕ	-14432
̣	-14433
ў	-14434
佟	-14435
侂	-14436
拯	-14437
朧	-14438
榆	-14439
謎	-14440
ķ	-14441
ボ	-14442
儂	-14443
备	-14444
尔	-14445
慷	-14446
椒	-14447
莒	-14448
藎	-14449
豕	-14450
邕	-14451
酈	-14452
阪	-14453
静	-14454
자	-14455
Ύ	-14456
ử	-14457
唸	-14458
埃	-14459
挖	-14460
筱	-14461
蔬	-14462
霆	-14463
주	-14464
ো	-14465
弛	-14466
溯	-14467
甸	-14468
綃	-14469
蟹	-14470
賬	-14471
迄	-14472
아	-14473
ģ	-14474
ख	-14475
ぞ	-14476
刷	-14477
廓	-14478
战	-14479
狸	-14480
組	-14481
覅	-14482
读	-14483
Ώ	-14484
剎	-14485
繹	-14486
翌	-14487
들	-14488
전	-14489
ɦ	-14490
ု	-14491
兰	-14492
劑	-14493
吴	-14494
嘩	-14495
摟	-14496
沃	-14497
瓚	-14498
陡	-14499
서	-14500
̤	-14501
廈	-14502
苔	-14503
貂	-14504
鸚	-14505
목	-14506
왕	-14507
원	-14508
̨	-14509
⁠	-14510
椎	-14511
翊	-14512
醮	-14513
霖	-14514
আ	-14515
ಾ	-14516
炊	-14517
Щ	-14518
း	-14519
្	-14520
ポ	-14521
业	-14522
啦	-14523
沼	-14524
郑	-14525
ḋ	-14526
垢	-14527
懃	-14528
懈	-14529
暨	-14530
棣	-14531
洵	-14532
洶	-14533
絆	-14534
细	-14535
諂	-14536
釀	-14537
⸺	-14538
ァ	-14539
临	-14540
团	-14541
塌	-14542
词	-14543
谢	-14544
貲	-14545
貿	-14546
迤	-14547
哎	-14548
嘲	-14549
嬪	-14550
楷	-14551
牟	-14552
盂	-14553
瞬	-14554
絞	-14555
芥	-14556
장	-14557
ە	-14558
ി	-14559
უ	-14560
噪	-14561
澹	-14562
燄	-14563
玻	-14564
盍	-14565
禄	-14566
翎	-14567
վ	-14568
ピ	-14569
俎	-14570
嫉	-14571
擄	-14572
涵	-14573
笠	-14574
診	-14575
ḗ	-14576
岔	-14577
懦	-14578
懺	-14579
琢	-14580
璞	-14581
穗	-14582
腥	-14583
葷	-14584
蝗	-14585
麽	-14586
厘	-14587
吆	-14588
慇	-14589
楓	-14590
殖	-14591
獃	-14592
秤	-14593
菲	-14594
褐	-14595
頰	-14596
题	-14597
ณ	-14598
▲	-14599
匙	-14600
緯	-14601
纂	-14602
蝕	-14603
螺	-14604
関	-14605
餌	-14606
鵠	-14607
黒	-14608
ベ	-14609
喇	-14610
坂	-14611
岫	-14612
忻	-14613
懋	-14614
撈	-14615
绝	-14616
蝴	-14617
訕	-14618
诏	-14619
贄	-14620
駢	-14621
구	-14622
廖	-14623
楹	-14624
殼	-14625
渚	-14626
监	-14627
瞰	-14628
笏	-14629
△	-14630
盾	-14631
芍	-14632
麝	-14633
ө	-14634
ট	-14635
ರ	-14636
⎫	-14637
历	-14638
坏	-14639
属	-14640
捻	-14641
蔥	-14642
雛	-14643
髓	-14644
塑	-14645
幌	-14646
幵	-14647
棹	-14648
毆	-14649
濯	-14650
羲	-14651
蠱	-14652
证	-14653
酥	-14654
գ	-14655
״	-14656
ਰ	-14657
ண	-14658
⎬	-14659
冗	-14660
刪	-14661
噫	-14662
址	-14663
榭	-14664
櫻	-14665
溥	-14666
炬	-14667
籤	-14668
縐	-14669
萃	-14670
视	-14671
蹊	-14672
躋	-14673
ṟ	-14674
唧	-14675
墟	-14676
揉	-14677
杵	-14678
窈	-14679
筍	-14680
釜	-14681
霹	-14682
駟	-14683
하	-14684
ന	-14685
液	-14686
琳	-14687
緘	-14688
蠅	-14689
ء	-14690
ག	-14691
မ	-14692
ὦ	-14693
剃	-14694
叶	-14695
悌	-14696
拷	-14697
捶	-14698
甕	-14699
碩	-14700
箍	-14701
聶	-14702
聾	-14703
釁	-14704
시	-14705
조	-14706
̌	-14707
ই	-14708
ḵ	-14709
匱	-14710
参	-14711
姆	-14712
婷	-14713
炳	-14714
諳	-14715
譴	-14716
陞	-14717
鯉	-14718
鼇	-14719
	-14720
哇	-14721
扒	-14722
槽	-14723
洩	-14724
烘	-14725
狩	-14726
玠	-14727
笞	-14728
諛	-14729
謔	-14730
購	-14731
顾	-14732
鳩	-14733
𝄪	-14734
ἠ	-14735
Ἡ	-14736
侶	-14737
妲	-14738
孜	-14739
廁	-14740
恋	-14741
瑰	-14742
瑾	-14743
璣	-14744
箇	-14745
篡	-14746
荔	-14747
軫	-14748
迥	-14749
𝄫	-14750
ே	-14751
ാ	-14752
ἂ	-14753
ワ	-14754
憾	-14755
焜	-14756
癩	-14757
蔑	-14758
褻	-14759
ꞌ	-14760
인	-14761
ʂ	-14762
ˌ	-14763
հ	-14764
ै	-14765
卫	-14766
宙	-14767
寿	-14768
树	-14769
歧	-14770
眩	-14771
祔	-14772
蔓	-14773
裊	-14774
霓	-14775
가	-14776
화	-14777
է	-14778
Ἄ	-14779
⎭	-14780
◌	-14781
ヶ	-14782
儻	-14783
濡	-14784
甦	-14785
睢	-14786
糜	-14787
袂	-14788
ŕ	-14789
ˀ	-14790
ိ	-14791
嶼	-14792
庆	-14793
悚	-14794
悴	-14795
断	-14796
议	-14797
饮	-14798
Ọ	-14799
ゴ	-14800
僵	-14801
唆	-14802
幃	-14803
玷	-14804
粘	-14805
脯	-14806
踴	-14807
陂	-14808
靂	-14809
黔	-14810
ു	-14811
ḃ	-14812
凋	-14813
劄	-14814
崙	-14815
忝	-14816
扉	-14817
献	-14818
繕	-14819
艦	-14820
营	-14821
諤	-14822
轻	-14823
釧	-14824
ꜣ	-14825
국	-14826
є	-14827
़	-14828
丧	-14829
寤	-14830
愉	-14831
捍	-14832
样	-14833
猖	-14834
窪	-14835
臟	-14836
臼	-14837
藕	-14838
蚤	-14839
註	-14840
试	-14841
̠	-14842
ெ	-14843
င	-14844
ở	-14845
儘	-14846
剌	-14847
怔	-14848
淄	-14849
筐	-14850
约	-14851
蔔	-14852
ʉ	-14853
ོ	-14854
∗	-14855
┤	-14856
偵	-14857
壅	-14858
晟	-14859
晤	-14860
槁	-14861
沫	-14862
蕉	-14863
蘄	-14864
蟒	-14865
覲	-14866
逗	-14867
চ	-14868
ใ	-14869
楫	-14870
濬	-14871
療	-14872
结	-14873
羔	-14874
諄	-14875
ꝓ	-14876
선	-14877
신	-14878
ృ	-14879
ญ	-14880
็	-14881
咚	-14882
喂	-14883
崗	-14884
庙	-14885
欢	-14886
爆	-14887
琮	-14888
赵	-14889
込	-14890
경	-14891
정	-14892
Й	-14893
आ	-14894
咫	-14895
揆	-14896
曩	-14897
殉	-14898
瞽	-14899
窘	-14900
载	-14901
鱼	-14902
ˋ	-14903
්	-14904
亳	-14905
孀	-14906
惕	-14907
燾	-14908
瘟	-14909
簌	-14910
罹	-14911
苞	-14912
誑	-14913
辣	-14914
邈	-14915
驪	-14916
면	-14917
ү	-14918
伝	-14919
婺	-14920
巽	-14921
楼	-14922
瑯	-14923
盲	-14924
篋	-14925
ோ	-14926
ぱ	-14927
劃	-14928
势	-14929
堰	-14930
娉	-14931
嶠	-14932
梭	-14933
漓	-14934
线	-14935
詆	-14936
蹌	-14937
鄜	-14938
ɗ	-14939
̅	-14940
ು	-14941
刎	-14942
咯	-14943
扼	-14944
摹	-14945
昉	-14946
砲	-14947
筑	-14948
膩	-14949
騁	-14950
ʋ	-14951
ղ	-14952
պ	-14953
双	-14954
啻	-14955
柟	-14956
毕	-14957
猾	-14958
瓏	-14959
隕	-14960
ʀ	-14961
ܐ	-14962
ར	-14963
凈	-14964
劝	-14965
勻	-14966
嵐	-14967
広	-14968
昱	-14969
楮	-14970
温	-14971
灯	-14972
穰	-14973
誌	-14974
蹺	-14975
选	-14976
韩	-14977
馭	-14978
伽	-14979
実	-14980
彗	-14981
沆	-14982
煬	-14983
瞥	-14984
箴	-14985
舫	-14986
蒂	-14987
軻	-14988
遗	-14989
铁	-14990
幄	-14991
犢	-14992
罄	-14993
肘	-14994
芽	-14995
蒯	-14996
裸	-14997
识	-14998
踅	-14999
闇	-15000
闋	-15001
소	-15002
일	-15003
ˑ	-15004
ੀ	-15005
ವ	-15006
ི	-15007
Ὁ	-15008
ギ	-15009
园	-15010
搔	-15011
睬	-15012
舵	-15013
坪	-15014
尿	-15015
憨	-15016
挪	-15017
攤	-15018
牖	-15019
肱	-15020
脚	-15021
舶	-15022
贾	-15023
趾	-15024
迢	-15025
鞏	-15026
颯	-15027
馴	-15028
군	-15029
ನ	-15030
ằ	-15031
庠	-15032
眸	-15033
笔	-15034
粹	-15035
糕	-15036
誡	-15037
諦	-15038
에	-15039
į	-15040
ภ	-15041
ὗ	-15042
决	-15043
况	-15044
囂	-15045
晓	-15046
梦	-15047
汙	-15048
溶	-15049
潦	-15050
瓢	-15051
薇	-15052
閘	-15053
雹	-15054
顔	-15055
어	-15056
թ	-15057
ಿ	-15058
‍	-15059
ソ	-15060
ヒ	-15061
寻	-15062
撻	-15063
槨	-15064
洒	-15065
滌	-15066
瀬	-15067
絨	-15068
脖	-15069
龕	-15070
ɓ	-15071
ɯ	-15072
ɳ	-15073
բ	-15074
ự	-15075
✘	-15076
墾	-15077
惆	-15078
懨	-15079
椿	-15080
淩	-15081
肋	-15082
腑	-15083
袒	-15084
跛	-15085
鄲	-15086
鲁	-15087
문	-15088
부	-15089
└	-15090
ホ	-15091
仄	-15092
仪	-15093
摯	-15094
斲	-15095
毓	-15096
盎	-15097
虚	-15098
賃	-15099
饅	-15100
로	-15101
ɖ	-15102
ھ	-15103
ড	-15104
ழ	-15105
ἷ	-15106
嘶	-15107
捺	-15108
烟	-15109
瞭	-15110
粱	-15111
蔚	-15112
谈	-15113
败	-15114
銖	-15115
တ	-15116
俶	-15117
匝	-15118
帘	-15119
帚	-15120
禎	-15121
葺	-15122
醬	-15123
骑	-15124
상	-15125
ා	-15126
ể	-15127
₩	-15128
倌	-15129
养	-15130
嘈	-15131
嬖	-15132
熾	-15133
瓣	-15134
罐	-15135
臚	-15136
鈀	-15137
鈍	-15138
黼	-15139
Մ	-15140
ظ	-15141
ത	-15142
ေ	-15143
∆	-15144
俅	-15145
様	-15146
燔	-15147
爻	-15148
砥	-15149
礪	-15150
窯	-15151
职	-15152
芷	-15153
蚊	-15154
衿	-15155
豊	-15156
凹	-15157
妮	-15158
帑	-15159
惺	-15160
憔	-15161
旒	-15162
胭	-15163
説	-15164
误	-15165
谁	-15166
鑲	-15167
鞫	-15168
공	-15169
ʈ	-15170
ఓ	-15171
屎	-15172
巔	-15173
徭	-15174
掾	-15175
羸	-15176
蕖	-15177
调	-15178
豚	-15179
무	-15180
ˇ	-15181
խ	-15182
ា	-15183
哦	-15184
堶	-15185
巹	-15186
廿	-15187
润	-15188
渝	-15189
澎	-15190
煤	-15191
璘	-15192
盗	-15193
繒	-15194
証	-15195
轂	-15196
迦	-15197
顺	-15198
교	-15199
̝	-15200
ছ	-15201
ད	-15202
შ	-15203
ὃ	-15204
ザ	-15205
徼	-15206
悽	-15207
汜	-15208
腋	-15209
臻	-15210
顓	-15211
오	-15212
ɬ	-15213
ः	-15214
ᠠ	-15215
卉	-15216
噓	-15217
墊	-15218
娜	-15219
彘	-15220
拊	-15221
旄	-15222
椽	-15223
橘	-15224
沁	-15225
滎	-15226
珀	-15227
眞	-15228
荣	-15229
蠹	-15230
謄	-15231
譙	-15232
让	-15233
鎧	-15234
鐲	-15235
顫	-15236
ਸ	-15237
அ	-15238
ษ	-15239
გ	-15240
ネ	-15241
乩	-15242
价	-15243
划	-15244
弃	-15245
拶	-15246
泪	-15247
滸	-15248
爸	-15249
琥	-15250
类	-15251
誆	-15252
邃	-15253
雒	-15254
騫	-15255
제	-15256
해	-15257
ਕ	-15258
പ	-15259
ḻ	-15260
斐	-15261
牘	-15262
詡	-15263
邠	-15264
黏	-15265
︁	-15266
ང	-15267
ṫ	-15268
ừ	-15269
ゲ	-15270
ヤ	-15271
仝	-15272
傭	-15273
廡	-15274
彤	-15275
愷	-15276
执	-15277
旛	-15278
毗	-15279
漾	-15280
煜	-15281
緇	-15282
萼	-15283
郗	-15284
鏤	-15285
顰	-15286
驾	-15287
鵡	-15288
黥	-15289
ں	-15290
າ	-15291
争	-15292
圉	-15293
孛	-15294
徳	-15295
磯	-15296
縈	-15297
翡	-15298
翦	-15299
蒞	-15300
费	-15301
邛	-15302
郤	-15303
隐	-15304
雋	-15305
͘	-15306
Ս	-15307
រ	-15308
Ὀ	-15309
┌	-15310
侑	-15311
啄	-15312
录	-15313
沓	-15314
溉	-15315
瘞	-15316
篩	-15317
统	-15318
翕	-15319
蒿	-15320
虫	-15321
覿	-15322
颼	-15323
ɒ	-15324
Ь	-15325
ծ	-15326
※	-15327
夤	-15328
洎	-15329
牝	-15330
犁	-15331
礦	-15332
稠	-15333
窦	-15334
謚	-15335
譖	-15336
踉	-15337
輜	-15338
迹	-15339
醇	-15340
錐	-15341
김	-15342
က	-15343
伤	-15344
喃	-15345
噥	-15346
噹	-15347
嫦	-15348
珙	-15349
盥	-15350
瞅	-15351
藪	-15352
鞅	-15353
頡	-15354
연	-15355
𒀀	-15356
খ	-15357
図	-15358
嵬	-15359
懌	-15360
杲	-15361
禳	-15362
运	-15363
郃	-15364
銃	-15365
鋸	-15366
┐	-15367
寮	-15368
瀾	-15369
皿	-15370
鈕	-15371
라	-15372
마	-15373
안	-15374
양	-15375
Հ	-15376
ے	-15377
ര	-15378
ẩ	-15379
戳	-15380
掐	-15381
曙	-15382
曦	-15383
湣	-15384
癮	-15385
聒	-15386
虯	-15387
蹶	-15388
շ	-15389
थ	-15390
ீ	-15391
མ	-15392
咄	-15393
囗	-15394
愣	-15395
摶	-15396
沔	-15397
涸	-15398
澳	-15399
瑁	-15400
癒	-15401
縉	-15402
脹	-15403
艮	-15404
邏	-15405
驀	-15406
鳧	-15407
금	-15408
학	-15409
བ	-15410
ᴗ	-15411
⊥	-15412
习	-15413
仵	-15414
儷	-15415
夸	-15416
搠	-15417
櫓	-15418
歉	-15419
滁	-15420
纜	-15421
踰	-15422
蹬	-15423
閫	-15424
।	-15425
ఉ	-15426
ఫ	-15427
ಂ	-15428
മ	-15429
ḇ	-15430
◇	-15431
ヴ	-15432
佢	-15433
冑	-15434
幟	-15435
弭	-15436
掬	-15437
桥	-15438
薊	-15439
谋	-15440
谿	-15441
闥	-15442
강	-15443
Ĵ	-15444
ǂ	-15445
ȟ	-15446
ங	-15447
ം	-15448
ട	-15449
儔	-15450
务	-15451
哽	-15452
巒	-15453
济	-15454
犧	-15455
珂	-15456
眇	-15457
窕	-15458
窠	-15459
綜	-15460
药	-15461
装	-15462
趲	-15463
鷺	-15464
ಗ	-15465
კ	-15466
啐	-15467
嗅	-15468
嘖	-15469
堣	-15470
揩	-15471
撕	-15472
权	-15473
淤	-15474
琊	-15475
瘠	-15476
篙	-15477
謾	-15478
齧	-15479
영	-15480
ং	-15481
০	-15482
ผ	-15483
န	-15484
ẖ	-15485
◼	-15486
佗	-15487
剁	-15488
屆	-15489
慄	-15490
槊	-15491
洙	-15492
珮	-15493
瑪	-15494
癰	-15495
詈	-15496
遑	-15497
餒	-15498
齪	-15499
남	-15500
진	-15501
佘	-15502
偎	-15503
嗤	-15504
塹	-15505
扑	-15506
洁	-15507
瀑	-15508
瀘	-15509
烽	-15510
猩	-15511
竦	-15512
蔵	-15513
誚	-15514
閬	-15515
ǽ	-15516
ூ	-15517
ಕ	-15518
ර	-15519
型	-15520
堨	-15521
墀	-15522
庖	-15523
廄	-15524
慳	-15525
暄	-15526
暹	-15527
瀝	-15528
现	-15529
絃	-15530
芮	-15531
蠍	-15532
覃	-15533
錡	-15534
閹	-15535
闡	-15536
호	-15537
զ	-15538
剮	-15539
吻	-15540
幔	-15541
弈	-15542
梆	-15543
殄	-15544
訥	-15545
鐙	-15546
馥	-15547
鴟	-15548
비	-15549
Ă	-15550
ը	-15551
ொ	-15552
ặ	-15553
埠	-15554
憊	-15555
繭	-15556
艺	-15557
茸	-15558
訾	-15559
詎	-15560
鉗	-15561
ʇ	-15562
Ы	-15563
ਹ	-15564
ఘ	-15565
ἥ	-15566
僑	-15567
戏	-15568
搦	-15569
杼	-15570
氛	-15571
浅	-15572
漬	-15573
燎	-15574
祉	-15575
綵	-15576
肃	-15577
苏	-15578
觥	-15579
该	-15580
豺	-15581
餚	-15582
鼾	-15583
˧	-15584
ਿ	-15585
Ἱ	-15586
丽	-15587
堥	-15588
姒	-15589
寰	-15590
斫	-15591
术	-15592
濛	-15593
灭	-15594
爍	-15595
砒	-15596
締	-15597
薔	-15598
触	-15599
赋	-15600
锦	-15601
队	-15602
齷	-15603
乜	-15604
侃	-15605
噬	-15606
忧	-15607
楽	-15608
汶	-15609
狽	-15610
礬	-15611
芹	-15612
诉	-15613
賒	-15614
赏	-15615
陆	-15616
	-15617
Ə	-15618
Ъ	-15619
ֽ	-15620
ᾷ	-15621
佇	-15622
吠	-15623
嘸	-15624
愴	-15625
昴	-15626
枪	-15627
檐	-15628
淇	-15629
珣	-15630
笄	-15631
藜	-15632
黠	-15633
ಪ	-15634
ུ	-15635
ỏ	-15636
乂	-15637
伉	-15638
嗇	-15639
囿	-15640
弋	-15641
恶	-15642
撾	-15643
汛	-15644
涅	-15645
涿	-15646
渤	-15647
滇	-15648
潺	-15649
状	-15650
穷	-15651
茹	-15652
鏐	-15653
鏘	-15654
阴	-15655
颜	-15656
饭	-15657
麋	-15658
보	-15659
ɜ	-15660
ষ	-15661
ි	-15662
剜	-15663
劳	-15664
崽	-15665
棵	-15666
燮	-15667
猊	-15668
膛	-15669
茵	-15670
菽	-15671
鎚	-15672
鏈	-15673
馆	-15674
騭	-15675
여	-15676
ܝ	-15677
ὠ	-15678
哺	-15679
塾	-15680
彦	-15681
獐	-15682
璟	-15683
簸	-15684
諍	-15685
諜	-15686
赞	-15687
미	-15688
우	-15689
ͦ	-15690
қ	-15691
ක	-15692
ถ	-15693
ქ	-15694
Ῥ	-15695
∘	-15696
∩	-15697
ペ	-15698
ㄢ	-15699
佬	-15700
叹	-15701
户	-15702
殞	-15703
泯	-15704
浹	-15705
淌	-15706
濂	-15707
熄	-15708
疵	-15709
疽	-15710
磊	-15711
総	-15712
苓	-15713
諺	-15714
輻	-15715
는	-15716
̩	-15717
ਂ	-15718
ḡ	-15719
搽	-15720
晷	-15721
滓	-15722
甌	-15723
糠	-15724
臏	-15725
艇	-15726
菑	-15727
蹴	-15728
邐	-15729
顥	-15730
鰥	-15731
ǵ	-15732
ृ	-15733
ఠ	-15734
ტ	-15735
▼	-15736
ㄥ	-15737
严	-15738
启	-15739
呻	-15740
噤	-15741
噯	-15742
弧	-15743
旃	-15744
曇	-15745
曬	-15746
朮	-15747
泮	-15748
涌	-15749
猥	-15750
盘	-15751
稔	-15752
简	-15753
箏	-15754
紿	-15755
胳	-15756
衽	-15757
袈	-15758
裾	-15759
讖	-15760
騶	-15761
鯨	-15762
ǧ	-15763
ɸ	-15764
ხ	-15765
║	-15766
噲	-15767
孥	-15768
桜	-15769
槳	-15770
泌	-15771
洮	-15772
煇	-15773
獠	-15774
癖	-15775
皈	-15776
碣	-15777
紐	-15778
舂	-15779
茄	-15780
衲	-15781
训	-15782
蹟	-15783
軋	-15784
隰	-15785
韵	-15786
駛	-15787
驃	-15788
鶚	-15789
鷂	-15790
삼	-15791
ɽ	-15792
̑	-15793
॥	-15794
ല	-15795
Ṛ	-15796
⊗	-15797
刚	-15798
剋	-15799
啜	-15800
喟	-15801
嚕	-15802
嚮	-15803
幢	-15804
扬	-15805
抃	-15806
捎	-15807
渐	-15808
瀨	-15809
磐	-15810
箐	-15811
继	-15812
裟	-15813
贞	-15814
负	-15815
郴	-15816
雩	-15817
靳	-15818
鞘	-15819
鷓	-15820
ပ	-15821
ォ	-15822
嬋	-15823
愍	-15824
懵	-15825
沅	-15826
渥	-15827
瘴	-15828
経	-15829
繚	-15830
葭	-15831
财	-15832
鎬	-15833
鐧	-15834
霏	-15835
鸡	-15836
黿	-15837
𒀭	-15838
˥	-15839
Կ	-15840
ռ	-15841
യ	-15842
ན	-15843
Ἔ	-15844
┘	-15845
嚀	-15846
圮	-15847
嬈	-15848
嬴	-15849
恚	-15850
戕	-15851
涪	-15852
渙	-15853
獗	-15854
筷	-15855
縧	-15856
艄	-15857
赳	-15858
逡	-15859
遥	-15860
閶	-15861
韁	-15862
驤	-15863
세	-15864
ʆ	-15865
ર	-15866
න	-15867
∙	-15868
壩	-15869
屨	-15870
嵇	-15871
惴	-15872
摳	-15873
昵	-15874
残	-15875
盱	-15876
臆	-15877
艘	-15878
訶	-15879
诚	-15880
蹕	-15881
辅	-15882
迓	-15883
鎰	-15884
Ĭ	-15885
ಡ	-15886
ೆ	-15887
ṳ	-15888
₽	-15889
专	-15890
佶	-15891
吱	-15892
啕	-15893
悪	-15894
护	-15895
汤	-15896
琼	-15897
竣	-15898
缘	-15899
翱	-15900
臊	-15901
芭	-15902
藺	-15903
謳	-15904
跣	-15905
迁	-15906
鄔	-15907
꞉	-15908
명	-15909
회	-15910
	-15911
ٱ	-15912
उ	-15913
ভ	-15914
ึ	-15915
ក	-15916
ỗ	-15917
⃥	-15918
剽	-15919
叡	-15920
叵	-15921
埭	-15922
埵	-15923
宾	-15924
幘	-15925
桅	-15926
溟	-15927
炸	-15928
瘧	-15929
発	-15930
笨	-15931
膂	-15932
誹	-15933
郷	-15934
铜	-15935
闐	-15936
闲	-15937
騏	-15938
骰	-15939
창	-15940
청	-15941
Բ	-15942
ठ	-15943
অ	-15944
വ	-15945
ḱ	-15946
⊕	-15947
剡	-15948
匕	-15949
噗	-15950
垓	-15951
塋	-15952
彀	-15953
扃	-15954
欹	-15955
潯	-15956
炫	-15957
炯	-15958
燙	-15959
畀	-15960
痢	-15961
睨	-15962
聿	-15963
脆	-15964
脱	-15965
腴	-15966
謅	-15967
髡	-15968
은	-15969
ɟ	-15970
̴	-15971
फ	-15972
ౌ	-15973
ซ	-15974
ရ	-15975
ង	-15976
ស	-15977
咿	-15978
堀	-15979
忱	-15980
拏	-15981
撼	-15982
榴	-15983
泠	-15984
澈	-15985
燧	-15986
瓘	-15987
窖	-15988
縹	-15989
纳	-15990
舀	-15991
詬	-15992
譎	-15993
豢	-15994
賚	-15995
迟	-15996
醺	-15997
ƛ	-15998
ौ	-15999
ਨ	-16000
ṓ	-16001
⊆	-16002
✻	-16003
亶	-16004
企	-16005
凤	-16006
寝	-16007
搪	-16008
昶	-16009
汰	-16010
猻	-16011
畦	-16012
稜	-16013
箔	-16014
縻	-16015
舁	-16016
蛛	-16017
蟆	-16018
补	-16019
资	-16020
蹋	-16021
鉉	-16022
际	-16023
요	-16024
ʺ	-16025
Ե	-16026
ြ	-16027
₴	-16028
⏺	-16029
哮	-16030
嚨	-16031
塍	-16032
摭	-16033
显	-16034
热	-16035
紘	-16036
蘸	-16037
蚌	-16038
蜃	-16039
蜚	-16040
蠆	-16041
鍛	-16042
鐫	-16043
ɹ	-16044
Ё	-16045
ڠ	-16046
ܘ	-16047
↗	-16048
响	-16049
団	-16050
惲	-16051
戢	-16052
斡	-16053
槃	-16054
歙	-16055
烝	-16056
燼	-16057
琰	-16058
舄	-16059
莘	-16060
葆	-16061
諮	-16062
豨	-16063
韦	-16064
頊	-16065
ً	-16066
ལ	-16067
ὤ	-16068
ぽ	-16069
傕	-16070
凄	-16071
妗	-16072
撿	-16073
攫	-16074
敌	-16075
淸	-16076
澧	-16077
瀕	-16078
禺	-16079
紜	-16080
莎	-16081
萱	-16082
蛤	-16083
蟄	-16084
赭	-16085
鉅	-16086
靑	-16087
黻	-16088
齣	-16089
단	-16090
	-16091
Ţ	-16092
ˁ	-16093
˨	-16094
Գ	-16095
օ	-16096
Ḍ	-16097
ὧ	-16098
☞	-16099
ユ	-16100
ㄣ	-16101
勖	-16102
卮	-16103
围	-16104
嶂	-16105
恂	-16106
懾	-16107
曄	-16108
櫛	-16109
爨	-16110
猝	-16111
畋	-16112
瞳	-16113
禕	-16114
稹	-16115
籩	-16116
紧	-16117
脣	-16118
蘋	-16119
訐	-16120
遨	-16121
閂	-16122
閼	-16123
閽	-16124
饃	-16125
계	-16126
џ	-16127
ਵ	-16128
ੁ	-16129
ῤ	-16130
☖	-16131
侖	-16132
劊	-16133
咁	-16134
嘿	-16135
拌	-16136
摜	-16137
摺	-16138
楠	-16139
殤	-16140
瑋	-16141
瑙	-16142
襦	-16143
覘	-16144
辈	-16145
鏗	-16146
閎	-16147
饞	-16148
포	-16149
ӑ	-16150
ය	-16151
‬	-16152
∀	-16153
◐	-16154
卡	-16155
吕	-16156
媵	-16157
择	-16158
漣	-16159
澡	-16160
猗	-16161
瑀	-16162
电	-16163
瘸	-16164
絛	-16165
肄	-16166
蓀	-16167
蓼	-16168
蕤	-16169
鑊	-16170
阁	-16171
유	-16172
Ğ	-16173
Ɔ	-16174
घ	-16175
♥	-16176
ㄚ	-16177
ㄩ	-16178
圆	-16179
埽	-16180
墉	-16181
変	-16182
宠	-16183
岭	-16184
嶇	-16185
弑	-16186
怙	-16187
愜	-16188
榛	-16189
櫥	-16190
硝	-16191
紡	-16192
翬	-16193
苴	-16194
蓑	-16195
褪	-16196
覬	-16197
较	-16198
邳	-16199
邾	-16200
광	-16201
모	-16202
평	-16203
	-16204
Ķ	-16205
ׂ	-16206
ॐ	-16207
এ	-16208
ও	-16209
ੇ	-16210
ස	-16211
ន	-16212
ヨ	-16213
优	-16214
倜	-16215
儕	-16216
呷	-16217
咀	-16218
喙	-16219
奋	-16220
姝	-16221
岷	-16222
帰	-16223
废	-16224
柿	-16225
沌	-16226
癲	-16227
稲	-16228
筏	-16229
縞	-16230
舛	-16231
諕	-16232
貺	-16233
钟	-16234
鸟	-16235
니	-16236
𐒖	-16237
	-16238
־	-16239
ಸ	-16240
ු	-16241
འ	-16242
ᵹ	-16243
⊂	-16244
〇	-16245
侉	-16246
击	-16247
奥	-16248
宽	-16249
彧	-16250
慵	-16251
擯	-16252
攆	-16253
櫳	-16254
氤	-16255
氳	-16256
湜	-16257
灸	-16258
皙	-16259
祸	-16260
穡	-16261
糶	-16262
臍	-16263
臯	-16264
茨	-16265
醪	-16266
鍵	-16267
駑	-16268
驂	-16269
鷗	-16270
鼋	-16271
ȋ	-16272
ँ	-16273
⚭	-16274
儐	-16275
匍	-16276
巻	-16277
柘	-16278
槓	-16279
殲	-16280
炷	-16281
玳	-16282
甬	-16283
磴	-16284
簧	-16285
纛	-16286
臀	-16287
萄	-16288
责	-16289
蹉	-16290
輾	-16291
鄢	-16292
髒	-16293
관	-16294
내	-16295
현	-16296
ದ	-16297
ව	-16298
ฟ	-16299
ེ	-16300
ን	-16301
ヽ	-16302
偌	-16303
啷	-16304
啾	-16305
壟	-16306
娑	-16307
廨	-16308
态	-16309
换	-16310
泽	-16311
琬	-16312
璇	-16313
畹	-16314
祜	-16315
窒	-16316
緬	-16317
维	-16318
罈	-16319
蘅	-16320
蛙	-16321
谨	-16322
贡	-16323
跺	-16324
酤	-16325
鲜	-16326
鶻	-16327
Ċ	-16328
̰	-16329
͟	-16330
ӧ	-16331
इ	-16332
ए	-16333
ਦ	-16334
ಯ	-16335
ት	-16336
ヾ	-16337
买	-16338
儆	-16339
姫	-16340
惘	-16341
慍	-16342
擰	-16343
珩	-16344
粮	-16345
紊	-16346
絀	-16347
腆	-16348
舡	-16349
芋	-16350
萋	-16351
詛	-16352
鑠	-16353
髦	-16354
분	-16355
𒌋	-16356
ң	-16357
Ն	-16358
ণ	-16359
২	-16360
ತ	-16361
ള	-16362
သ	-16363
▪	-16364
ゥ	-16365
倨	-16366
劭	-16367
匐	-16368
嫵	-16369
扔	-16370
斋	-16371
旻	-16372
熔	-16373
环	-16374
畤	-16375
盃	-16376
稗	-16377
稣	-16378
綑	-16379
茯	-16380
蒜	-16381
訃	-16382
詘	-16383
賻	-16384
贺	-16385
輓	-16386
逅	-16387
鐺	-16388
閤	-16389
鶉	-16390
태	-16391
˩	-16392
ӏ	-16393
ఞ	-16394
ఢ	-16395
ಲ	-16396
‮	-16397
↺	-16398
ㄤ	-16399
乌	-16400
乒	-16401
勣	-16402
囤	-16403
婊	-16404
宕	-16405
屐	-16406
廛	-16407
弥	-16408
愨	-16409
擴	-16410
栄	-16411
煨	-16412
祧	-16413
窿	-16414
綦	-16415
蘧	-16416
踹	-16417
邂	-16418
鍊	-16419
북	-16420
Ď	-16421
Ĥ	-16422
̚	-16423
ڤ	-16424
উ	-16425
ᠨ	-16426
ỉ	-16427
ゼ	-16428
ヘ	-16429
ㄞ	-16430
侧	-16431
兑	-16432
冲	-16433
坚	-16434
垛	-16435
墅	-16436
宓	-16437
徨	-16438
您	-16439
扰	-16440
擡	-16441
猢	-16442
獰	-16443
瓷	-16444
矗	-16445
碾	-16446
礫	-16447
秣	-16448
笥	-16449
罡	-16450
耘	-16451
膿	-16452
誄	-16453
軼	-16454
辽	-16455
释	-16456
鋮	-16457
阡	-16458
鷲	-16459
鸣	-16460
랑	-16461
운	-16462
위	-16463
트	-16464
Ո	-16465
ܪ	-16466
छ	-16467
ধ	-16468
ਤ	-16469
இ	-16470
ㄓ	-16471
亻	-16472
僂	-16473
农	-16474
唉	-16475
噎	-16476
懮	-16477
旂	-16478
暝	-16479
殽	-16480
煢	-16481
狻	-16482
玫	-16483
甑	-16484
痘	-16485
痞	-16486
盅	-16487
硫	-16488
禋	-16489
纸	-16490
耒	-16491
膈	-16492
荻	-16493
蓍	-16494
褊	-16495
豸	-16496
鐮	-16497
髭	-16498
鰲	-16499
월	-16500
Є	-16501
ಳ	-16502
လ	-16503
傀	-16504
净	-16505
剣	-16506
塩	-16507
彖	-16508
撂	-16509
昺	-16510
棕	-16511
渦	-16512
滲	-16513
烙	-16514
珥	-16515
盹	-16516
紓	-16517
苻	-16518
葩	-16519
蕓	-16520
詁	-16521
読	-16522
讜	-16523
躕	-16524
逶	-16525
鄖	-16526
鄱	-16527
鏖	-16528
阵	-16529
隗	-16530
靛	-16531
韃	-16532
饰	-16533
그	-16534
ɤ	-16535
ӗ	-16536
ਪ	-16537
ਲ	-16538
ම	-16539
฿	-16540
ກ	-16541
ງ	-16542
仅	-16543
剑	-16544
呱	-16545
咂	-16546
咆	-16547
妳	-16548
媾	-16549
対	-16550
屜	-16551
帅	-16552
帮	-16553
悒	-16554
搢	-16555
槌	-16556
烦	-16557
痺	-16558
纵	-16559
脛	-16560
螢	-16561
衄	-16562
衕	-16563
趺	-16564
釗	-16565
鎸	-16566
꧀	-16567
래	-16568
을	-16569
종	-16570
𒌓	-16571
Ę	-16572
ɩ	-16573
ञ	-16574
ગ	-16575
ಅ	-16576
ත	-16577
ນ	-16578
အ	-16579
့	-16580
减	-16581
唄	-16582
圄	-16583
夺	-16584
妤	-16585
岛	-16586
徂	-16587
徠	-16588
拄	-16589
栖	-16590
樗	-16591
湮	-16592
滝	-16593
瓠	-16594
疋	-16595
簟	-16596
茜	-16597
荇	-16598
蜒	-16599
详	-16600
貔	-16601
贫	-16602
髏	-16603
鯁	-16604
齏	-16605
야	-16606
점	-16607
중	-16608
ई	-16609
ङ	-16610
શ	-16611
℟	-16612
∇	-16613
◊	-16614
ぴ	-16615
乓	-16616
亚	-16617
儋	-16618
卖	-16619
咾	-16620
喳	-16621
嗓	-16622
墙	-16623
奭	-16624
帙	-16625
悻	-16626
杂	-16627
杠	-16628
楣	-16629
烧	-16630
熨	-16631
眙	-16632
磋	-16633
籟	-16634
籮	-16635
紺	-16636
繃	-16637
虱	-16638
衚	-16639
裱	-16640
访	-16641
钜	-16642
顿	-16643
백	-16644
ळ	-16645
દ	-16646
વ	-16647
ച	-16648
റ	-16649
‟	-16650
◡	-16651
仮	-16652
儡	-16653
処	-16654
呸	-16655
妁	-16656
姣	-16657
寔	-16658
峪	-16659
崢	-16660
恵	-16661
捫	-16662
擘	-16663
洺	-16664
焙	-16665
牵	-16666
璫	-16667
盐	-16668
睫	-16669
絵	-16670
级	-16671
续	-16672
网	-16673
羆	-16674
螟	-16675
螭	-16676
讨	-16677
谦	-16678
躔	-16679
遘	-16680
酢	-16681
錮	-16682
飆	-16683
鮫	-16684
鰍	-16685
龠	-16686
석	-16687
식	-16688
치	-16689
͞	-16690
ܬ	-16691
ৰ	-16692
စ	-16693
ប	-16694
ぃ	-16695
侔	-16696
匏	-16697
哧	-16698
唳	-16699
売	-16700
屹	-16701
嶸	-16702
怛	-16703
抉	-16704
拎	-16705
榔	-16706
汽	-16707
沱	-16708
湾	-16709
煽	-16710
瑛	-16711
禀	-16712
禰	-16713
簍	-16714
籐	-16715
絰	-16716
耦	-16717
葡	-16718
蛆	-16719
觔	-16720
詵	-16721
赧	-16722
醞	-16723
鈺	-16724
闭	-16725
阙	-16726
靶	-16727
驰	-16728
鳶	-16729
년	-16730
민	-16731
박	-16732
용	-16733
ʑ	-16734
Ђ	-16735
ғ	-16736
ֻ	-16737
ܢ	-16738
ਆ	-16739
ಮ	-16740
ម	-16741
∫	-16742
⋮	-16743
ⲛ	-16744
ⲟ	-16745
ㄐ	-16746
冽	-16747
勺	-16748
卢	-16749
厝	-16750
叙	-16751
壮	-16752
径	-16753
悸	-16754
擻	-16755
杓	-16756
桔	-16757
氵	-16758
猙	-16759
璜	-16760
産	-16761
竜	-16762
缶	-16763
羿	-16764
菟	-16765
蓴	-16766
蛉	-16767
讳	-16768
贇	-16769
踊	-16770
錚	-16771
阱	-16772
鞦	-16773
顙	-16774
预	-16775
게	-16776
물	-16777
	-16778
️	-16779
	-16780
Ĕ	-16781
પ	-16782
ఊ	-16783
ಠ	-16784
ල	-16785
ྱ	-16786
Ὑ	-16787
₸	-16788
◁	-16789
ぷ	-16790
ヌ	-16791
児	-16792
喀	-16793
嘏	-16794
壕	-16795
婕	-16796
孳	-16797
岗	-16798
帔	-16799
悛	-16800
拇	-16801
撬	-16802
晩	-16803
柜	-16804
梏	-16805
満	-16806
滂	-16807
滬	-16808
煦	-16809
猫	-16810
痿	-16811
瞋	-16812
砧	-16813
祛	-16814
禅	-16815
紆	-16816
緲	-16817
耙	-16818
膾	-16819
蛩	-16820
観	-16821
諶	-16822
贪	-16823
蹂	-16824
隳	-16825
駄	-16826
驄	-16827
ꜥ	-16828
바	-16829
역	-16830
Ź	-16831
ɵ	-16832
Љ	-16833
Ӏ	-16834
ێ	-16835
ফ	-16836
ਮ	-16837
ા	-16838
ఱ	-16839
ျ	-16840
ត	-16841
Ẓ	-16842
ẵ	-16843
ẻ	-16844
Ἁ	-16845
Ἕ	-16846
∃	-16847
∥	-16848
╪	-16849
♈	-16850
ⲁ	-16851
刈	-16852
囹	-16853
堛	-16854
堞	-16855
夬	-16856
妣	-16857
尻	-16858
崆	-16859
昼	-16860
殛	-16861
毁	-16862
汨	-16863
琛	-16864
疥	-16865
癘	-16866
篁	-16867
绿	-16868
蜍	-16869
螫	-16870
辺	-16871
逹	-16872
郅	-16873
醢	-16874
靚	-16875
당	-16876
를	-16877
𐤟	-16878
ધ	-16879
ಞ	-16880
ප	-16881
๐	-16882
ẏ	-16883
Ὅ	-16884
〴	-16885
ぺ	-16886
倣	-16887
卧	-16888
啰	-16889
埴	-16890
娠	-16891
媯	-16892
导	-16893
峴	-16894
帐	-16895
慝	-16896
杌	-16897
棱	-16898
檔	-16899
秧	-16900
籓	-16901
糸	-16902
羣	-16903
耨	-16904
聆	-16905
联	-16906
虑	-16907
虺	-16908
蜘	-16909
蝠	-16910
襆	-16911
谕	-16912
赠	-16913
躅	-16914
轩	-16915
邴	-16916
鑣	-16917
陲	-16918
韆	-16919
顒	-16920
顱	-16921
饉	-16922
馀	-16923
騮	-16924
鴣	-16925
𒁺	-16926
˦	-16927
ੰ	-16928
ஆ	-16929
സ	-16930
ວ	-16931
້	-16932
།	-16933
ἧ	-16934
丝	-16935
伋	-16936
兕	-16937
协	-16938
咋	-16939
咦	-16940
哂	-16941
哆	-16942
嚐	-16943
嫻	-16944
枳	-16945
栻	-16946
毯	-16947
泳	-16948
爿	-16949
犄	-16950
猪	-16951
玨	-16952
甩	-16953
瘤	-16954
碭	-16955
祕	-16956
綝	-16957
聃	-16958
舐	-16959
莲	-16960
获	-16961
裰	-16962
詼	-16963
鏊	-16964
鐐	-16965
険	-16966
韭	-16967
额	-16968
飼	-16969
鯀	-16970
鴿	-16971
鼉	-16972
Ꜣ	-16973
과	-16974
덕	-16975
방	-16976
암	-16977
차	-16978
터	-16979
	-16980
ʎ	-16981
ؤ	-16982
ੋ	-16983
થ	-16984
ᠢ	-16985
ᠤ	-16986
∟	-16987
❌	-16988
ぇ	-16989
产	-16990
仓	-16991
偓	-16992
册	-16993
尧	-16994
嶷	-16995
廻	-16996
愀	-16997
拥	-16998
搓	-16999
杪	-17000
榕	-17001
歛	-17002
浼	-17003
涔	-17004
渣	-17005
湟	-17006
潢	-17007
濺	-17008
獣	-17009
瘳	-17010
睽	-17011
磷	-17012
禘	-17013
縋	-17014
编	-17015
胙	-17016
荏	-17017
跖	-17018
鐃	-17019
陔	-17020
颺	-17021
饥	-17022
騖	-17023
드	-17024
만	-17025
	-17026
Ŏ	-17027
Ћ	-17028
Վ	-17029
ढ	-17030
১	-17031
ങ	-17032
ອ	-17033
ະ	-17034
ྲ	-17035
ှ	-17036
℥	-17037
♣	-17038
ㄌ	-17039
伪	-17040
剧	-17041
堿	-17042
嫋	-17043
孌	-17044
尬	-17045
嵯	-17046
惧	-17047
憒	-17048
捽	-17049
朏	-17050
櫟	-17051
殫	-17052
淖	-17053
皖	-17054
盪	-17055
矧	-17056
礎	-17057
祫	-17058
籙	-17059
纷	-17060
芦	-17061
芾	-17062
苕	-17063
莞	-17064
蒺	-17065
蚩	-17066
蜿	-17067
蠕	-17068
謐	-17069
貰	-17070
鉦	-17071
鉴	-17072
雎	-17073
驩	-17074
髫	-17075
Ꜥ	-17076
곡	-17077
두	-17078
	-17079
ĺ	-17080
ǰ	-17081
Պ	-17082
ٹ	-17083
ژ	-17084
உ	-17085
ຫ	-17086
ເ	-17087
ẫ	-17088
⋯	-17089
嘮	-17090
嚎	-17091
嚭	-17092
囷	-17093
悦	-17094
抚	-17095
撅	-17096
暂	-17097
枋	-17098
櫺	-17099
潜	-17100
积	-17101
簋	-17102
籲	-17103
纊	-17104
舆	-17105
苒	-17106
蝌	-17107
詮	-17108
讞	-17109
钦	-17110
闘	-17111
陘	-17112
飴	-17113
鱷	-17114
鴆	-17115
거	-17116
ǚ	-17117
ΰ	-17118
ջ	-17119
ܡ	-17120
झ	-17121
ક	-17122
ყ	-17123
ᠯ	-17124
ṡ	-17125
Ἥ	-17126
⏖	-17127
ㄍ	-17128
伦	-17129
凉	-17130
凸	-17131
创	-17132
囀	-17133
壙	-17134
惋	-17135
澠	-17136
瀦	-17137
炤	-17138
燁	-17139
磔	-17140
縑	-17141
绣	-17142
罅	-17143
胯	-17144
蔗	-17145
蜡	-17146
螻	-17147
趴	-17148
鉏	-17149
鋹	-17150
閥	-17151
验	-17152
鬃	-17153
魘	-17154
փ	-17155
ܕ	-17156
থ	-17157
ା	-17158
ද	-17159
ฐ	-17160
ລ	-17161
པ	-17162
ር	-17163
Ἠ	-17164
╧	-17165
▉	-17166
ㄕ	-17167
ㄠ	-17168
偁	-17169
办	-17170
嗖	-17171
屣	-17172
戇	-17173
摇	-17174
斩	-17175
椰	-17176
毘	-17177
瑭	-17178
睇	-17179
窃	-17180
籥	-17181
膜	-17182
菅	-17183
虡	-17184
螞	-17185
覚	-17186
貉	-17187
贐	-17188
质	-17189
輳	-17190
阯	-17191
隧	-17192
顷	-17193
颶	-17194
鬬	-17195
鬲	-17196
Տ	-17197
ٰ	-17198
ܒ	-17199
ಟ	-17200
ფ	-17201
ᓂ	-17202
ἣ	-17203
⇔	-17204
✠	-17205
ぅ	-17206
ㄏ	-17207
仏	-17208
佻	-17209
倅	-17210
円	-17211
呦	-17212
嬙	-17213
尷	-17214
煒	-17215
燬	-17216
犴	-17217
狃	-17218
獺	-17219
瘁	-17220
砸	-17221
紇	-17222
縶	-17223
耜	-17224
莆	-17225
菴	-17226
袤	-17227
襠	-17228
诛	-17229
货	-17230
轆	-17231
酆	-17232
错	-17233
鯤	-17234
麤	-17235
黷	-17236
본	-17237
울	-17238
타	-17239
파	-17240
˺	-17241
Դ	-17242
ճ	-17243
္	-17244
ᡳ	-17245
ⲓ	-17246
ㄒ	-17247
倔	-17248
僦	-17249
凭	-17250
卬	-17251
唷	-17252
噙	-17253
壝	-17254
娣	-17255
担	-17256
旆	-17257
栩	-17258
楙	-17259
槎	-17260
橈	-17261
氓	-17262
湫	-17263
癆	-17264
竽	-17265
笳	-17266
粧	-17267
组	-17268
织	-17269
罌	-17270
羡	-17271
苫	-17272
菖	-17273
萎	-17274
薙	-17275
褶	-17276
襤	-17277
詒	-17278
讐	-17279
豳	-17280
贯	-17281
输	-17282
逄	-17283
逑	-17284
郯	-17285
鍪	-17286
韞	-17287
魴	-17288
음	-17289
𐤍	-17290
𒉌	-17291
ɥ	-17292
ਜ	-17293
ஞ	-17294
ಣ	-17295
ฮ	-17296
๊	-17297
ົ	-17298
ံ	-17299
ስ	-17300
ብ	-17301
ᐊ	-17302
ῴ	-17303
倾	-17304
剄	-17305
孑	-17306
掊	-17307
携	-17308
晡	-17309
晰	-17310
曝	-17311
柑	-17312
欷	-17313
泓	-17314
瑗	-17315
篾	-17316
蜈	-17317
袴	-17318
贱	-17319
遄	-17320
酩	-17321
酹	-17322
鏟	-17323
顗	-17324
顶	-17325
飧	-17326
骷	-17327
노	-17328
봉	-17329
𒉈	-17330
Ŋ	-17331
ɘ	-17332
һ	-17333
Ր	-17334
ಹ	-17335
ണ	-17336
ည	-17337
ᐦ	-17338
ុ	-17339
₲	-17340
⊢	-17341
ぉ	-17342
刳	-17343
姘	-17344
崧	-17345
库	-17346
旰	-17347
泫	-17348
瓮	-17349
畸	-17350
瘀	-17351
篦	-17352
蓂	-17353
蝙	-17354
译	-17355
陕	-17356
隄	-17357
驎	-17358
鬣	-17359
鹤	-17360
씨	-17361
적	-17362
홍	-17363
흥	-17364
	-17365
Ť	-17366
ʐ	-17367
ˉ	-17368
̟	-17369
Њ	-17370
ӣ	-17371
எ	-17372
ః	-17373
យ	-17374
♪	-17375
嚏	-17376
塈	-17377
娩	-17378
孱	-17379
宪	-17380
寘	-17381
抒	-17382
抜	-17383
晒	-17384
朒	-17385
淆	-17386
湄	-17387
溧	-17388
瀚	-17389
灾	-17390
痾	-17391
眚	-17392
眶	-17393
矚	-17394
絜	-17395
纍	-17396
罍	-17397
羶	-17398
荆	-17399
菶	-17400
萸	-17401
谱	-17402
违	-17403
遒	-17404
驿	-17405
魎	-17406
𒅗	-17407
Ą	-17408
Ń	-17409
ƿ	-17410
͜	-17411
ূ	-17412
െ	-17413
ฉ	-17414
ᒃ	-17415
⁣	-17416
⇌	-17417
ⲥ	-17418
ㄉ	-17419
刖	-17420
呔	-17421
咤	-17422
喰	-17423
嘰	-17424
嚙	-17425
囡	-17426
坍	-17427
塤	-17428
妆	-17429
媕	-17430
岌	-17431
慊	-17432
扞	-17433
扫	-17434
捋	-17435
敎	-17436
曖	-17437
柰	-17438
桎	-17439
梔	-17440
殂	-17441
淅	-17442
潸	-17443
灩	-17444
狱	-17445
痔	-17446
痣	-17447
矍	-17448
确	-17449
税	-17450
箝	-17451
絶	-17452
縲	-17453
缪	-17454
耻	-17455
腌	-17456
臢	-17457
荂	-17458
菁	-17459
葑	-17460
蓐	-17461
蛻	-17462
諉	-17463
贝	-17464
踪	-17465
蹭	-17466
醃	-17467
録	-17468
陬	-17469
隼	-17470
頼	-17471
魍	-17472
龟	-17473
ꜜ	-17474
궁	-17475
권	-17476
디	-17477
레	-17478
반	-17479
병	-17480
철	-17481
𐒒	-17482
𒁁	-17483
𒊩	-17484
˹	-17485
̷	-17486
͂	-17487
ϛ	-17488
ϝ	-17489
ґ	-17490
ҳ	-17491
ۇ	-17492
๑	-17493
ມ	-17494
ზ	-17495
እ	-17496
ᐃ	-17497
ᠣ	-17498
ἃ	-17499
Ἅ	-17500
Ὠ	-17501
ᾧ	-17502
▶	-17503
ゾ	-17504
亀	-17505
亏	-17506
冯	-17507
劌	-17508
厅	-17509
呐	-17510
婪	-17511
媸	-17512
审	-17513
尘	-17514
弹	-17515
憧	-17516
斎	-17517
檯	-17518
睏	-17519
窅	-17520
粢	-17521
綣	-17522
翾	-17523
聵	-17524
胆	-17525
舎	-17526
荡	-17527
莉	-17528
菌	-17529
薬	-17530
蜻	-17531
觚	-17532
諲	-17533
赛	-17534
躑	-17535
軽	-17536
酊	-17537
錨	-17538
锁	-17539
霊	-17540
驁	-17541
髀	-17542
개	-17543
건	-17544
려	-17545
령	-17546
루	-17547
초	-17548
행	-17549
𐤀	-17550
Ɨ	-17551
ǹ	-17552
Ө	-17553
ձ	-17554
չ	-17555
ੱ	-17556
ી	-17557
ോ	-17558
ც	-17559
ᚢ	-17560
ᾱ	-17561
⇄	-17562
╤	-17563
◀	-17564
♕	-17565
乗	-17566
俛	-17567
唤	-17568
块	-17569
塽	-17570
奘	-17571
媄	-17572
嫿	-17573
忡	-17574
扆	-17575
摆	-17576
朐	-17577
柁	-17578
橙	-17579
欧	-17580
汞	-17581
淙	-17582
痒	-17583
笆	-17584
簞	-17585
耄	-17586
臠	-17587
蔟	-17588
蝨	-17589
褫	-17590
赖	-17591
踣	-17592
踩	-17593
轮	-17594
鎌	-17595
阼	-17596
颇	-17597
餡	-17598
鸿	-17599
간	-17600
감	-17601
말	-17602
송	-17603
순	-17604
통	-17605
함	-17606
	-17607
𐤁	-17608
	-17609
Қ	-17610
Ү	-17611
֖	-17612
ೀ	-17613
წ	-17614
መ	-17615
ይ	-17616
ិ	-17617
ḧ	-17618
ὢ	-17619
◦	-17620
✕	-17621
両	-17622
亹	-17623
佾	-17624
厦	-17625
喑	-17626
坼	-17627
奐	-17628
姍	-17629
娇	-17630
媟	-17631
怫	-17632
悬	-17633
搧	-17634
撃	-17635
撚	-17636
攣	-17637
檳	-17638
櫬	-17639
汎	-17640
濞	-17641
炉	-17642
焼	-17643
煖	-17644
璠	-17645
甃	-17646
祺	-17647
窓	-17648
笺	-17649
縄	-17650
繾	-17651
芩	-17652
蜓	-17653
褸	-17654
规	-17655
览	-17656
觜	-17657
谏	-17658
谬	-17659
软	-17660
遶	-17661
郞	-17662
郟	-17663
鄺	-17664
鍘	-17665
鎛	-17666
鏞	-17667
钞	-17668
锋	-17669
锡	-17670
阶	-17671
险	-17672
雑	-17673
飮	-17674
황	-17675
𐒕	-17676
𒉺	-17677
ʏ	-17678
̶	-17679
ќ	-17680
Ի	-17681
Ց	-17682
ೊ	-17683
ദ	-17684
ൂ	-17685
േ	-17686
ັ	-17687
ཁ	-17688
ဲ	-17689
ွ	-17690
Ḵ	-17691
₦	-17692
⇆	-17693
≅	-17694
⊃	-17695
俳	-17696
厉	-17697
吮	-17698
咲	-17699
唁	-17700
喁	-17701
嘵	-17702
囘	-17703
娓	-17704
寛	-17705
惦	-17706
枰	-17707
枹	-17708
柚	-17709
楨	-17710
欻	-17711
毳	-17712
淥	-17713
渊	-17714
溲	-17715
犍	-17716
獬	-17717
瑶	-17718
磧	-17719
紱	-17720
紲	-17721
罟	-17722
翮	-17723
脉	-17724
茉	-17725
萇	-17726
蕘	-17727
蚣	-17728
酗	-17729
鍬	-17730
鏃	-17731
闍	-17732
韙	-17733
鬯	-17734
魆	-17735
麴	-17736
길	-17737
복	-17738
불	-17739
생	-17740
예	-17741
으	-17742
󠀠	-17743
Ɛ	-17744
ʦ	-17745
̋	-17746
ঙ	-17747
୍	-17748
ஸ	-17749
ಬ	-17750
ฆ	-17751
ཀ	-17752
ព	-17753
ល	-17754
ី	-17755
▮	-17756
⭘	-17757
励	-17758
厢	-17759
叭	-17760
咖	-17761
唃	-17762
啣	-17763
嗥	-17764
嗷	-17765
嚶	-17766
堊	-17767
夯	-17768
庁	-17769
弇	-17770
戛	-17771
掮	-17772
斿	-17773
杷	-17774
樟	-17775
檣	-17776
灞	-17777
狷	-17778
疹	-17779
皁	-17780
眄	-17781
砰	-17782
禼	-17783
笪	-17784
筦	-17785
绍	-17786
芰	-17787
茍	-17788
荅	-17789
莢	-17790
莱	-17791
蔻	-17792
薺	-17793
螃	-17794
螳	-17795
邹	-17796
闃	-17797
隈	-17798
霾	-17799
频	-17800
馘	-17801
ꦤ	-17802
ꦸ	-17803
읍	-17804
재	-17805
환	-17806
𐬀	-17807
ƚ	-17808
Ǵ	-17809
ɴ	-17810
̻	-17811
ѧ	-17812
Լ	-17813
Յ	-17814
ٓ	-17815
ܦ	-17816
ਗ	-17817
ୁ	-17818
ී	-17819
ခ	-17820
ባ	-17821
ᛅ	-17822
អ	-17823
ḿ	-17824
₪	-17825
↦	-17826
┃	-17827
亩	-17828
倬	-17829
嚓	-17830
墻	-17831
嫠	-17832
憋	-17833
戡	-17834
损	-17835
搴	-17836
晾	-17837
枵	-17838
桴	-17839
梃	-17840
歴	-17841
氅	-17842
氾	-17843
浑	-17844
浰	-17845
淬	-17846
漉	-17847
瀠	-17848
琚	-17849
瘥	-17850
瘵	-17851
眭	-17852
穂	-17853
菘	-17854
菡	-17855
萑	-17856
薈	-17857
袭	-17858
褓	-17859
觅	-17860
転	-17861
鉢	-17862
鑌	-17863
铸	-17864
饈	-17865
骄	-17866
鵰	-17867
와	-17868
합	-17869
𐒘	-17870
𐤋	-17871
ҫ	-17872
ӱ	-17873
֥	-17874
؟	-17875
਼	-17876
ੈ	-17877
ஜ	-17878
ສ	-17879
ီ	-17880
პ	-17881
ᖅ	-17882
ោ	-17883
ḣ	-17884
ṷ	-17885
Ẹ	-17886
≙	-17887
ⲉ	-17888
ㄊ	-17889
兹	-17890
兽	-17891
凑	-17892
勦	-17893
唣	-17894
喈	-17895
嘟	-17896
堭	-17897
妊	-17898
妯	-17899
娌	-17900
巉	-17901
慫	-17902
掂	-17903
撙	-17904
晞	-17905
朓	-17906
构	-17907
标	-17908
検	-17909
楯	-17910
櫝	-17911
洱	-17912
淞	-17913
爇	-17914
犖	-17915
狙	-17916
璨	-17917
疚	-17918
痍	-17919
癱	-17920
竑	-17921
筌	-17922
箠	-17923
糯	-17924
练	-17925
罾	-17926
舔	-17927
茀	-17928
蒐	-17929
藿	-17930
蘚	-17931
蛮	-17932
蟀	-17933
襁	-17934
諢	-17935
课	-17936
趄	-17937
踟	-17938
遹	-17939
鈭	-17940
铃	-17941
靨	-17942
项	-17943
鶼	-17944
달	-17945
버	-17946
새	-17947
실	-17948
크	-17949
𒅆	-17950
ʓ	-17951
͝	-17952
Ϝ	-17953
ҷ	-17954
Խ	-17955
Ղ	-17956
֏	-17957
١	-17958
ۆ	-17959
ܠ	-17960
ި	-17961
ఛ	-17962
ಚ	-17963
ಜ	-17964
ൻ	-17965
ฎ	-17966
ฒ	-17967
ໍ	-17968
ჩ	-17969
ነ	-17970
ᑦ	-17971
ᠪ	-17972
ᠭ	-17973
ᠷ	-17974
Ἴ	-17975
₰	-17976
☿	-17977
ㄇ	-17978
偪	-17979
刨	-17980
呜	-17981
喋	-17982
嚦	-17983
埶	-17984
埼	-17985
夹	-17986
嵋	-17987
徉	-17988
愔	-17989
抛	-17990
搆	-17991
歔	-17992
沟	-17993
沴	-17994
湎	-17995
溱	-17996
潟	-17997
瀧	-17998
熠	-17999
玦	-18000
畅	-18001
畎	-18002
疙	-18003
瞌	-18004
碓	-18005
礁	-18006
秬	-18007
縝	-18008
胱	-18009
萨	-18010
蚓	-18011
蜮	-18012
覦	-18013
谒	-18014
豉	-18015
賕	-18016
趋	-18017
躐	-18018
辇	-18019
辉	-18020
迕	-18021
迺	-18022
鈸	-18023
銑	-18024
錁	-18025
鏑	-18026
铺	-18027
隠	-18028
颂	-18029
飫	-18030
餑	-18031
餬	-18032
饔	-18033
魑	-18034
齿	-18035
람	-18036
법	-18037
죽	-18038
토	-18039
풍	-18040
프	-18041
후	-18042
	-18043
𐤌	-18044
𐤓	-18045
Ė	-18046
ŗ	-18047
Ƶ	-18048
ƶ	-18049
ȅ	-18050
Ϊ	-18051
ٌ	-18052
ੂ	-18053
ಶ	-18054
ೋ	-18055
ฤ	-18056
ယ	-18057
ძ	-18058
ራ	-18059
ច	-18060
េ	-18061
ំ	-18062
₳	-18063
Ↄ	-18064
俭	-18065
僇	-18066
厂	-18067
咭	-18068
嗒	-18069
噁	-18070
嚳	-18071
圇	-18072
圻	-18073
妈	-18074
峡	-18075
庐	-18076
怵	-18077
捭	-18078
掎	-18079
柢	-18080
澥	-18081
狭	-18082
獪	-18083
畑	-18084
疤	-18085
瘍	-18086
癬	-18087
瞀	-18088
礻	-18089
笼	-18090
粕	-18091
紉	-18092
纲	-18093
羑	-18094
肸	-18095
舸	-18096
艤	-18097
荃	-18098
葯	-18099
蒔	-18100
薤	-18101
裒	-18102
诞	-18103
貊	-18104
蹷	-18105
辄	-18106
递	-18107
鄯	-18108
鏜	-18109
铭	-18110
閡	-18111
闓	-18112
隣	-18113
鵒	-18114
날	-18115
림	-18116
설	-18117
애	-18118
옥	-18119
항	-18120
형	-18121
Ļ	-18122
Ű	-18123
Ǫ	-18124
ȯ	-18125
̦	-18126
Ք	-18127
ਉ	-18128
ਣ	-18129
ત	-18130
ର	-18131
ೂ	-18132
ග	-18133
හ	-18134
ේ	-18135
ም	-18136
ሰ	-18137
ᛁ	-18138
ἓ	-18139
ぁ	-18140
ㄔ	-18141
亜	-18142
仃	-18143
儈	-18144
勋	-18145
勔	-18146
啡	-18147
嘹	-18148
婸	-18149
媢	-18150
媮	-18151
寀	-18152
嶧	-18153
怍	-18154
恳	-18155
惓	-18156
揄	-18157
昃	-18158
楔	-18159
汐	-18160
汕	-18161
渔	-18162
瓔	-18163
疝	-18164
瘩	-18165
砭	-18166
硕	-18167
粳	-18168
紵	-18169
繽	-18170
纯	-18171
罚	-18172
羯	-18173
腾	-18174
蘩	-18175
螽	-18176
蟋	-18177
衤	-18178
贬	-18179
跤	-18180
蹦	-18181
辻	-18182
遛	-18183
遴	-18184
錶	-18185
鍼	-18186
隶	-18187
韐	-18188
頦	-18189
顽	-18190
饶	-18191
驱	-18192
鶩	-18193
鷙	-18194
鹰	-18195
너	-18196
살	-18197
심	-18198
악	-18199
업	-18200
저	-18201
채	-18202
피	-18203
	-18204
𐤏	-18205
𐤕	-18206
𐰀	-18207
𒂗	-18208
𒈨	-18209
Ģ	-18210
Ǧ	-18211
ȉ	-18212
ֱ	-18213
ަ	-18214
ঘ	-18215
৳	-18216
ਖ	-18217
ೇ	-18218
ჯ	-18219
᜔	-18220
ជ	-18221
ỷ	-18222
◯	-18223
♊	-18224
伟	-18225
凿	-18226
咏	-18227
嗆	-18228
囫	-18229
圯	-18230
坯	-18231
埔	-18232
壶	-18233
媧	-18234
宄	-18235
彫	-18236
忐	-18237
悝	-18238
掞	-18239
擐	-18240
曽	-18241
柤	-18242
桢	-18243
権	-18244
濰	-18245
瀹	-18246
燉	-18247
珞	-18248
皤	-18249
磣	-18250
磺	-18251
笃	-18252
筴	-18253
絢	-18254
綹	-18255
緱	-18256
绪	-18257
脸	-18258
蝟	-18259
蝸	-18260
螂	-18261
衎	-18262
覧	-18263
询	-18264
诵	-18265
邻	-18266
邽	-18267
鄞	-18268
酪	-18269
鍔	-18270
锏	-18271
霰	-18272
鸝	-18273
黝	-18274
黹	-18275
ꦏ	-18276
검	-18277
르	-18278
묘	-18279
𐰆	-18280
𒂠	-18281
ȁ	-18282
ʙ	-18283
ʝ	-18284
Ә	-18285
Ӱ	-18286
ު	-18287
ঁ	-18288
੍	-18289
મ	-18290
ஷ	-18291
ං	-18292
ජ	-18293
ူ	-18294
ទ	-18295
℔	-18296
℗	-18297
ⲣ	-18298
ㄗ	-18299
傴	-18300
冪	-18301
啃	-18302
嗑	-18303
壚	-18304
嫚	-18305
嬡	-18306
専	-18307
忄	-18308
忆	-18309
憮	-18310
擗	-18311
斕	-18312
曛	-18313
柞	-18314
桷	-18315
毐	-18316
渋	-18317
溼	-18318
漪	-18319
澇	-18320
烤	-18321
牂	-18322
狮	-18323
璿	-18324
眨	-18325
瞇	-18326
窣	-18327
窶	-18328
箜	-18329
篱	-18330
緑	-18331
緦	-18332
縠	-18333
缚	-18334
翛	-18335
翥	-18336
芎	-18337
芟	-18338
菰	-18339
諠	-18340
诰	-18341
貅	-18342
踽	-18343
蹠	-18344
邓	-18345
酺	-18346
醯	-18347
鈎	-18348
銬	-18349
餼	-18350
駮	-18351
験	-18352
骇	-18353
麩	-18354
齲	-18355
임	-18356
훈	-18357
휴	-18358
𐒛	-18359
𐤅	-18360
𐤉	-18361
𐤊	-18362
𒁲	-18363
𒄩	-18364
𒆸	-18365
ǭ	-18366
̭	-18367
Ҥ	-18368
ӯ	-18369
ֿ	-18370
ڈ	-18371
ܟ	-18372
ુ	-18373
ഗ	-18374
ശ	-18375
ฑ	-18376
ຂ	-18377
ບ	-18378
ྒ	-18379
ဒ	-18380
ါ	-18381
ያ	-18382
ደ	-18383
ះ	-18384
₤	-18385
ⴰ	-18386
ヂ	-18387
ㄑ	-18388
ㄛ	-18389
ㄝ	-18390
佣	-18391
働	-18392
劬	-18393
呶	-18394
嗦	-18395
嘎	-18396
坛	-18397
増	-18398
従	-18399
忑	-18400
悃	-18401
惨	-18402
愬	-18403
懣	-18404
戻	-18405
払	-18406
挥	-18407
擿	-18408
檗	-18409
殳	-18410
毬	-18411
汊	-18412
泞	-18413
洄	-18414
淀	-18415
淦	-18416
滥	-18417
滨	-18418
牋	-18419
獼	-18420
璆	-18421
癇	-18422
皞	-18423
穫	-18424
粽	-18425
絺	-18426
緹	-18427
縕	-18428
纘	-18429
绳	-18430
肓	-18431
艳	-18432
芊	-18433
莠	-18434
菹	-18435
蜺	-18436
蝎	-18437
褘	-18438
褡	-18439
褰	-18440
賡	-18441
贴	-18442
蹻	-18443
躪	-18444
躯	-18445
錙	-18446
鏌	-18447
锺	-18448
闺	-18449
靦	-18450
颻	-18451
騂	-18452
鸛	-18453
麹	-18454
黙	-18455
님	-18456
룡	-18457
릉	-18458
립	-18459
작	-18460
	-18461
𐤄	-18462
𒄑	-18463
𒌨	-18464
ɢ	-18465
͐	-18466
Ї	-18467
Ґ	-18468
ฝ	-18469
ཆ	-18470
ထ	-18471
ဗ	-18472
ဝ	-18473
၊	-18474
ღ	-18475
በ	-18476
ᐠ	-18477
ᚱ	-18478
ἳ	-18479
ᾠ	-18480
∠	-18481
☜	-18482
✱	-18483
ⲏ	-18484
侗	-18485
俁	-18486
厮	-18487
吗	-18488
圂	-18489
埒	-18490
奡	-18491
嫫	-18492
层	-18493
屡	-18494
応	-18495
愰	-18496
攄	-18497
暘	-18498
枇	-18499
栓	-18500
栝	-18501
欑	-18502
歳	-18503
殍	-18504
汭	-18505
淝	-18506
湿	-18507
漚	-18508
濼	-18509
灤	-18510
灿	-18511
玖	-18512
璵	-18513
矇	-18514
秽	-18515
窬	-18516
竞	-18517
篌	-18518
簠	-18519
绕	-18520
缓	-18521
罣	-18522
肠	-18523
肫	-18524
苧	-18525
茱	-18526
蕨	-18527
覰	-18528
譫	-18529
贮	-18530
酎	-18531
釃	-18532
銭	-18533
鏹	-18534
钅	-18535
雱	-18536
饼	-18537
驴	-18538
鴞	-18539
鼐	-18540
데	-18541
돌	-18542
왜	-18543
효	-18544
	-18545
︠	-18546
︡	-18547
𐒗	-18548
𐤔	-18549
𒉿	-18550
ʧ	-18551
Ғ	-18552
ҙ	-18553
Շ	-18554
։	-18555
ܓ	-18556
ऊ	-18557
ঠ	-18558
ৃ	-18559
ਅ	-18560
ਘ	-18561
ਬ	-18562
ન	-18563
સ	-18564
૦	-18565
ନ	-18566
ఁ	-18567
ീ	-18568
ණ	-18569
ෙ	-18570
๋	-18571
ພ	-18572
ཨ	-18573
ል	-18574
ተ	-18575
ḑ	-18576
Ṡ	-18577
Ὕ	-18578
ῑ	-18579
◄	-18580
✗	-18581
ⲩ	-18582
ㄟ	-18583
侏	-18584
呪	-18585
囁	-18586
坟	-18587
坷	-18588
垠	-18589
堸	-18590
奖	-18591
婴	-18592
峋	-18593
崈	-18594
嶙	-18595
幗	-18596
廕	-18597
懽	-18598
捩	-18599
擷	-18600
旖	-18601
昕	-18602
昪	-18603
棰	-18604
橄	-18605
橛	-18606
欖	-18607
汩	-18608
玭	-18609
甓	-18610
痧	-18611
癟	-18612
碇	-18613
禫	-18614
秫	-18615
篠	-18616
糙	-18617
繯	-18618
绵	-18619
罘	-18620
聪	-18621
膻	-18622
苣	-18623
莧	-18624
薜	-18625
虻	-18626
蚕	-18627
襴	-18628
諏	-18629
諼	-18630
谊	-18631
谥	-18632
赌	-18633
赍	-18634
阅	-18635
阔	-18636
颖	-18637
饜	-18638
驊	-18639
鷫	-18640
麈	-18641
鼙	-18642
ꦭ	-18643
ꦺ	-18644
등	-18645
먹	-18646
발	-18647
직	-18648
𐒆	-18649
𒈾	-18650
	-18651
Ň	-18652
ƣ	-18653
Ǐ	-18654
ʟ	-18655
̐	-18656
ѫ	-18657
ҥ	-18658
՛	-18659
ߊ	-18660
औ	-18661
ঞ	-18662
ঢ	-18663
ఝ	-18664
ಷ	-18665
ർ	-18666
๒	-18667
ຣ	-18668
ཡ	-18669
፡	-18670
ᐅ	-18671
ᑲ	-18672
ខ	-18673
វ	-18674
ូ	-18675
ែ	-18676
ᠬ	-18677
ᠶ	-18678
ἆ	-18679
ᾗ	-18680
ῄ	-18681
⊔	-18682
⌣	-18683
╋	-18684
♡	-18685
⚹	-18686
〒	-18687
ㄅ	-18688
亓	-18689
佺	-18690
俑	-18691
储	-18692
僨	-18693
儺	-18694
厌	-18695
厓	-18696
啓	-18697
営	-18698
嘛	-18699
嘱	-18700
堠	-18701
嶢	-18702
戯	-18703
扌	-18704
拨	-18705
掯	-18706
揎	-18707
揲	-18708
摻	-18709
撢	-18710
撣	-18711
敛	-18712
昀	-18713
柝	-18714
柷	-18715
检	-18716
棓	-18717
楸	-18718
槿	-18719
歃	-18720
浓	-18721
溷	-18722
滉	-18723
漈	-18724
焞	-18725
燠	-18726
甍	-18727
畚	-18728
瘾	-18729
瞠	-18730
礡	-18731
祆	-18732
祓	-18733
窸	-18734
粿	-18735
绢	-18736
脇	-18737
腊	-18738
芜	-18739
茁	-18740
茆	-18741
茭	-18742
荘	-18743
萁	-18744
蒋	-18745
蘼	-18746
詿	-18747
誉	-18748
軹	-18749
迳	-18750
郿	-18751
鉶	-18752
闆	-18753
颭	-18754
髑	-18755
髪	-18756
鮒	-18757
鮓	-18758
鯢	-18759
鷥	-18760
ꦼ	-18761
란	-18762
별	-18763
𒂊	-18764
𒌆	-18765
ɭ	-18766
͠	-18767
Џ	-18768
ѓ	-18769
Ѣ	-18770
Զ	-18771
՚	-18772
ٍ	-18773
٢	-18774
ڵ	-18775
ओ	-18776
१	-18777
જ	-18778
લ	-18779
ବ	-18780
ൽ	-18781
ຍ	-18782
ྟ	-18783
አ	-18784
ድ	-18785
ገ	-18786
ᚴ	-18787
ᠲ	-18788
ᠳ	-18789
ḟ	-18790
Ấ	-18791
⍳	-18792
☌	-18793
♑	-18794
ⲙ	-18795
伾	-18796
侠	-18797
傒	-18798
僊	-18799
僰	-18800
凴	-18801
刹	-18802
剴	-18803
卅	-18804
吓	-18805
唏	-18806
堻	-18807
姉	-18808
婭	-18809
届	-18810
崛	-18811
帟	-18812
庀	-18813
弢	-18814
弯	-18815
徧	-18816
恫	-18817
慼	-18818
抿	-18819
摽	-18820
撳	-18821
攖	-18822
斝	-18823
旎	-18824
昝	-18825
杈	-18826
檠	-18827
殪	-18828
毎	-18829
泅	-18830
泱	-18831
洌	-18832
洫	-18833
洹	-18834
済	-18835
溃	-18836
灝	-18837
癃	-18838
睚	-18839
窝	-18840
綆	-18841
続	-18842
缠	-18843
翫	-18844
莩	-18845
藁	-18846
衞	-18847
裼	-18848
訇	-18849
诈	-18850
谗	-18851
购	-18852
赃	-18853
躚	-18854
轤	-18855
郛	-18856
鎔	-18857
鏨	-18858
鏽	-18859
钉	-18860
锐	-18861
闤	-18862
闽	-18863
阝	-18864
雊	-18865
靼	-18866
騅	-18867
骂	-18868
髟	-18869
鯽	-18870
鸭	-18871
麦	-18872
녀	-18873
녕	-18874
외	-18875
있	-18876
집	-18877
충	-18878
코	-18879
희	-18880
𐒐	-18881
𒆗	-18882
𒆪	-18883
𒋀	-18884
Ě	-18885
ѹ	-18886
ӈ	-18887
Ժ	-18888
ײ	-18889
ڭ	-18890
ો	-18891
ఔ	-18892
ఙ	-18893
ಃ	-18894
ො	-18895
ດ	-18896
ཐ	-18897
ླ	-18898
ከ	-18899
ᠮ	-18900
ᨠ	-18901
₵	-18902
↘	-18903
⏗	-18904
⚑	-18905
⛕	-18906
⛫	-18907
[...]
